{"<PAD>":0,"<UNK>":1,"<BOS>":2,"<EOS>":3,"!":4,"\"":5,"#":6,"$":7,"%":8,"&":9,"'":10,"(":11,")":12,"*":13,"+":14,",":15,"-":16,".":17,"/":18,"0":19,"1":20,"2":21,"3":22,"4":23,"5":24,"6":25,"7":26,"8":27,"9":28,":":29,";":30,"<":31,"=":32,">":33,"?":34,"@":35,"A":36,"B":37,"C":38,"D":39,"E":40,"F":41,"G":42,"H":43,"I":44,"J":45,"K":46,"L":47,"M":48,"N":49,"O":50,"P":51,"Q":52,"R":53,"S":54,"T":55,"U":56,"V":57,"W":58,"X":59,"Y":60,"Z":61,"[":62,"\\":63,"]":64,"^":65,"_":66,"`":67,"a":68,"b":69,"c":70,"d":71,"e":72,"f":73,"g":74,"h":75,"i":76,"j":77,"k":78,"l":79,"m":80,"n":81,"o":82,"p":83,"q":84,"r":85,"s":86,"t":87,"u":88,"v":89,"w":90,"x":91,"y":92,"z":93,"{":94,"|":95,"}":96,"~":97,"¡":98,"¢":99,"£":100,"¤":101,"¥":102,"¦":103,"§":104,"¨":105,"©":106,"ª":107,"«":108,"¬":109,"®":110,"¯":111,"°":112,"±":113,"²":114,"³":115,"´":116,"µ":117,"¶":118,"·":119,"¸":120,"¹":121,"º":122,"»":123,"¼":124,"½":125,"¾":126,"¿":127,"À":128,"Á":129,"Â":130,"Ã":131,"Ä":132,"Å":133,"Æ":134,"Ç":135,"È":136,"É":137,"Ê":138,"Ë":139,"Ì":140,"Í":141,"Î":142,"Ï":143,"Ð":144,"Ñ":145,"Ò":146,"Ó":147,"Ô":148,"Õ":149,"Ö":150,"×":151,"Ø":152,"Ù":153,"Ú":154,"Û":155,"Ü":156,"Ý":157,"Þ":158,"ß":159,"à":160,"á":161,"â":162,"ã":163,"ä":164,"å":165,"æ":166,"ç":167,"è":168,"é":169,"ê":170,"ë":171,"ì":172,"í":173,"î":174,"ï":175,"ð":176,"ñ":177,"ò":178,"ó":179,"ô":180,"õ":181,"ö":182,"÷":183,"ø":184,"ù":185,"ú":186,"û":187,"ü":188,"ý":189,"þ":190,"ÿ":191,"Ā":192,"ā":193,"Ă":194,"ă":195,"Ą":196,"ą":197,"Ć":198,"ć":199,"Ĉ":200,"ĉ":201,"Ċ":202,"ċ":203,"Č":204,"č":205,"Ď":206,"ď":207,"Đ":208,"đ":209,"Ē":210,"ē":211,"Ĕ":212,"ĕ":213,"Ė":214,"ė":215,"Ę":216,"ę":217,"Ě":218,"ě":219,"Ĝ":220,"ĝ":221,"Ğ":222,"ğ":223,"Ġ":224,"ġ":225,"Ģ":226,"ģ":227,"Ĥ":228,"ĥ":229,"Ħ":230,"ħ":231,"Ĩ":232,"ĩ":233,"Ī":234,"ī":235,"Ĭ":236,"ĭ":237,"Į":238,"į":239,"İ":240,"ı":241,"Ĳ":242,"ĳ":243,"Ĵ":244,"ĵ":245,"Ķ":246,"ķ":247,"ĸ":248,"Ĺ":249,"ĺ":250,"Ļ":251,"ļ":252,"Ľ":253,"ľ":254,"Ŀ":255,"ŀ":256,"Ł":257,"ł":258,"Ń":259,"er":260,"Ġd":261,"en":262,"čĊ":263,"ch":264,"ei":265,"es":266,"ein":267,"st":268,"Ġi":269,"Ġs":270,"nd":271,"Ġder":272,"ie":273,"or":274,"ge":275,"Ġ(":276,"Ã¶":277,"au":278,"as":279,"Ġw":280,"an":281,"ich":282,"ter":283,"Ã¼":284,"em":285,"ĠS":286,"Ġdes":287,"ĠH":288,"ir":289,"Ã¤":290,"te":291,"ĠG":292,"und":293,"ig":294,"ĠK":295,"in":296,"Ġist":297,"ĠA":298,"Ġv":299,"al":300,"us":301,"ĠN":302,"Ġsein":303,"et":304,"ÃŁ":305,"Ġb":306,"fer":307,"Ġh":308,"ten":309,"it":310,"gen":311,"un":312,"eh":313,"Ġdie":314,"Ġge":315,"Ġm":316,"is":317,"at":318,"on":319,"Ġund":320,"Ġg":321,"ĠB":322,"Ġz":323,"Ġein":324,"mm":325,"orus":326,"Ġer":327,"Ã¶n":328,"den":329,"ĠV":330,"Ġdas":331,"el":332,"aus":333,"ĠM":334,"re":335,"Ġn":336,"ro":337,"ies":338,"Ġih":339,"ĠO":340,"Ġan":341,"Ġdu":342,"ĠW":343,"Ġzu":344,"ĠT":345,"Ã¶nig":346,"le":347,"Ġf":348,"ber":349,"Ġden":350,"Ġin":351,"am":352,"Ã¼r":353,"ĠKÃ¶nig":354,"icht":355,"ben":356,"Ġdein":357,"ĠP":358,"der":359,"Un":360,"ach":361,"Der":362,"est":363,"auf":364,"ar":365,"Horus":366,"ol":367,"ung":368,"Ġwir":369,"ĠF":370,"Ġvon":371,"bt":372,"?)":373,"sch":374,"de":375,"eit":376,"Ein":377,"Ġdir":378,"ind":379,"ĠHer":380,"ĠR":381,"pfer":382,"Ġauf":383,"ĠL":384,"Ġnicht":385,"ĠUn":386,"ĠKÃ¶nigs":387,"chen":388,"lich":389,"Ġhat":390,"ĠSch":391,"ĠNe":392,"ut":393,"and":394,"Ġwird":395,"ot":396,"ĠfÃ¼r":397,"ĠVer":398,"Er":399,"Ġk":400,"ĠD":401,"eher":402,"roÃŁ":403,"ne":404,"hr":405,"ti":406,"Ġdich":407,"ann":408,"Ġdem":409,"end":410,"Ã¶r":411,"ab":412,"Ġt":413,"Ġmit":414,"ck":415,"omm":416,"rei":417,"ries":418,"Ġbei":419,"ĠHerr":420,"riester":421,"Ġ$":422,"ep":423,"Ġver":424,"sen":425,"ĠOpfer":426,"ott":427,"iris":428,"ag":429,"hn":430,"cht":431,"ef":432,"Ġal":433,"Ġdies":434,"$-":435,"Ġgi":436,"ĠGott":437,"ĠKa":438,"Ġgibt":439,"imm":440,"um":441,"ĠVor":442,"Ġsie":443,"Ġes":444,"siris":445,"Ġihn":446,"Ġwer":447,"eine":448,"Ġda":449,"Ã¤g":450,"steher":451,"ka":452,"ur":453,"ĠHorus":454,"enn":455,"ausend":456,"Ġaus":457,"ier":458,"esch":459,"Ġsch":460,"ĠI":461,"oll":462,"ĠUnas":463,"Das":464,"ĠAn":465,"ĠTo":466,"Ch":467,"Die":468,"ft":469,"ast":470,"Ġl":471,"Ġseinem":472,"ommen":473,"ed":474,"ist":475,"Ġvor":476,"(?)":477,"ver":478,"ohn":479,"ru":480,"ĠAu":481,"Ã¶rt":482,"wal":483,").":484,"ĠNefer":485,"oder":486,"),":487,"acht":488,"ĠVorsteher":489,"Ġsp":490,"ĠZ":491,"ub":492,"yp":493,"ĠToten":494,"ĠCh":495,"Ġj":496,"walter":497,"gel":498,"Ġihm":499,"op":500,"rÃ¼":501,"rechen":502,"tet":503,"Ã¼ber":504,"Ã¤gyp":505,"ze":506,"eb":507,"mÃ¤":508,"Ġsich":509,"Ġals":510,"eith":511,"epi":512,"Ġle":513,"Du":514,"ff":515,"ĠSohn":516,"ĠgroÃŁ":517,"amit":518,"Ġseine":519,"Ġihr":520,"Ã¶t":521,"ĠdaÃŁ":522,"Ġtausend":523,"Ã¶ge":524,"Ġsind":525,"orte":526,"Ã¤gypten":527,"ĠE":528,"êľ":529,"Ġ(?)":530,"kommen":531,"Ġdamit":532,"ha":533,"Ġbist":534,"ĠOber":535,"Ġim":536,"Ġgeh":537,"ĠOsiris":538,".:":539,"Ã¶gen":540,"ere":541,"Ġsprechen":542,"Sch":543,"ent":544,"tep":545,"Worte":546,"Ġst":547,"Ã¶rtl":548,"ern":549,"ĠGÃ¶t":550,"len":551,"ĠSp":552,"wÃ¶rtl":553,"ĠGÃ¶tter":554,"och":555,"Ġun":556,"ĠGroÃŁ":557,"Ġwie":558,"Ġseiner":559,"Ġwas":560,"Ġwerden":561,"ĠÃ¼ber":562,"amen":563,"á¸":564,"se":565,"ĠRe":566,"ĠVerwalter":567,"gt":568,"ĠEr":569,"Ġbeiden":570,"Ġher":571,"Ġdeine":572,"ĠPepi":573,"eu":574,"lt":575,"zen":576,"il":577,"mÃ¶gen":578,"he":579,"la":580,"lei":581,"lÃ¤":582,"ĠNeith":583,"mÃ¶gens":584,"ÃŁt":585,"ĠKÃ¶nigsver":586,"ĠKÃ¶nigsvermÃ¶gens":587,"ah":588,"ĠUnter":589,"kare":590,"vor":591,"Es":592,"ĠAr":593,"ubis":594,":)":595,"rot":596,"tig":597,"ĠJ":598,"omÃ¤":599,"ĠSt":600,"eg":601,"einen":602,"Ġich":603,"Ġsag":604,"Ġseinen":605,"ĠAnubis":606,"sor":607,"Ġsoll":608,"ĠNeferkare":609,"geh":610,"jer":611,"Ġunter":612,"reiber":613,"ien":614,"nis":615,"ĠAha":616,"Ġdieser":617,"ĠGottes":618,"zt":619,"ehr":620,"Ġgeb":621,"eti":622,"ser":623,"wei":624,"ib":625,"Osiris":626,"heit":627,"ĠAuf":628,"DomÃ¤":629,"ahr":630,"ĠVersor":631,"DomÃ¤ne":632,"rie":633,"ččĊ":634,"tel":635,"ang":636,"unde":637,"ĠMer":638,"Ġwerde":639,"Ġdeinen":640,"êľ£":641,"ĠVersorg":642,"orden":643,"immel":644,"bei":645,"be":646,"Ã¤t":647,"fertig":648,"ehen":649,"Ġdeinem":650,"lichen":651,"ler":652,"ĠmÃ¶ge":653,"opfer":654,"ri":655,"uch":656,"Ġ'":657,"Ġwar":658,"ĠgroÃŁen":659,"Sein":660,"eben":661,"lÃ¼":662,"nen":663,"priester":664,"igen":665,"os":666,"rau":667,"ĠHimmel":668,"Ġdur":669,"des":670,"Ġ\"":671,"angen":672,"alast":673,"Ġbe":674,"amm":675,"pf":676,"Ġdurch":677,"Sie":678,"geben":679,"ige":680,"Ġum":681,"ĠHaus":682,"Ġeiner":683,"gest":684,"rin":685,"ĠWas":686,"hal":687,"eiter":688,"ĠPriester":689,"ĠTotenpriester":690,"ieb":691,"auch":692,"Ġeine":693,"erecht":694,"ĠUnterÃ¤gypten":695,"Ich":696,"egen":697,"ges":698,"seher":699,"rÃ¤":700,"Ġnimm":701,"etep":702,"keit":703,"Ġzum":704,"ĠHorusau":705,"dj":706,"Ã¼t":707,"eni":708,"eil":709,"Ġso":710,"ĠPalast":711,"ont":712,"ĠBrot":713,"ĠHorusauge":714,"itze":715,"ommt":716,"erechtfertig":717,"sp":718,"ĠGef":719,"Ġnach":720,"dem":721,"orn":722,"Seine":723,"Ġhin":724,"ĠKai":725,"Unas":726,"nefer":727,"ĠschÃ¶n":728,"tier":729,"oh":730,"ort":731,"Ġges":732,"cken":733,"ĠArm":734,"Ġsei":735,"ĠNamen":736,"ĠHerrn":737,"ungen":738,"Ġam":739,"eth":740,"Ġwirst":741,"rop":742,"Ġleben":743,"Ġwur":744,"Ġeinen":745,"ndem":746,"Ã¼n":747,"als":748,"ÃŁen":749,"reund":750,"krop":751,"Ġr":752,"ert":753,"Ġindem":754,"Ġworden":755,"ĠAb":756,"Ġgegeben":757,"aben":758,"lan":759,"ole":760,"ĠÃ":761,"Ġent":762,"ĠGes":763,"ĠNekrop":764,"ĠSpitze":765,"Ġseines":766,"ĠAufseher":767,"hin":768,"isch":769,"ĠLand":770,"ĠMa":771,"ĠHerz":772,"Ã¶gest":773,"igkeit":774,"ater":775,"ĠBier":776,"ĠTotenopfer":777,"ĠMund":778,"eschem":779,"ĠGroÃŁen":780,"ĠNekropole":781,"Priester":782,"ĠGel":783,"Ġwurde":784,"ke":785,"ĠGeh":786,"Ġgesch":787,"ĠWasser":788,"ĠVater":789,"eln":790,"elt":791,"ĠOberÃ¤gypten":792,"Ver":793,"Ġhast":794,"Ġgeg":795,"Ġje":796,"ger":797,"ra":798,"ĠHÃ¼":799,"iger":800,"Sei":801,"no":802,"Ġgekommen":803,"ĠDen":804,"Ġ-":805,"Ġab":806,"Ġkann":807,"MÃ¶ge":808,"chter":809,"usamm":810,"ĠFreund":811,"rieden":812,"wer":813,"ĠMann":814,"usammen":815,"fen":816,"Tausend":817,"ĠBru":818,"Ġsollst":819,"lÃ¼gel":820,"emti":821,"ĠU":822,"ĠVersorgte":823,"Chn":824,"ron":825,"Ġdoch":826,"ĠWunde":827,"Chnum":828,"zu":829,"ses":830,"Ã¼rd":831,"ĠSchreiber":832,"ĠGelieb":833,"Fest":834,"Ġeinem":835,"olg":836,"ungtier":837,"ĠLeben":838,"halle":839,"les":840,"ĸl":841,"gef":842,"Ġgeben":843,"Ġkommt":844,"die":845,"ken":846,"Ġgegen":847,"ĠTeti":848,"Ġbeim":849,"Dein":850,"aa":851,"du":852,"ew":853,"anch":854,"Ã¤r":855,"arauf":856,"ĠGut":857,"etjer":858,"tah":859,"Ġoder":860,"ĠSeth":861,"Ġmir":862,"Ġeines":863,"ĠRind":864,"Ġman":865,"ĠGesicht":866,"ĠHand":867,"Ġzusammen":868,"ĠHerrin":869,"Ġsagte":870,"fl":871,"Ġdass":872,"kai":873,"ruch":874,"Denn":875,"schen":876,"Ġlei":877,"MÃ¶gest":878,"ĠQ":879,"Ġmein":880,"ĠJungtier":881,"Deine":882,"von":883,"voll":884,"Ġwei":885,"ungs":886,".\"":887,"her":888,"sie":889,"Ã¤n":890,"ĠFest":891,"Ġlie":892,"êľ¥":893,"á¸¥":894,"Ġhervor":895,"adj":896,"fest":897,"assen":898,"Ġwenn":899,"Da":900,"mer":901,"Ġhaben":902,"ht":903,"za":904,"atz":905,"Ġgehen":906,"lange":907,"erst":908,"igt":909,"mmer":910,"opf":911,"ffen":912,"uÃŁ":913,"Ġp":914,"ĠGr":915,"ĠAch":916,"achen":917,"ĠIn":918,"ĠVerwalterin":919,"enre":920,"Ġbin":921,"ĠGroÃŁe":922,"araufhin":923,"fe":924,"Ġsehr":925,"geb":926,"Ã¶ff":927,"ĠSeschem":928,"Ġbest":929,"tens":930,"ĠLeiter":931,"ĠHauses":932,"eim":933,"ĠAl":934,"utter":935,"ckt":936,"Ġlebt":937,"lie":938,"Ġgew":939,"Und":940,"iz":941,"mann":942,"ati":943,"fÃ¼r":944,"Ġo":945,"eist":946,"ĠHetep":947,"Ġeinz":948,"Ġverb":949,"vorsteher":950,"ĠMerenre":951,"det":952,"pel":953,"Ã¤h":954,"ache":955,"Ġveran":956,"'.":957,"ing":958,"ĠTag":959,"ltes":960,"ĠGeflÃ¼gel":961,"Ġdessen":962,"ĠNemti":963,"etzt":964,"epriester":965,"ĠPalastes":966,"uf":967,"ĠEin":968,"sten":969,"etw":970,"ĠLang":971,"edj":972,"Ġjen":973,"gehen":974,"mit":975,"Ã¤nd":976,"ĠMutter":977,"ĠWab":978,"ame":979,"ĠDjer":980,"Ġdieses":981,"Ġheraus":982,"lesepriester":983,"bel":984,"so":985,"Ãĸl":986,"ers":987,"Ġsagt":988,"geht":989,"das":990,"hot":991,"svoll":992,"Ġem":993,"iefer":994,"oren":995,"aut":996,"tern":997,"ĠGeb":998,"ĠDj":999,"ĠErde":1000,"eop":1001,"Ġdau":1002,"ĠHor":1003,"Ġihre":1004,"arke":1005,"á¸«":1006,"!\"":1007,"Re":1008,"St":1009,"haus":1010,"Ġmich":1011,"ĠWes":1012,"Ġdiesem":1013,"ĠVorlesepriester":1014,"nisses":1015,"gr":1016,"jest":1017,"âĢ":1018,"eich":1019,"Ġwo":1020,"Ġgerechtfertig":1021,"ĠMen":1022,"ĠChent":1023,"ĠGotteshalle":1024,"ringen":1025,"Ġlebensvoll":1026,"ĠMajest":1027,"ĠHÃ¼ter":1028,"ĠMajestÃ¤t":1029,"sel":1030,"war":1031,"Ġ/":1032,"ĠGerechtfertig":1033,"ĠAk":1034,"issen":1035,"estlichen":1036,"abe":1037,"ĠGeheim":1038,"Ne":1039,"gler":1040,"Ã¼ck":1041,"ĠBa":1042,"schreiber":1043,"iener":1044,"ĠQaa":1045,"izont":1046,"Ġgerechtfertigt":1047,"Neith":1048,"horn":1049,"om":1050,"racht":1051,"Ġbis":1052,"attet":1053,"ĠWei":1054,"licher":1055,"An":1056,"So":1057,"hy":1058,"klÃ¤":1059,"Ġwegen":1060,"Ġdeiner":1061,"ĠAugen":1062,"klÃ¤r":1063,"fte":1064,"men":1065,"utet":1066,"ĠKopf":1067,"urch":1068,"olglich":1069,"Wenn":1070,"hor":1071,"kt":1072,"ĠSen":1073,"ÃŁer":1074,"hren":1075,"abast":1076,"ĠTochter":1077,"hetep":1078,"ĠHimmels":1079,"Ġjeder":1080,"ĠLanghorn":1081,"ĠGeheimnisses":1082,"abaster":1083,"KÃ¶nig":1084,"dung":1085,"rind":1086,"ĠAt":1087,"ĠAus":1088,"Unter":1089,"Ġihren":1090,"á¸ı":1091,"nochen":1092,"eops":1093,"Hat":1094,"bst":1095,"lit":1096,"Ġeu":1097,"stel":1098,"ĠKlei":1099,"Ġzuf":1100,"liche":1101,"Schlange":1102,"Ã¤tte":1103,"Ġnachdem":1104,"such":1105,"tr":1106,"ĠÃ¤":1107,"eite":1108,"Ġger":1109,"olis":1110,"scha":1111,"andeln":1112,"amenti":1113,"ontamenti":1114,"ĠAlabaster":1115,"Sp":1116,"ĠNas":1117,"Ġfolglich":1118,"Ã¶ren":1119,"Siehe":1120,"Ġzufrieden":1121,"pp":1122,"ui":1123,"wie":1124,"eigen":1125,"ĠMacht":1126,"inden":1127,"ĠtÃ¤g":1128,"Ġihnen":1129,"ĠEhr":1130,"ĠschÃ¶nen":1131,"ĠOberÃ¤gyptens":1132,"ĠHorizont":1133,"Geb":1134,"Was":1135,"agen":1136,"gew":1137,"ĠKind":1138,"ĠNi":1139,"Ġjed":1140,"ĠLanghornrind":1141,"Wer":1142,"dos":1143,"lung":1144,"wÃ¼rd":1145,"yr":1146,"ydos":1147,"Ġdann":1148,"gekommen":1149,"ĠPat":1150,"ĠDu":1151,"Dies":1152,"Liefer":1153,"ho":1154,"Ã¶l":1155,"ĠGau":1156,"unden":1157,"Ġgef":1158,"ĠWadj":1159,"Ġdiese":1160,"Ġster":1161,"ienten":1162,"ĠAbydos":1163,"rone":1164,"Leiter":1165,"aber":1166,"ner":1167,"usch":1168,"Ġgem":1169,"Ġgeboren":1170,"ĠAkten":1171,"sis":1172,"Å¡":1173,"orgen":1174,"ÃŁe":1175,"ĠThot":1176,"ĠUnterÃ¤gyptens":1177,"ĠSe":1178,"Ġzur":1179,"ĠNeun":1180,"ĠGeliebter":1181,"ĠPatienten":1182,"eiden":1183,"ĠKnochen":1184,"all":1185,"eten":1186,"estes":1187,"rÃ¼ck":1188,"rift":1189,"Ġbestattet":1190,"ĠKleidung":1191,"ĠEhrwÃ¼rd":1192,"hen":1193,"ul":1194,"cher":1195,"Ġwestlichen":1196,"ĠSie":1197,"eht":1198,"ennt":1199,"ĠschÃ¼t":1200,"ĠCheops":1201,"Ġ(?).":1202,"ĠgehÃ¶rt":1203,"Hetep":1204,"Pepi":1205,"enti":1206,"Ġsagen":1207,"ett":1208,"itz":1209,"ĠBer":1210,"legt":1211,"ebe":1212,"Ġrein":1213,"Ġgegangen":1214,"Ġsterben":1215,"Ġgemacht":1216,"ĠAktenschreiber":1217,"Daraufhin":1218,"dann":1219,"net":1220,"ĠzurÃ¼ck":1221,"ĠLeinen":1222,"ak":1223,"durch":1224,"los":1225,"pt":1226,"ðĵ":1227,"Ġdar":1228,"eiten":1229,"ank":1230,"Ġbef":1231,"ĠBo":1232,"Ġangeht":1233,"ĠWer":1234,"Ġkeine":1235,"chtig":1236,"ill":1237,"ĠtÃ¤glich":1238,"Dann":1239,"GroÃŁ":1240,"ute":1241,"Ġ(?":1242,"Ã¤l":1243,"Ġvoll":1244,"ĠBeg":1245,"ĠHerzen":1246,"rÃ¼ÃŁt":1247,"Ġbede":1248,"Ġveranla":1249,"ex":1250,"ichet":1251,"ĠTj":1252,"iert":1253,"opolis":1254,"ĠgegrÃ¼ÃŁt":1255,"âĢĵ":1256,"ĠAtum":1257,"Lieferungen":1258,"ðĵį":1259,"Ptah":1260,"ob":1261,"pu":1262,"che":1263,"agt":1264,"ĠBruder":1265,"Nefer":1266,")!":1267,"Nimm":1268,"Sed":1269,"Teti":1270,"rÃ¶":1271,"rach":1272,"ĠÃ¶ff":1273,"ĠSache":1274,"irn":1275,"Ã¤d":1276,"allen":1277,"ischen":1278,"Ġdiesen":1279,"ĠArme":1280,"ĠMenschen":1281,"Ġbedeutet":1282,"Vor":1283,"lop":1284,"nt":1285,"ss":1286,"aupt":1287,"Ã¼l":1288,"ĠBe":1289,"eli":1290,"ĠFrau":1291,"verwalter":1292,"Ġgebracht":1293,"bek":1294,"ĠveranlaÃŁt":1295,"):":1296,"az":1297,"err":1298,"Ġdort":1299,"etz":1300,"ĠPriesterin":1301,"alsam":1302,"ĠGuts":1303,"ĠGerechtfertigte":1304,"Ġjedem":1305,"ĠSo":1306,"alle":1307,"ĠLei":1308,"tilop":1309,"rÃ¤b":1310,"etwas":1311,"fahr":1312,"gesch":1313,"kÃ¼n":1314,"ichtet":1315,"ĠSem":1316,"ĠSeni":1317,"Ã¤hr":1318,"ĠBarke":1319,"ĠBalsam":1320,"ĠKammer":1321,"ĠAuge":1322,"Ġ(?),":1323,"ĠSpei":1324,"Ġliebt":1325,"schaft":1326,"ĠBegrÃ¤b":1327,"nub":1328,"chte":1329,"stÃ¤tte":1330,"geg":1331,"Ġweg":1332,"ĠHat":1333,"igung":1334,"ĠName":1335,"itte":1336,"Ġmeine":1337,"ats":1338,"onen":1339,"Ġfr":1340,"Ġdeines":1341,"EinkÃ¼n":1342,"(?),":1343,"ĠZeh":1344,"ĠÃĦ":1345,"eister":1346,"Ġeuch":1347,"EinkÃ¼nfte":1348,"Nun":1349,"wes":1350,"âĮ":1351,"Ġand":1352,"ĠHeli":1353,"alb":1354,"alt":1355,"Ġzugr":1356,"bti":1357,"indem":1358,"ierer":1359,"Ġwieder":1360,"lagen":1361,"ewig":1362,"ltester":1363,"tilope":1364,"ĠSenior":1365,"Ġzugrunde":1366,"lÃ¶":1367,"Ġewig":1368,"chem":1369,"ief":1370,"ĠHÃ¶":1371,"Ã¤m":1372,"ĠBus":1373,"hrauch":1374,"ĠChontamenti":1375,"zeu":1376,"nisut":1377,"gefÃ¤":1378,"ĠLanghornrindes":1379,"ĠVerklÃ¤r":1380,"ĠAnch":1381,"eute":1382,"Ġhinter":1383,"Ġgeworden":1384,"',":1385,"ĠKas":1386,"genommen":1387,"Ġersch":1388,"ĠFein":1389,"schrift":1390,"ĠRa":1391,"ĠSchm":1392,"Ġalle":1393,"ĠGÃ¶ttern":1394,"leisch":1395,"ĠBrust":1396,"ĠLeib":1397,"ĠBusiris":1398,"Mer":1399,"Ġvom":1400,"ĠBes":1401,"ĠMin":1402,"rochen":1403,"Ġdenn":1404,"ami":1405,"ĠFrieden":1406,"Ġalt":1407,"(?)/":1408,"ĠZu":1409,"ild":1410,"ĠGeliebte":1411,"Ġhervorgekommen":1412,"Ġeinzige":1413,"Hatnub":1414,"yrami":1415,"ĠBalsamierer":1416,"-)":1417,"lut":1418,"richt":1419,"tj":1420,"ĠNut":1421,"Ġkommen":1422,"immer":1423,"Ġseitens":1424,"ĠHÃ¼gel":1425,"ĠAlabastergefÃ¤":1426,"Brot":1427,"nung":1428,"oten":1429,"por":1430,"uck":1431,"wissen":1432,"ľber":1433,"ĠNetjer":1434,"Ġkeinen":1435,"Ġdavon":1436,"ĠIm":1437,"(?).":1438,"Ġempf":1439,"ĠZehn":1440,"ĠHeliopolis":1441,"'s":1442,"Wie":1443,"aÃŁ":1444,"kommt":1445,"si":1446,"tan":1447,"wir":1448,"ste":1449,"Ã¼h":1450,"ĠHen":1451,"ĠBef":1452,"ĠWÃ¼rd":1453,"Ġfort":1454,"ĠPtah":1455,"ĠRein":1456,"ahl":1457,"ohne":1458,"Ġleib":1459,"atzhaus":1460,"ĠChentusch":1461,"ĠBegrÃ¤bnis":1462,"Ġewiglich":1463,"ĠChentuschi":1464,"Bestes":1465,"Krone":1466,"beit":1467,"li":1468,"tstel":1469,"zie":1470,"Ġber":1471,"Ġbes":1472,"Eine":1473,"siegler":1474,"hthy":1475,"ĠHathor":1476,"hthys":1477,"Ab":1478,"Herr":1479,"haupt":1480,"latz":1481,"wÃ¤r":1482,"ende":1483,"stand":1484,"steigen":1485,"Ġsel":1486,"ĠSeite":1487,"Ġhabe":1488,"Ġzer":1489,"olge":1490,"Ġversch":1491,"ĠVersorgter":1492,"Ã¼tzt":1493,"belan":1494,"ĠNase":1495,"ĠKinder":1496,"bruch":1497,"mt":1498,"ni":1499,"sb":1500,"Ã¤belan":1501,"legen":1502,"Ġverh":1503,"ĠIi":1504,"ĠlÃ¤":1505,"ĠgroÃŁe":1506,"lÃ¤t":1507,"ĠGottessiegler":1508,"hetepu":1509,"ĠReinigung":1510,"Aber":1511,"ai":1512,"diener":1513,"ogen":1514,"set":1515,"uÃŁt":1516,"wo":1517,"Ġ(=":1518,"auber":1519,"Ã¼cken":1520,"atron":1521,"leute":1522,"ĠPe":1523,"scht":1524,"reicht":1525,"ĠIsis":1526,"rÃ¼nd":1527,"beischrift":1528,"atia":1529,"mittel":1530,"Ġdauern":1531,"ĠNeunheit":1532,"ĠBegrÃ¤bnisstÃ¤tte":1533,"Al":1534,"Sen":1535,"Ti":1536,"ock":1537,"per":1538,"rank":1539,"su":1540,"Ġre":1541,"chet":1542,"ange":1543,"ĠSÃ¤belan":1544,"teh":1545,"fern":1546,"Ġmus":1547,"ĠgrÃ¶":1548,"Ġnoch":1549,"ĠTex":1550,"andelt":1551,"Ġverein":1552,"ieren":1553,"ĠEh":1554,"Ġgesagt":1555,"ĠMaat":1556,"ĠGutes":1557,"ĠEinz":1558,"ĠÃ¤ltester":1559,"Ġselbst":1560,"phthys":1561,"tw":1562,"Ġsehen":1563,"empel":1564,"ĠHatia":1565,"Ġmachen":1566,"onats":1567,"Ġerg":1568,"Einer":1569,"chenk":1570,"ĠNephthys":1571,"Ġlassen":1572,"Ġihrer":1573,"raft":1574,"Ġempor":1575,"Sedfest":1576,"fang":1577,"rt":1578,"ren":1579,"sohn":1580,"zes":1581,"ĠChnum":1582,"eren":1583,"sto":1584,"Ġwill":1585,"Ã¼nd":1586,"Ã¼hren":1587,"Ġwirk":1588,"ĠFeu":1589,"ĠKÃ¶nigssohn":1590,"Ġhatte":1591,"ĠOberhaupt":1592,"Ġgeht":1593,"ĠErfahr":1594,"ische":1595,"ungswissen":1596,"suchung":1597,"hotep":1598,"ĠEhrwÃ¼rdigkeit":1599,"ĠNetjerichet":1600,"ĠSÃ¤belantilope":1601,"ĠErfahrungswissen":1602,"\",":1603,"ad":1604,"Ġetwas":1605,"ĠwÃ¼n":1606,"ĠHar":1607,"ingen":1608,"Ġbeg":1609,"Ġdenen":1610,"olt":1611,"scher":1612,"ĠRÃ¼cken":1613,"ĠSchl":1614,"ĠSchatzhaus":1615,"hron":1616,"reis":1617,"Ġdadurch":1618,"Ġihrem":1619,"ĠÃľber":1620,"ĠgeschÃ¼tzt":1621,"ĠImi":1622,"wobei":1623,"Glos":1624,"Opfer":1625,"Pers":1626,"bi":1627,"ift":1628,"ans":1629,"emd":1630,"ĠKu":1631,"ĠNach":1632,"ĠmuÃŁt":1633,"ĠWenn":1634,"ĠThron":1635,"Ġallen":1636,"ĠArbeit":1637,"Ġvollkommen":1638,"ĠSobek":1639,"ĠKammerdiener":1640,"albÃ¶l":1641,"Titel":1642,"rankheit":1643,"Glosse":1644,"hÃ¶":1645,"neh":1646,"Ġe":1647,"ĠčĊ":1648,"enden":1649,"gegen":1650,"ĠNar":1651,"Ġgut":1652,"ell":1653,"ĠMitte":1654,"ĠWÃ¼r":1655,"ĠTempel":1656,"arf":1657,"ĠFleisch":1658,"Ġtun":1659,"reiben":1660,"Ġvert":1661,"efrau":1662,"ĠRede":1663,"ĠLandmann":1664,"ĠGrab":1665,"gegangen":1666,"tstelle":1667,"ĠTextstelle":1668,"ĠEhefrau":1669,"Personen":1670,"In":1671,"bes":1672,"hu":1673,"tin":1674,"Ġohne":1675,"auer":1676,"ichten":1677,"ĠSalbÃ¶l":1678,"ĠHals":1679,"ĠNacht":1680,"ĠNatron":1681,"itzen":1682,"ĠmÃ¤":1683,"ĠFr":1684,"nebti":1685,"annt":1686,"Ġtr":1687,"ĠZauber":1688,"ĠLandes":1689,"Ġjeden":1690,"ĠSeschemnefer":1691,"edjem":1692,"puaut":1693,"Vorsteher":1694,"ĠWÃ¼rdige":1695,"Geh":1696,"Ist":1697,"Seth":1698,"aat":1699,"ack":1700,"ften":1701,"heiten":1702,"netjer":1703,"tung":1704,"zer":1705,"Ġru":1706,"stehen":1707,"ieder":1708,"aum":1709,"ichte":1710,"Ã¼hr":1711,"itt":1712,"ehand":1713,"Ġmehr":1714,"Ġgan":1715,"Ġzwei":1716,"dern":1717,"endet":1718,"Ġsteht":1719,"Ġsagst":1720,"Ġuntersuch":1721,"ehren":1722,"ĠVersorgten":1723,"rÃ¤n":1724,"erste":1725,"ĠWeihrauch":1726,"Untersuchung":1727,"ĠBesitz":1728,"Ġverhind":1729,"ĠgrÃ¶ÃŁer":1730,"ĠFeuer":1731,"Personenbeischrift":1732,"Ġuntersuchst":1733,"ebt":1734,"seschem":1735,"stÃ¤nd":1736,"ĠsÃ¼":1737,"asse":1738,"alten":1739,"Ġbrin":1740,"ĠgemÃ¤":1741,"ĠmÃ¶gest":1742,"reff":1743,"ĠWir":1744,"ĠTÃ¼r":1745,"ĠSchlÃ¤":1746,"epter":1747,"mÃ¤chtig":1748,"ĠEw":1749,"ĠGroÃŁer":1750,"Verwalter":1751,"olgs":1752,"Ġempfangen":1753,"ĠgemÃ¤ÃŁ":1754,"Bruch":1755,"Wei":1756,"gm":1757,"ihr":1758,"iff":1759,"ko":1760,"nacht":1761,"pi":1762,"iet":1763,"Ã¶st":1764,"Ġwandeln":1765,"ĠHalle":1766,"etj":1767,"Ġba":1768,"Ġgelegt":1769,"ĠBeiden":1770,"ĠWegen":1771,"ĠPlatz":1772,"?),":1773,"ĠRu":1774,"ĠkÃ¶nig":1775,"ĠDiener":1776,"Ġaller":1777,"Ġschw":1778,"ilde":1779,"lage":1780,"Ġwaren":1781,"dessen":1782,"ohl":1783,"ĠweiÃŁen":1784,"Ã¤nder":1785,"Ġwobei":1786,"GroÃŁer":1787,"Ã¤del":1788,"ĠHÃ¶fl":1789,"rÃ¼ndung":1790,"Ġmusst":1791,"adt":1792,"?\"":1793,"gs":1794,"ipp":1795,"jetzt":1796,"kar":1797,"lassen":1798,"wenn":1799,"ĠDer":1800,"ĠâĢĵ":1801,"ĠAdj":1802,"unter":1803,"ehl":1804,"ĠBauch":1805,"ĠBringen":1806,"recken":1807,"ĠWeg":1808,"utz":1809,"agaz":1810,"urcht":1811,"ennen":1812,"ĠIri":1813,"rucht":1814,"ĠChenti":1815,"Ã¤gypt":1816,"ehrt":1817,"pfen":1818,"ĠUpuaut":1819,"ĠSenedjem":1820,"ĠGutsvorsteher":1821,"ĠSchmuck":1822,"ehandlung":1823,"ĠEwigkeit":1824,"agazin":1825,"Chr":1826,"Gut":1827,"dorn":1828,"hebe":1829,"seite":1830,"Ġweil":1831,"Ã¤chter":1832,"ĠGest":1833,"Ġhier":1834,"Ġhoh":1835,"mme":1836,"ĠMes":1837,"ĠMÃ¤":1838,"olz":1839,"indest":1840,"Ġkein":1841,"ĠZa":1842,"ĠZimmer":1843,"ucher":1844,"ĠÃĸl":1845,"ĠGren":1846,"Ã¶ffnet":1847,"ĠNasen":1848,"ĠBerge":1849,"ðĵį¹":1850,"ðĵįº":1851,"ĠHÃ¶fling":1852,"Christ":1853,"\".":1854,");":1855,".)":1856,"Auf":1857,"Haus":1858,"Ihr":1859,"acken":1860,"bar":1861,"me":1862,"mal":1863,"nw":1864,"nur":1865,"tei":1866,"zogen":1867,"Ġ1":1868,"Ġfern":1869,"nder":1870,"asen":1871,"Ã¤ck":1872,"ĠKÃ¶r":1873,"ĠKorn":1874,"ĠKrankheit":1875,"usdorn":1876,"ĠNicht":1877,"Ġzerst":1878,"Ġerf":1879,"Ġerk":1880,"ĠMan":1881,"ĠMorgen":1882,"reu":1883,"ĠWÃ¼":1884,"ĠPro":1885,"achte":1886,"ĠHerrscher":1887,"Schreiber":1888,"sechem":1889,"ienen":1890,"rieben":1891,"telle":1892,"Ġbew":1893,"Ġ(?;":1894,"wÃ¤rter":1895,"ĠlÃ¤ÃŁt":1896,"hÃ¶h":1897,"Christusdorn":1898,"Ach":1899,"HÃ¼":1900,"Zu":1901,"affen":1902,"iter":1903,"iag":1904,"lu":1905,"wr":1906,"á¹":1907,"Ġðĵį¹":1908,"eif":1909,"esi":1910,"iel":1911,"ord":1912,"Ġwahr":1913,"ĠHa":1914,"ĠHe":1915,"ĠGlie":1916,"ĠGerste":1917,"Ġheute":1918,"Ġgel":1919,"ĠgeÃ¶ffnet":1920,"Ġmeinen":1921,"onnen":1922,"ĠBrÃ¼":1923,"ĠOrt":1924,"ĠPyrami":1925,"ĠSchwes":1926,"ĠVert":1927,"ĠDann":1928,"ĠHerren":1929,"Ã¤gt":1930,"eschi":1931,"eschw":1932,"ĠNeferseschem":1933,"Ġja":1934,"SchÃ¤del":1935,"ĠGefolgs":1936,"Ġgesehen":1937,"nose":1938,"fluÃŁ":1939,"Ġverbinden":1940,"Ġjener":1941,"ĠWestens":1942,"Untergehen":1943,"ĠwÃ¼nscht":1944,"huief":1945,"ĠAdjib":1946,"ĠGrenze":1947,"iagnose":1948,"ĠNeferseschemre":1949,"Ii":1950,"Man":1951,"gi":1952,"hre":1953,"kau":1954,"kam":1955,"pft":1956,"Ġaber":1957,"eint":1958,"ster":1959,"stÃ¼ck":1960,"ĠStier":1961,"ĠHin":1962,"Ã¤us":1963,"Ġbel":1964,"Ġhoch":1965,"Ġange":1966,"ĠTa":1967,"ĠNeb":1968,"neb":1969,"Ġtut":1970,"ĠChen":1971,"ĠAufwÃ¤rter":1972,"ahres":1973,"ried":1974,"ischi":1975,"ĠLebenden":1976,"Ã¤nger":1977,"Ġeinziger":1978,"wieder":1979,"ĠDuft":1980,"Dieser":1981,"ĠSiegel":1982,"ĠSpeisen":1983,"âĮª":1984,"ĠNarmer":1985,"á¹¯":1986,"Gef":1987,"Hirn":1988,"ege":1989,"flÃ¼gel":1990,"kl":1991,"kn":1992,"ling":1993,"nern":1994,"pêľ£":1995,"wi":1996,"Ġauch":1997,"ens":1998,"inetjer":1999,"itzt":2000,"ĠBlut":2001,"ĠWag":2002,"amten":2003,"ĠFÃ¼r":2004,"schw":2005,"ĠRen":2006,"ĠSchu":2007,"ĠScheschi":2008,"ĠNeu":2009,"Ġsieh":2010,"ĠZeit":2011,"haft":2012,"eiligt":2013,"Ġhinab":2014,"werk":2015,"ĠLebens":2016,"lteste":2017,"ĠChentischi":2018,"ĠBoden":2019,"obp":2020,"Ã¤hrend":2021,"Meret":2022,"ippen":2023,"Behandlung":2024,"MÃ¶gen":2025,"Toten":2026,"band":2027,"dlichen":2028,"gabe":2029,"ond":2030,"teil":2031,"einer":2032,"ass":2033,"ĠSachen":2034,"ĠSingen":2035,"ĠGrÃ¼ndung":2036,"ĠNinetjer":2037,"ĠmuÃŁ":2038,"ĠgrÃ¼":2039,"Ġzwar":2040,"ĠSchutz":2041,"Ġall":2042,"ĠKapel":2043,"urÃ¼ck":2044,"ollen":2045,"ĠArt":2046,"gehÃ¶r":2047,"Ġgebar":2048,"weil":2049,"lÃ¼ss":2050,"Ġumf":2051,"halten":2052,"ĠAbsch":2053,"Ġentfer":2054,"ĠGehÃ¶r":2055,"ĠDjed":2056,"Ġdauert":2057,"ĠGerechtfertigten":2058,"ĠschÃ¼tzen":2059,"ĠLeinenzeu":2060,"ĠÃ¶ffnen":2061,"âĮ©":2062,"Ã¤mlich":2063,"ĠVerklÃ¤rten":2064,"ĠFeind":2065,"Ġleibliche":2066,"ĠWÃ¼rde":2067,"ĠmÃ¤chtig":2068,"sechemui":2069,"obpreis":2070,"Diagnose":2071,"Isis":2072,"Ni":2073,"Nut":2074,"Pf":2075,"Steh":2076,"bau":2077,"eder":2078,"gst":2079,"hÃ¶ren":2080,"met":2081,"obt":2082,"qu":2083,"sr":2084,"samm":2085,"Ġ?)":2086,"enen":2087,"getr":2088,"atte":2089,"ĠMahl":2090,"ĠMonats":2091,"ĠFel":2092,"schm":2093,"ĠLÃ¤nder":2094,"ĠSchw":2095,"ĠkÃ¶n":2096,"titel":2097,"chtiger":2098,"Ġschwar":2099,"Ġvorf":2100,"Ġsteh":2101,"ĠStadt":2102,"angtitel":2103,"ĠArmen":2104,"ragen":2105,"Ġober":2106,"Anch":2107,"ĠGutsverwalter":2108,"ĠAlabastergefÃ¤ÃŁen":2109,"Ġwirklich":2110,"Ġeur":2111,"ĠTÃ¼rflÃ¼gel":2112,"ĠkÃ¶niglichen":2113,"ĠNeuj":2114,"ĠAbscheu":2115,"ĠLeinenzeugs":2116,"Lebt":2117,"Sz":2118,"land":2119,"pat":2120,"uten":2121,"welt":2122,"zw":2123,"Ġpf":2124,"chten":2125,"stift":2126,"nde":2127,"Ġwem":2128,"anfang":2129,"Ġbl":2130,"Ġbeh":2131,"ĠmÃ¼":2132,"ĠPlÃ¤t":2133,"arm":2134,"ĠFes":2135,"ĠverklÃ¤r":2136,"Ġausgest":2137,"Chontamenti":2138,"edarf":2139,"ĠZÃ¤h":2140,"ĠTotenstift":2141,"Ġalso":2142,"ĠGÃ¶tterhalle":2143,"ochter":2144,"omÃ¤nen":2145,"weise":2146,"Ã¼ng":2147,"Ġleidet":2148,"Hathor":2149,"litter":2150,"hoben":2151,"ĠNeunheiten":2152,"ĠSiegler":2153,"ĠAlabastergefÃ¤ÃŁ":2154,"ĠFremd":2155,"ĠMangel":2156,"ĠTotenstiftung":2157,"Gott":2158,"Kai":2159,"Meine":2160,"aden":2161,"domÃ¤nen":2162,"eun":2163,"ider":2164,"mpf":2165,"nut":2166,"qed":2167,"zi":2168,"Ġu":2169,"ĠÃ¼":2170,"ĸff":2171,"eret":2172,"eigt":2173,"stochter":2174,"Ġir":2175,"ĠSti":2176,"Ã¤u":2177,"tef":2178,"gend":2179,"Ġgetan":2180,"bereich":2181,"ĠFla":2182,"ĠFuÃŁ":2183,"ĠFurcht":2184,"ĠSchiff":2185,"ĠScheun":2186,"reichen":2187,"ĠVorder":2188,"Ġsiehe":2189,"ĠdafÃ¼r":2190,"Ġschl":2191,"ĠAuft":2192,"Ġlebe":2193,"ĠEl":2194,"ĠOberdomÃ¤nen":2195,"amens":2196,"bew":2197,"gesicht":2198,"Ġreinen":2199,"ĠWesten":2200,"ĠÃ¶ffne":2201,"lick":2202,"ziehen":2203,"Ġhohen":2204,"ĠNeujahr":2205,"Nemti":2206,"bein":2207,"bringen":2208,"gans":2209,"ogel":2210,"ph":2211,"rein":2212,"sein":2213,"uer":2214,"essen":2215,"ĠiÃŁt":2216,"get":2217,"ĠGeist":2218,"ĠmÃ¶":2219,"ĠVoll":2220,"elle":2221,"rech":2222,"recht":2223,"Ġnieder":2224,"roh":2225,"Ġfest":2226,"ĠPf":2227,"ĠFall":2228,"?).":2229,"reich":2230,"efnut":2231,"Ġdazu":2232,"ĠEs":2233,"SchlÃ¤":2234,"ĠStein":2235,"ĠStirn":2236,"ĠMeru":2237,"ĠMeret":2238,"gesp":2239,"rÃ¤ge":2240,"sprechen":2241,"ĠGefolge":2242,"ĠVaters":2243,"ĠgegenÃ¼ber":2244,"ĠRindern":2245,"Ġmeinem":2246,"á¸¥sb":2247,"hauses":2248,"hyle":2249,"Sprechen":2250,"ppe":2251,"Ġgefallen":2252,"ĠschÃ¼tzt":2253,"Ã¼llt":2254,"ĠBeamten":2255,"ĠSpeise":2256,"Ġfrisch":2257,"nehmen":2258,"ĠWirbel":2259,"ĠSchwester":2260,"eiligtum":2261,"Ġbehandeln":2262,"$.":2263,"Ges":2264,"Gib":2265,"Geschw":2266,"Komm":2267,"Neb":2268,"Pyrami":2269,"Sucher":2270,"fst":2271,"ure":2272,"Ġau":2273,"ĠâĮ©":2274,"stag":2275,"Ġderer":2276,"orf":2277,"gelegen":2278,"auern":2279,"Ġwohl":2280,"Ã¤ÃŁ":2281,"Ã¤lt":2282,"ĠGer":2283,"ĠGol":2284,"ĠKrone":2285,"inger":2286,"ĠNun":2287,"ÃŁte":2288,"Ġbringen":2289,"ĠhÃ¶ren":2290,"ittern":2291,"att":2292,"atten":2293,"ĠOhren":2294,"ĠTausend":2295,"ĠTefnut":2296,"ĠfÃ¼hren":2297,"ĠPer":2298,"ĠLa":2299,"ĠDas":2300,"annte":2301,"immt":2302,"ĠIbi":2303,"edu":2304,"Ġvorbei":2305,"ĠJahres":2306,"ĠJÃ¼ng":2307,"riffen":2308,"Ġgesp":2309,"Ġseist":2310,"ĠWassersp":2311,"á¸¥n":2312,"ĠDjau":2313,"ĠAusfluÃŁ":2314,"stellen":2315,"Ã¤llt":2316,"Als":2317,"Ġergrei":2318,"Ã¼hrt":2319,"ĠGestalt":2320,"ĠKÃ¶rper":2321,"ĠGlieder":2322,"lÃ¼ssigkeit":2323,"ĠPlÃ¤tzen":2324,"ĠOberdomÃ¤nenvorsteher":2325,"ĠNeujahrstag":2326,"ĠGeistes":2327,"$,":2328,"Kamm":2329,"Oh":2330,"PÃ¤chter":2331,"damit":2332,"ek":2333,"folge":2334,"gte":2335,"gier":2336,"gaben":2337,"jen":2338,"kung":2339,"meister":2340,"nte":2341,"nach":2342,"sam":2343,"wegen":2344,"Ġeben":2345,"Ġex":2346,"gek":2347,"anz":2348,"emand":2349,"ĠSah":2350,"ĠHem":2351,"ĠHÃ¤us":2352,"inge":2353,"ĠNet":2354,"ĠNacken":2355,"etrei":2356,"itten":2357,"unken":2358,"ehm":2359,"Ġmacht":2360,"ĠBr":2361,"ĠBÃ¶":2362,"denn":2363,"ĠWind":2364,"ĠfrÃ¼":2365,"ĠKÃ¶nigstochter":2366,"olist":2367,"Ġkla":2368,"Ġkennt":2369,"tige":2370,"urz":2371,"ubel":2372,"ĠgroÃŁer":2373,"ĠgehÃ¶ren":2374,"Ġstehen":2375,"ĠErsch":2376,"iby":2377,"ĠHausvorsteher":2378,"hinit":2379,"Ġgeschlagen":2380,"ĠUfer":2381,"zug":2382,"Ã¤ng":2383,"ĠInnern":2384,"etwegen":2385,"cherichet":2386,"ĠLeinensto":2387,"Ã¼lle":2388,"Ã¼hl":2389,"ĠBefehl":2390,"ĠPezen":2391,"Ġvereinigt":2392,"Opfern":2393,"Ġbringt":2394,"hÃ¶hlen":2395,"Untergehenden":2396,"ĠFÃ¼rst":2397,"Szepter":2398,"Ġexist":2399,"ĠNetcherichet":2400,"!)":2401,"Aus":2402,"FÃ¼r":2403,"Holz":2404,"Mein":2405,"Phyle":2406,"Rangtitel":2407,"Thot":2408,"aÃŁt":2409,"dest":2410,"kom":2411,"lo":2412,"nÃ¤mlich":2413,"ĠChristusdorn":2414,"Ġdaraufhin":2415,"Ġ(\"":2416,"ĠwÃ¤hrend":2417,"Ã¤uch":2418,"inke":2419,"ĠNahr":2420,"Ġerreicht":2421,"ĠTru":2422,"ĠRippen":2423,"ĠUnrecht":2424,"ĠSchrecken":2425,"reitet":2426,"Ġessen":2427,"ĠAngelegen":2428,"ebi":2429,"ĠEle":2430,"Schw":2431,"Ġunver":2432,"heben":2433,"ĠStÃ¤tte":2434,"Ġsollte":2435,"ĠUm":2436,"ĠweiÃŁe":2437,"Ġhervorkam":2438,"mery":2439,"Ġjenen":2440,"Ġherauskommt":2441,"ĠWesir":2442,"ĠBerg":2443,"Ġandere":2444,"Ġanderen":2445,"lÃ¶st":2446,"Ġerschienen":2447,"ĠSchlacht":2448,"ĠImiut":2449,"Ġganzen":2450,"refflich":2451,"gmêľ£":2452,"ĠZimmerleute":2453,"HÃ¼te":2454,"Ġentfernen":2455,"ĠLeinenstoff":2456,",)":2457,"Hor":2458,"Ka":2459,"Maat":2460,"Se":2461,"Um":2462,"Wir":2463,"gung":2464,"hm":2465,"im":2466,"ote":2467,"ual":2468,"uft":2469,"weg":2470,"zit":2471,"zelt":2472,"erung":2473,"enu":2474,"eile":2475,"eitel":2476,"Ġimmer":2477,"ndern":2478,"ieh":2479,"iebt":2480,"iegel":2481,"orm":2482,"Ã¶re":2483,"ichter":2484,"ĠHir":2485,"inn":2486,"ale":2487,"ĠNub":2488,"etzen":2489,"Ġblei":2490,"Ġheil":2491,"Ġhandeln":2492,"Ġgep":2493,"ischt":2494,"ĠBet":2495,"Ġerhoben":2496,"ellen":2497,"ĠWein":2498,"ĠWort":2499,"ĠTor":2500,"Ġins":2501,"Ġinfolge":2502,"ichtig":2503,"artig":2504,"ĠFing":2505,"schl":2506,"ĠSchlange":2507,"ĠSchul":2508,"ĠSchak":2509,"ĠVerb":2510,"Erhebe":2511,"Ġkam":2512,"abgier":2513,"Ġtrin":2514,"ennst":2515,"Ġsprach":2516,"Ġspricht":2517,"ĠgroÃŁes":2518,"ĠSpruch":2519,"laz":2520,"leiter":2521,"Ġbek":2522,"Ġgesetzt":2523,"lanze":2524,"Ġabw":2525,"ĠMannes":2526,"ĠRindes":2527,"ĠweiÃŁ":2528,"Ġplaz":2529,"liebt":2530,"ĠHetepsechemui":2531,"Ġverbunden":2532,"Ġwovon":2533,"ĠWadjet":2534,"ĠSemer":2535,"ĠÃĦlteste":2536,"zeugt":2537,"ĠHÃ¼geln":2538,"Ġleiblicher":2539,"Ġreden":2540,"Ġemporsteigen":2541,"ĠSchatzhauses":2542,"ĠKuh":2543,"Weihrauch":2544,"ĠWÃ¼ste":2545,"ĠVertrau":2546,"ĠDjedi":2547,"ĠmÃ¼de":2548,"ĠAuftrÃ¤ge":2549,"rechnung":2550,"SchlÃ¤fe":2551,"Geschenk":2552,"Kammer":2553,"Ġklaffen":2554,"ĠFingern":2555,"Ent":2556,"Hem":2557,"Im":2558,"Ihre":2559,"KÃ¶r":2560,"Kru":2561,"Leben":2562,"ede":2563,"fÃ¼hren":2564,"gÃ¶t":2565,"mÃ¼":2566,"rig":2567,"ssel":2568,"Ġ2":2569,"Ġreicht":2570,"ĠÃ¶st":2571,"eres":2572,"eral":2573,"eicht":2574,"einigt":2575,"str":2576,"steht":2577,"Ã¶pf":2578,"antin":2579,"ĠSte":2580,"ĠSeh":2581,"ĠSab":2582,"ĠSitz":2583,"insen":2584,"ĠNen":2585,"Ġbesch":2586,"ities":2587,"unk":2588,"unst":2589,"Ġgeliebt":2590,"ĠBÃ¼r":2591,"ĠBinsen":2592,"ĠMiter":2593,"reut":2594,"roko":2595,"iesen":2596,"ĠfÃ¤llt":2597,"ampf":2598,"ĠFÃ¼":2599,"ĠFinger":2600,"ĠDaraufhin":2601,"abei":2602,"Ġtat":2603,"reiten":2604,"urm":2605,"Ġgeholt":2606,"ĠErden":2607,"ĠErbe":2608,"Ġherum":2609,"gesetzt":2610,"Ġjede":2611,"raf":2612,"gefilde":2613,"kenu":2614,"ĠHandwerk":2615,"Ã¤ngt":2616,"êľ¥êľ£":2617,"á¸¥m":2618,"Ġhervorkommt":2619,"ĠGrÃ¶":2620,"gebracht":2621,"Ġgereinigt":2622,"ĠEhrwÃ¼rdigen":2623,"enntnis":2624,"Ġreinigen":2625,"ĠTjet":2626,"Sedjer":2627,"Ġwiederh":2628,"Ġfortd":2629,"setzen":2630,"ĠEinzige":2631,"netjeru":2632,"ĠâĢĵ,":2633,"ĠMÃ¤chte":2634,"ĠKapelle":2635,"Ġvorfindest":2636,"ĠÃ¼b":2637,"ĠScheunen":2638,"sprechend":2639,"ĠJahresanfang":2640,"ĠJÃ¼ngere":2641,"ĠSahure":2642,"antine":2643,"rokod":2644,"Get":2645,"Joch":2646,"Von":2647,"bo":2648,"beten":2649,"bock":2650,"da":2651,"gÃ¤ng":2652,"jÃ¼n":2653,"mn":2654,"nêľ¥":2655,"namens":2656,"ran":2657,"sá¸ı":2658,"wt":2659,"zend":2660,"Ġdabei":2661,"enne":2662,"eiÃŁ":2663,"eitet":2664,"Ġsitzt":2665,"anlage":2666,"Ã¼ge":2667,"ĠHo":2668,"ĠHeil":2669,"ĠGehen":2670,"ĠGew":2671,"ĠGetrei":2672,"ĠKo":2673,"ĠKraft":2674,"innen":2675,"Ġvier":2676,"ald":2677,"ĠNÃ¤":2678,"Ġhandelt":2679,"genehm":2680,"ĠgelÃ¶st":2681,"Ġgest":2682,"Ġgab":2683,"ĠBesch":2684,"Ġerb":2685,"ellung":2686,"Ġnun":2687,"ĠWestlichen":2688,"ĠPa":2689,"aufseher":2690,"ark":2691,"ĠFl":2692,"indet":2693,"ĠLot":2694,"ĠLobpreis":2695,"ĠSchwei":2696,"ĠNechen":2697,"andel":2698,"reiche":2699,"Ġalles":2700,"eschat":2701,"Ġschau":2702,"Ġlobt":2703,"Ġvort":2704,"ĠEnde":2705,"ĠRecht":2706,"ilf":2707,"lÃ¤n":2708,"lÃ¤ss":2709,"Ġsollt":2710,"êľ£m":2711,"Ã¼tz":2712,"gerichtet":2713,"ĠBruch":2714,"aage":2715,"ĠlieÃŁ":2716,"gebiet":2717,"Ġveranlassen":2718,"ufu":2719,"Ġjenes":2720,"Ãĸls":2721,"eicher":2722,"Nebti":2723,"ĠSeneb":2724,"Ġeure":2725,"GebÃ¤ck":2726,"gewiesen":2727,"Ġjedes":2728,"lossen":2729,"ĠSokar":2730,"tehend":2731,"ĠtrÃ¤gt":2732,"rÃ¤nk":2733,"Ġverhindere":2734,"wrr":2735,"ĠBrÃ¼der":2736,"ĠGefolgsmann":2737,"Pflanze":2738,"litterbruch":2739,"Ġirgend":2740,"ĠmÃ¶chte":2741,"ĠauÃŁer":2742,"Ġebenso":2743,"hinitischen":2744,"zeltes":2745,"ĠÃ¶stlichen":2746,"ĠBÃ¼rger":2747,"rokodil":2748,"GetrÃ¤nk":2749,"jÃ¼ngt":2750,"Barke":2751,"Den":2752,"Fett":2753,"Gau":2754,"Heiligtum":2755,"Men":2756,"Min":2757,"dm":2758,"ekt":2759,"gar":2760,"grei":2761,"glei":2762,"heil":2763,"ifer":2764,"jb":2765,"kenntnis":2766,"lungen":2767,"mj":2768,"monats":2769,"oben":2770,"polis":2771,"reit":2772,"richtet":2773,"sst":2774,"ta":2775,"ts":2776,"ufen":2777,"vin":2778,"zeit":2779,"zÃ¼nd":2780,"Ġrot":2781,"iegen":2782,"gezogen":2783,"Ã¶w":2784,"Ã¶tet":2785,"Ġwel":2786,"Ġwissen":2787,"ĠSÃ¼":2788,"ĠStelle":2789,"ĠHÃ¤nd":2790,"ĠHaut":2791,"ĠGem":2792,"ĠGaz":2793,"ĠKl":2794,"ĠKan":2795,"ĠKon":2796,"uss":2797,"Ġbet":2798,"iti":2799,"Ġgeko":2800,"Ġgezeugt":2801,"Ġzittern":2802,"Ġersten":2803,"denanlage":2804,"ĠMal":2805,"Ġfol":2806,"Ġfried":2807,"olen":2808,"sche":2809,"ĠRere":2810,"ĠSchwar":2811,"Ġkennen":2812,"ĠDinge":2813,"Ġvern":2814,"Ġschwei":2815,"ĠIdu":2816,"ĠlaÃŁ":2817,"edet":2818,"edÃ¼r":2819,"walt":2820,"waltung":2821,"oppel":2822,"Ġlegen":2823,"Ġgehandelt":2824,"Ġherbei":2825,"ĠUnteraufseher":2826,"Ġsollen":2827,"weichen":2828,"tellt":2829,"lÃ¼ssel":2830,"halt":2831,"Ġrichten":2832,"ĠÃĸff":2833,"isches":2834,"fenbereich":2835,"duft":2836,"Ġleiden":2837,"ation":2838,"Ġherausgekommen":2839,"Ġdauer":2840,"á¸«b":2841,"Stolist":2842,"ĠAugenb":2843,"ĠdarÃ¼ber":2844,"ĠBoten":2845,"ĠWereret":2846,"GroÃŁe":2847,"Ã¤hrt":2848,"altbruch":2849,"ĠFeinde":2850,"Abrechnung":2851,"wÃ¤rts":2852,"ĠSchatzhausverwalter":2853,"Ġvertreiben":2854,"ĠHalses":2855,"stÃ¤ndig":2856,"Aufseher":2857,"ĠProvin":2858,"ĠPyramide":2859,"ĠHinter":2860,"ĠRensi":2861,"Totenfest":2862,"ĠverklÃ¤rt":2863,"ĠSteinbock":2864,"ĠWasserspenden":2865,"ĠTruppe":2866,"ĠAngelegenheit":2867,"ĠSchultern":2868,"ĠSchakal":2869,"ĠSemerchet":2870,"ĠHandwerker":2871,"Jochbein":2872,"ĠKonifer":2873,"ĠRerek":2874,"ĠProvinz":2875,"Dj":2876,"Geist":2877,"Kab":2878,"Mit":2879,"Wein":2880,"aka":2881,"bedarf":2882,"ech":2883,"fft":2884,"frucht":2885,"het":2886,"his":2887,"kunde":2888,"letz":2889,"mehr":2890,"ná¸«":2891,"pis":2892,"raben":2893,"sehen":2894,"zurÃ¼ck":2895,"ºĸ":2896,"áºĸ":2897,"eige":2898,"Ġsorgen":2899,"Ġsitzen":2900,"iete":2901,"ieht":2902,"ieÃŁer":2903,"gewei":2904,"gelegt":2905,"anach":2906,"antw":2907,"Ã¼gt":2908,"ĠSter":2909,"ĠStern":2910,"ĠSonnen":2911,"ĠHier":2912,"irti":2913,"ĠGen":2914,"ĠGift":2915,"ĠGieÃŁer":2916,"ĠKrokodil":2917,"ĠAs":2918,"etze":2919,"unge":2920,"onpolis":2921,"Ġglei":2922,"ĠBel":2923,"ĠBestes":2924,"Ġertei":2925,"ĠVogel":2926,"ĠOhr":2927,"Ġangenehm":2928,"ĠWahr":2929,"ĠTrau":2930,"Ġfindest":2931,"Ġfroh":2932,"ichts":2933,"ĠPati":2934,"ĠRes":2935,"ĠLoch":2936,"ĠLieb":2937,"Ġnichts":2938,"ĠUnheil":2939,"ĠSchlÃ¼ssel":2940,"andt":2941,"ĠDir":2942,"ĠDur":2943,"epses":2944,"Ġsieht":2945,"Ġdagegen":2946,"urs":2947,"ĠAngesicht":2948,"Ġliby":2949,"ohner":2950,"ĠZwei":2951,"ĠChep":2952,"geln":2953,"Schl":2954,"Ġstark":2955,"Ġuns":2956,"lafen":2957,"lÃ¤nder":2958,"ĠArzt":2959,"weisen":2960,"ring":2961,"gesunken":2962,"sprach":2963,"Ġentstehen":2964,"Ġgeschehen":2965,"ĠWassergebiet":2966,"Ġkannst":2967,"MÃ¶get":2968,"Ã¤ren":2969,"Ġmeiner":2970,"êľ¥m":2971,"adjet":2972,"Ġverborgen":2973,"etwa":2974,"Ġjene":2975,"Ġjenem":2976,"á¸«t":2977,"ĠWeise":2978,"Sokar":2979,"treten":2980,"Ġgefunden":2981,"alls":2982,"akonpolis":2983,"rachten":2984,"Ġfremd":2985,"tanen":2986,"standen":2987,"Ġzerb":2988,"Ġergriffen":2989,"Ġbegraben":2990,"ĠThrone":2991,"bestehend":2992,"Ġverhindern":2993,"ĠSchlÃ¤fenbereich":2994,"ĠzerstÃ¶rt":2995,"GefÃ¤ÃŁ":2996,"ĠVollkommen":2997,"ĠSpeisezeltes":2998,"Ġfrischem":2999,"ĠGold":3000,"ĠBrand":3001,"ĠNahrung":3002,"Schwellung":3003,"ĠunvergÃ¤ng":3004,"Ġtrinkt":3005,"Ġplaziert":3006,"ĠSteuer":3007,"ĠMiteret":3008,"bohr":3009,"Ġgekocht":3010,"ĠÃĸffnung":3011,"ĠKoniferen":3012,"ĠHierakonpolis":3013,"ĠPatient":3014,"ĠDurst":3015,"sprachigen":3016,"\"(":3017,"At":3018,"Bes":3019,"He":3020,"Iy":3021,"Leute":3022,"Ober":3023,"Tj":3024,"Wo":3025,"brot":3026,"buch":3027,"fet":3028,"jm":3029,"kiefer":3030,"noch":3031,"sw":3032,"ue":3033,"wend":3034,"ykom":3035,"Ġgenommen":3036,"eri":3037,"stier":3038,"orchen":3039,"aub":3040,"asst":3041,"Ġweiter":3042,"Ã¼pft":3043,"ĠSet":3044,"ĠSchenk":3045,"ĠSykom":3046,"Ġdeswegen":3047,"ĠHeti":3048,"ĠHaupt":3049,"irkare":3050,"teti":3051,"ĠKru":3052,"ĠAm":3053,"ĠAben":3054,"ehle":3055,"Ġgek":3056,"ĠmÃ¶gen":3057,"attung":3058,"ĠBas":3059,"ĠBebi":3060,"mmt":3061,"Ġerw":3062,"Ġerhebe":3063,"denz":3064,"ĠWen":3065,"ĠWege":3066,"olk":3067,"unger":3068,"ĠFÃ¤h":3069,"ĠFlut":3070,"ĠFreu":3071,"Einz":3072,"ĠHerbei":3073,"ĠResi":3074,"Ġaufle":3075,"ĠLÃ¼ge":3076,"ĠSchÃ¶n":3077,"ĠSchrift":3078,"ĠScheitel":3079,"othis":3080,"ĠVersch":3081,"Ġkl":3082,"ĠkÃ¤m":3083,"ĠDurch":3084,"neun":3085,"tion":3086,"reisen":3087,"Ġverw":3088,"efetj":3089,"ĠVorneh":3090,"Ġwerdet":3091,"astet":3092,"Ġvorn":3093,"ĠNeferirkare":3094,"ĠVorstehers":3095,"Ġjub":3096,"ĠEnt":3097,"ĠOberarm":3098,"Ġstand":3099,"ĠGÃ¶tterneun":3100,"Ġherab":3101,"ilch":3102,"ĠUnterwelt":3103,"ĠUntertanen":3104,"ĠUnterkiefer":3105,"ĠStand":3106,"ĠStab":3107,"tell":3108,"beiter":3109,"riff":3110,"gessen":3111,"gesond":3112,"Ã¼tzer":3113,"spruch":3114,"Ġhinunter":3115,"ohlen":3116,"Ġentsprechend":3117,"Ġabgew":3118,"gefÃ¼gt":3119,"kenne":3120,"herr":3121,"sieh":3122,"Ġliegt":3123,"ĠAchs":3124,"ĠInsel":3125,"gebrochen":3126,"Spaltbruch":3127,"Diese":3128,"Dieses":3129,"ĠSee":3130,"ĠSees":3131,"ĠTjenti":3132,"geschn":3133,"geschw":3134,"ĠHÃ¶h":3135,"Ġerscheint":3136,"Ã¼hlt":3137,"Ġzerrieben":3138,"stoÃŁen":3139,"ĠNachti":3140,"gmagazin":3141,"ĠMesser":3142,"luckt":3143,"srf":3144,"ĠFesten":3145,"ĠFremdlÃ¤nder":3146,"Gottes":3147,"nachdem":3148,"ĠNubier":3149,"Ã¶pfe":3150,"ĠBÃ¼rgermeister":3151,"monatsfest":3152,"letzung":3153,"ĠLiebling":3154,"Ġfremdsprachigen":3155,"ĠResidenz":3156,"gesondert":3157,"Ar":3158,"Busch":3159,"Baum":3160,"Doch":3161,"Fla":3162,"Freund":3163,"Frucht":3164,"Ib":3165,"Jungtier":3166,"LaÃŁ":3167,"Will":3168,"Wadjet":3169,"ackt":3170,"bet":3171,"dig":3172,"fÃ¼":3173,"gut":3174,"heb":3175,"keiten":3176,"kraft":3177,"nn":3178,"nicht":3179,"nÃ¤d":3180,"pyr":3181,"rich":3182,"rag":3183,"sich":3184,"uef":3185,"wind":3186,"yt":3187,"Ġdarauf":3188,"eisen":3189,"eser":3190,"einem":3191,"Ġsetzen":3192,"nden":3193,"iem":3194,"ieÃŁen":3195,"orben":3196,"Ġwider":3197,"ters":3198,"tert":3199,"ĠSÃ¤nger":3200,"ĠSeschat":3201,"ĠGrÃ¼":3202,"ĠGunst":3203,"ĠAmt":3204,"alte":3205,"ĠNeh":3206,"ĠhÃ¶rt":3207,"itual":3208,"Ġget":3209,"Ġgelei":3210,"Ġmach":3211,"ĠBein":3212,"ĠBeh":3213,"ĠBew":3214,"ĠBitte":3215,"Ġerh":3216,"reckt":3217,"Ġnur":3218,"ĠWild":3219,"ĠzugehÃ¶r":3220,"ĠThinitischen":3221,"Ġflie":3222,"amet":3223,"acher":3224,"schon":3225,"ĠRÃ¼ck":3226,"ĠRoten":3227,"ĠLie":3228,"ĠKÃ¶nigsopfer":3229,"liches":3230,"lichkeit":3231,"Ġkomm":3232,"ĠkÃ¼hl":3233,"ĠDie":3234,"annten":3235,"aba":3236,"reite":3237,"ĠOpfers":3238,"Ã¤ger":3239,"kaf":3240,"Cheops":3241,"asten":3242,"ruder":3243,"ĠAuges":3244,"rÃ¼ckt":3245,"rÃ¼che":3246,"ĠSohnes":3247,"ĠEmpf":3248,"Ġ(?)!":3249,"ĠgehÃ¶r":3250,"Ġstatte":3251,"ĠRech":3252,"ĠJubel":3253,"ĠSteif":3254,"ĠMeri":3255,"becken":3256,"Ã¤tten":3257,"lerin":3258,"Siegler":3259,"Ġumsch":3260,"iebte":3261,"Ġnimmt":3262,"ĠPalastleiter":3263,"neferet":3264,"Ġgesund":3265,"ĠGehil":3266,"rafen":3267,"ĠUser":3268,"ewaut":3269,"Ã¤rke":3270,"ĠprÃ¼":3271,"ĠInpu":3272,"Ġeinzigen":3273,"Ġveranl":3274,"ĠWesen":3275,"grund":3276,"tritt":3277,"ĠgefÃ¼llt":3278,"Ġdarfst":3279,"ĠWerk":3280,"Ġweggenommen":3281,"ĠHenu":3282,"Ġvereint":3283,"ĠEinziger":3284,"ĠHarfe":3285,"ĠTempels":3286,"ĠZauberreiche":3287,"ĠSchlÃ¤chter":3288,"ĠNasenlÃ¶":3289,"ĠGefolgsleute":3290,"gibt":3291,"knÃ¼pft":3292,"ĠoberÃ¤gypt":3293,"Ġausgestattet":3294,"ĠZÃ¤hne":3295,"ĠHirte":3296,"ĠSehetep":3297,"ĠTjetu":3298,"Ġwiederholt":3299,"Ġfortdauern":3300,"ĠHeilmittel":3301,"ĠKosen":3302,"ĠSchweigen":3303,"ĠGazelle":3304,"Ġfriedlich":3305,"ĠSteinbocks":3306,"Geistern":3307,"ĠunvergÃ¤nglicher":3308,"Atum":3309,"ĠFreude":3310,"Ġaufleben":3311,"ĠVornehme":3312,"ĠGÃ¶tterneunheit":3313,"geschwollen":3314,"Fladen":3315,"pyrus":3316,"(-":3317,"-/":3318,"Be":3319,"Bu":3320,"Dar":3321,"Fleisch":3322,"Geister":3323,"Hitze":3324,"Ku":3325,"Lock":3326,"Nicht":3327,"Nasen":3328,"Richte":3329,"Sem":3330,"ZurÃ¼ck":3331,"bêľ£":3332,"bank":3333,"bild":3334,"bnw":3335,"di":3336,"dar":3337,"fort":3338,"groÃŁ":3339,"iÃŁ":3340,"lauf":3341,"mes":3342,"maat":3343,"qet":3344,"res":3345,"ret":3346,"sung":3347,"seln":3348,"setzt":3349,"tá¸«b":3350,"waage":3351,"wná¸«":3352,"zÃ¼":3353,"zêľ£":3354,"zÃ¤h":3355,"Åł":3356,"Ġgen":3357,"erw":3358,"ĠdÃ¼r":3359,"enes":3360,"enet":3361,"ender":3362,"chern":3363,"eier":3364,"eilen":3365,"eiler":3366,"steigt":3367,"gem":3368,"Ġwach":3369,"emm":3370,"ĠSal":3371,"ĠSothis":3372,"ĠHund":3373,"ĠHut":3374,"Ã¤um":3375,"Ã¤hren":3376,"ĠGesch":3377,"ĠGrau":3378,"ĠGans":3379,"Ġha":3380,"Ġged":3381,"Ġgegessen":3382,"ĠBit":3383,"ĠBeine":3384,"Ġzw":3385,"Ġerscha":3386,"Ġerreichen":3387,"els":3388,"ĠMe":3389,"ĠMunde":3390,"ĠMasse":3391,"ĠMagazin":3392,"ĠMilch":3393,"ĠnÃ¶r":3394,"rol":3395,"ĠWange":3396,"ĠTat":3397,"Ġfand":3398,"Ġfrei":3399,"Ġfahr":3400,"achti":3401,"arzt":3402,"schei":3403,"eitigen":3404,"ĠLuft":3405,"ĠLÃ¶w":3406,"ĠUnkenntnis":3407,"ĠNeum":3408,"ander":3409,"ĠVerren":3410,"Ġkon":3411,"ĠDich":3412,"cke":3413,"Ġverk":3414,"Ġversamm":3415,"seneb":3416,"chtigen":3417,"umpf":3418,"kaes":3419,"ural":3420,"Ġausst":3421,"Ġscharf":3422,"ĠIt":3423,"ĠAnle":3424,"opol":3425,"opdu":3426,"mÃ¤chtiger":3427,"Schrein":3428,"ĠSpalt":3429,"ĠStÃ¤rke":3430,"Ġgebiete":3431,"weiter":3432,"ahrer":3433,"fertigung":3434,"rion":3435,"Ġ'$":3436,"Ġdurchziehen":3437,"gesehen":3438,"gestellt":3439,"spalast":3440,"sprÃ¼che":3441,"Ġentstanden":3442,"Ġgeschaffen":3443,"Ġgeschieht":3444,"Verband":3445,"weret":3446,"Festduft":3447,"ĠHerrinnen":3448,"meru":3449,"Ġpack":3450,"Ġpass":3451,"ltesten":3452,"edjet":3453,"dass":3454,"ĠVorlesepriesters":3455,"Anubis":3456,"menem":3457,"KÃ¶nigspalast":3458,"ĠAtfet":3459,"Ġgerufen":3460,"ĠDua":3461,"ĠGaues":3462,"ĠSechem":3463,"ulett":3464,"Ġbefried":3465,"albmonatsfest":3466,"ĠZustand":3467,"ĠHenut":3468,"ĠBefind":3469,"Ġbereitet":3470,"ĠWÃ¼rden":3471,"Ġganz":3472,"maler":3473,"Ġ15":3474,"SchÃ¤dels":3475,"ĠNebet":3476,"Ġhinabsteigen":3477,"ĠgrÃ¼ne":3478,"getreten":3479,"ĠFeld":3480,"Ġeuren":3481,"Ġpfle":3482,"ĠHÃ¤usern":3483,"Ġexistieren":3484,"ĠChristusdornes":3485,"ĠElef":3486,"iebtheit":3487,"ĠBetrachten":3488,"Ġklaffenden":3489,"Krug":3490,"Lebens":3491,"edef":3492,"ĠGrÃ¶ÃŁ":3493,"ranich":3494,"ĠGetreides":3495,"ĠPapyrus":3496,"Ġvortrefflich":3497,"ĠRechtfertigung":3498,"ĠauÃŁerdem":3499,"gleichen":3500,"ĠHÃ¤nde":3501,"Ġfolgen":3502,"Ġvernichtet":3503,"geweicht":3504,"ĠAbend":3505,"geschnitten":3506,"nÃ¤dig":3507,"ĠEmpfang":3508,"ĠSteifheit":3509,"NasenhÃ¶hlen":3510,"ĠGraugans":3511,"ĠNeumond":3512,"00":3513,"?;":3514,"Am":3515,"Auch":3516,"Bild":3517,"Frau":3518,"Falle":3519,"FlÃ¼ssigkeit":3520,"Gel":3521,"Gew":3522,"Heil":3523,"Halbmonatsfest":3524,"Leiden":3525,"Lebe":3526,"Lobpreis":3527,"Meister":3528,"Neh":3529,"Nur":3530,"Samen":3531,"Zer":3532,"age":3533,"bis":3534,"dies":3535,"fru":3536,"fell":3537,"gang":3538,"kêľ£":3539,"lural":3540,"mut":3541,"nten":3542,"off":3543,"pekt":3544,"rw":3545,"rat":3546,"ssen":3547,"seine":3548,"sêľ£":3549,"sverwalter":3550,"ust":3551,"Ġá¸«t":3552,"chuf":3553,"eihen":3554,"eigst":3555,"esen":3556,"einiger":3557,"einget":3558,"eingesunken":3559,"Ġsuch":3560,"ieft":3561,"orten":3562,"ged":3563,"emet":3564,"ĠSat":3565,"ĠHabgier":3566,"ĠHilf":3567,"Ã¤ter":3568,"ĠGerecht":3569,"ĠGÃ¤n":3570,"ĠKampf":3571,"ĠKÃ¶pfe":3572,"Ġben":3573,"itÃ¤t":3574,"ehu":3575,"Ġguten":3576,"ĠgnÃ¤dig":3577,"mmen":3578,"Ġneh":3579,"rote":3580,"rock":3581,"ĠOrion":3582,"Ġantw":3583,"Ġzugewiesen":3584,"achten":3585,"ĠFal":3586,"ĠFlÃ¼ssigkeit":3587,"inder":3588,"ĠHeraus":3589,"Ġaufgeweicht":3590,"ĠSchur":3591,"ĠSchlagen":3592,"ĠSchÃ¼tzer":3593,"uti":3594,"ĠVereiniger":3595,"Erw":3596,"ĠDÃ¶r":3597,"ĠDauer":3598,"ĠOpfergaben":3599,"iere":3600,"ierig":3601,"Ġschwer":3602,"ĠAnbeten":3603,"Ġlos":3604,"ĠAuÃŁen":3605,"ĠNeferet":3606,"ĠZusammen":3607,"ĠChui":3608,"rÃ¼chte":3609,"Ġleer":3610,"ĠEsel":3611,"haf":3612,"Schlie":3613,"Ġstir":3614,"ĠGroÃŁes":3615,"ĠReden":3616,"leib":3617,"ahre":3618,"ĠStra":3619,"ienst":3620,"lers":3621,"opfert":3622,"rifft":3623,"Ġbevor":3624,"Ã¼tze":3625,"Ġsowie":3626,"reundlich":3627,"ĠAbedu":3628,"Ġentkommen":3629,"Ġabgesondert":3630,"Ġabgeschnitten":3631,"werde":3632,"ĠRinder":3633,"Ġleidest":3634,"Ġweise":3635,"heres":3636,"Ġlieben":3637,"ĠAll":3638,"Ġherausgezogen":3639,"ĠDjedef":3640,"Steif":3641,"eiche":3642,"selbst":3643,"ĠAker":3644,"á¸ın":3645,"á¸ıêľ¥m":3646,"ĠÃ¤hn":3647,"Wasser":3648,"Lieferung":3649,"ĠschÃ¼tzend":3650,"Ġdarin":3651,"Ġbefohlen":3652,"Ã¤lter":3653,"ĠÃ¶ffnet":3654,"bekannte":3655,"Ġweggegangen":3656,"wesen":3657,"ĠZuhÃ¶ren":3658,"ĠZuwend":3659,"sion":3660,"Ġbeste":3661,"Ġverschluckt":3662,"sbedÃ¼r":3663,"ĠChnumhotep":3664,"ĠHarchuf":3665,"ĠSchlag":3666,"ĠsÃ¼ÃŁ":3667,"Ġbringe":3668,"refflicher":3669,"Ġschwach":3670,"ĠZimmermann":3671,"ĠÃĸls":3672,"barkeit":3673,"ĠKorns":3674,"Ġerkennst":3675,"sammlung":3676,"getrennt":3677,"schminke":3678,"ĠkÃ¶nnte":3679,"Ġschwarz":3680,"Ġpflegt":3681,"ĠStimme":3682,"ĠFladen":3683,"ĠFurchtbarkeit":3684,"ĠPfeiler":3685,"Geschwul":3686,"Ġgesprochen":3687,"Ã¤uchern":3688,"ĠSchlachtbank":3689,"Ġgepackt":3690,"Hemaka":3691,"KÃ¶rner":3692,"ĠFÃ¼ÃŁen":3693,"ĠNÃ¤he":3694,"ĠLotos":3695,"Mineral":3696,"tawi":3697,"zÃ¼ndet":3698,"ĠAugenblick":3699,"ĠBeliebtheit":3700,"ĠRespekt":3701,"ĠSchlÃ¼sselb":3702,"Ġlibyschen":3703,"Ġzerbrochen":3704,"ĠSteuerruder":3705,"Einziger":3706,"ĠHerbeibringen":3707,"ĠkÃ¤mpfen":3708,"Willkommen":3709,"ĠNasenlÃ¶chern":3710,"ĠSehetepu":3711,"ĠKosename":3712,"Lockerung":3713,"zÃ¼g":3714,"ĠMagazins":3715,"ĠVerrenkung":3716,"opolit":3717,"Ġpflegte":3718,"ĠElefantine":3719,"eingetieft":3720,"ĠHilfsbedÃ¼r":3721,"ĠSchurzes":3722,"Steifigkeit":3723,"\")":3724,"\").":3725,"Ballen":3726,"Bogen":3727,"Dorf":3728,"Ger":3729,"HG":3730,"HÃ¶re":3731,"Iamet":3732,"Jemand":3733,"Kan":3734,"Mach":3735,"Macht":3736,"NÃ¤h":3737,"Plural":3738,"Ru":3739,"Ste":3740,"Vert":3741,"Zepter":3742,"barke":3743,"bzw":3744,"dir":3745,"dde":3746,"gott":3747,"ia":3748,"ickt":3749,"jw":3750,"kr":3751,"man":3752,"nes":3753,"nor":3754,"nungs":3755,"ná¹¯":3756,"ptah":3757,"qêľ£":3758,"rit":3759,"richten":3760,"tisch":3761,"wj":3762,"Ãľber":3763,"Ġeher":3764,"Ġá¸¥m":3765,"erre":3766,"erkenne":3767,"chi":3768,"chtige":3769,"eig":3770,"eilt":3771,"eiert":3772,"esir":3773,"essel":3774,"eines":3775,"stet":3776,"ielen":3777,"orfen":3778,"Ã¶g":3779,"austr":3780,"ĠwÃ¶rtl":3781,"ichen":3782,"terus":3783,"emi":3784,"ĠSopdu":3785,"ĠHÃ¤l":3786,"ĠHunger":3787,"irk":3788,"tech":3789,"ĠGeg":3790,"ĠGabe":3791,"ĠGlÃ¤t":3792,"ĠGraf":3793,"igte":3794,"igend":3795,"inner":3796,"ĠAlt":3797,"ĠAmme":3798,"ĠAmenem":3799,"Ġviel":3800,"ĠNit":3801,"etter":3802,"etis":3803,"ÃŁgans":3804,"ĠbÃ¶":3805,"ĠhÃ¤lt":3806,"unkt":3807,"ehnen":3808,"Ġgeopfert":3809,"ĠglÃ¤n":3810,"ĠBest":3811,"ĠBlÃ¤":3812,"ĠBild":3813,"ĠBedarf":3814,"Ġeingetreten":3815,"Ġern":3816,"Ġerst":3817,"elten":3818,"ĠMyr":3819,"roten":3820,"ĠOsten":3821,"Ġangesehen":3822,"ĠWider":3823,"Ġzuber":3824,"ĠTau":3825,"Ġfein":3826,"Ġfallen":3827,"Ġinmit":3828,"Ã¼rm":3829,"Ġdeinetwegen":3830,"ĠPen":3831,"ĠPÃ¤chter":3832,"derer":3833,"arden":3834,"schers":3835,"eits":3836,"ĠRats":3837,"ĠRichter":3838,"ĠRitual":3839,"ĠLHG":3840,"ĠSchrein":3841,"ĠVerhalten":3842,"ĠkÃ¼":3843,"ĠverjÃ¼ngt":3844,"Ġverurs":3845,"ager":3846,"Ġgibst":3847,"ump":3848,"urt":3849,"Ġausgeb":3850,"Ġschon":3851,"Ġschle":3852,"ĠItj":3853,"ĠIzi":3854,"isten":3855,"versammlung":3856,"ĠZunge":3857,"ĠChaba":3858,"Ġleuch":3859,"ĠEx":3860,"ĠEmmer":3861,"haben":3862,"ĠOberarzt":3863,"ĠErb":3864,"ĠErster":3865,"illen":3866,"hebt":3867,"Ġsagten":3868,"riech":3869,"beiten":3870,"fertigt":3871,"Ġbegeben":3872,"gestiegen":3873,"iebter":3874,"Ã¼tzen":3875,"ĠschÃ¶ne":3876,"Ġwurden":3877,"Ã¼nst":3878,"Ġrund":3879,"Ġrichte":3880,"ĠAbw":3881,"Ġentgegen":3882,"ĠNekropolen":3883,"ĠGelob":3884,"noten":3885,"nofru":3886,"ĠUr":3887,"ĠUterus":3888,"schenk":3889,"ĠJungtieres":3890,"ĠInner":3891,"gebnis":3892,"eoparden":3893,"!\",":3894,"StrÃ¤n":3895,"Splitterbruch":3896,"ĠKindern":3897,"ĠEhrwÃ¼rdige":3898,"ĠschÃ¼tze":3899,"entitel":3900,"ĠBereich":3901,"ĠzurÃ¼ckweichen":3902,"Ã¤ll":3903,"rachte":3904,"ĠSemdet":3905,"ĠVerklÃ¤rter":3906,"ĠWÃ¼rdigen":3907,"Ġbesser":3908,"Abgaben":3909,"Ġverschlungen":3910,"ĠlÃ¤sst":3911,"ĠEinzigen":3912,"ĠHarachte":3913,"ĠSobekhotep":3914,"ĠSobeknacht":3915,"Ġruh":3916,"ĠFeuerbecken":3917,"ietsverwalter":3918,"ĠRudde":3919,"ĠIripat":3920,"Ã¤gyptisches":3921,"Ġerfreut":3922,"reue":3923,"hÃ¶hle":3924,"ĠHaar":3925,"Untergehender":3926,"kaues":3927,"ĠSiegelbew":3928,"ĠKapellen":3929,"gehÃ¶riger":3930,"enenet":3931,"Ġschwarze":3932,"Ġblutet":3933,"ĠZÃ¤hlen":3934,"ĠFremdland":3935,"ĠGeruch":3936,"á¸¥nq":3937,"Ġergreife":3938,"ĠHÃ¤user":3939,"ĠBÃ¶sen":3940,"ĠfrÃ¼her":3941,"ĠErscheinen":3942,"Kapel":3943,"Ġinfolgedessen":3944,"Ġabwehren":3945,"ĠBinsengefilde":3946,"ĠÃ¼brig":3947,"ĠNechenem":3948,"Ã¼tzlich":3949,"mjn":3950,"ĠVogelf":3951,"ĠWahrheit":3952,"Schlangen":3953,"jmr":3954,"ĠWildstier":3955,"ĠLiebe":3956,"ĠBittstel":3957,"Ġzwischen":3958,"Ġerschaffen":3959,"ĠLÃ¶wen":3960,"Lebensmittel":3961,"Frauentitel":3962,"Ġsuche":3963,"ĠVereinigerin":3964,"ĠAuÃŁenseite":3965,"Ġstirbt":3966,"zÃ¼glich":3967,"ĠGegner":3968,"ĠBlÃ¤ÃŁgans":3969,"ĠMyrr":3970,"Ġinmitten":3971,"ĠRatsversammlung":3972,"ĠInneren":3973,"ĠRuddedet":3974,"ĠSiegelbewahrer":3975,")-":3976,"Bei":3977,"Bring":3978,"Dem":3979,"Diener":3980,"FÃ¼lle":3981,"Ha":3982,"Har":3983,"Hep":3984,"Itj":3985,"Kopf":3986,"Knochen":3987,"Lege":3988,"Miter":3989,"Nach":3990,"Netjer":3991,"SÃ¼":3992,"Tier":3993,"Vollen":3994,"Vogel":3995,"Wach":3996,"Wesir":3997,"ay":3998,"ade":3999,"bu":4000,"bung":4001,"binden":4002,"dich":4003,"deine":4004,"echen":4005,"eckt":4006,"for":4007,"fla":4008,"furcht":4009,"gyp":4010,"hat":4011,"hauf":4012,"hauch":4013,"holz":4014,"if":4015,"ihn":4016,"ihre":4017,"jh":4018,"kragen":4019,"nei":4020,"nsr":4021,"rah":4022,"sa":4023,"sc":4024,"sn":4025,"sser":4026,"sitzen":4027,"tre":4028,"tlich":4029,"uh":4030,"volk":4031,"wand":4032,"wÃ¤hrend":4033,"Ãĸff":4034,"ĠC":4035,"ĠččĊ":4036,"Ġoh":4037,"Ġeigen":4038,"Ġreich":4039,"Ġroten":4040,"Ġdanach":4041,"enkt":4042,"ches":4043,"eichen":4044,"einung":4045,"Ġsol":4046,"ore":4047,"orschen":4048,"Ã¶ten":4049,"ase":4050,"Ã¼te":4051,"Ã¼ben":4052,"emmt":4053,"ĠSa":4054,"ĠSand":4055,"ĠSehen":4056,"ĠHon":4057,"ĠHÃ¶r":4058,"Ã¤hn":4059,"Ã¤uf":4060,"Ã¤ucher":4061,"Ã¤sser":4062,"ĠGute":4063,"ĠKen":4064,"ĠKot":4065,"ĠKranich":4066,"ĠNil":4067,"Ġhol":4068,"Ġhung":4069,"Ġhabgier":4070,"Ġmachte":4071,"Ġging":4072,"ĠBu":4073,"ĠBÃ¼":4074,"ĠBaum":4075,"ĠBastet":4076,"ĠzÃ¤h":4077,"Ġeintritt":4078,"Ġerheben":4079,"ellt":4080,"ĠMon":4081,"ĠMend":4082,"ĠMeni":4083,"ĠMachen":4084,"ĠMauer":4085,"ĠMeiÃŁ":4086,"Ġneu":4087,"ĠnÃ¼tzlich":4088,"rom":4089,"rodu":4090,"Ġangeg":4091,"ĠWach":4092,"ĠWepi":4093,"Ġzuvor":4094,"ĠTan":4095,"ĠTre":4096,"ĠTadj":4097,"ĠTewaut":4098,"ĠfÃ¤h":4099,"Ġfreundlich":4100,"Ã¼rde":4101,"aufen":4102,"arak":4103,"ĠFre":4104,"ĠFett":4105,"ĠFlÃ¶":4106,"ĠFische":4107,"sches":4108,"ĠRos":4109,"ĠRuf":4110,"ĠRÃ¤uchern":4111,"Ġaufgehen":4112,"Ġaufgebrochen":4113,"Ġaufgrund":4114,"Ġaufgeschwollen":4115,"ĠUnwissen":4116,"ĠKÃ¶nigsbekannte":4117,"Ġhatten":4118,"ĠSchr":4119,"andes":4120,"ĠfÃ¼rchten":4121,"ĠVerst":4122,"ĠVerwalt":4123,"Ġkriech":4124,"ĠDed":4125,"nedj":4126,"reiÃŁen":4127,"Ġverst":4128,"Ġverwir":4129,"ĠOpfergefilde":4130,"ĠOpferbedarf":4131,"chts":4132,"umph":4133,"Ġaussp":4134,"eschet":4135,"Ġschn":4136,"Ġschaffen":4137,"ĠIp":4138,"ĠIren":4139,"Chufu":4140,"ftigen":4141,"edjer":4142,"verband":4143,"verwaltung":4144,"ĠZiegel":4145,"gelassen":4146,"opft":4147,"rÃ¼mm":4148,"Ġleg":4149,"Ġlebst":4150,"ortete":4151,"Ġgeheim":4152,"Schatzhaus":4153,"ernt":4154,"ĠSpende":4155,"ĠSpeicher":4156,"gtheit":4157,"ĠErgebnis":4158,"ildet":4159,"ĠJasen":4160,"ĠJens":4161,"ĠStat":4162,"ĠSturm":4163,"ĠStÃ¤tten":4164,"ĠgebÃ¤ren":4165,"ĠVersorgung":4166,"riumph":4167,"osi":4168,"ossen":4169,"Ġ\"(":4170,"Ġbewir":4171,"ringt":4172,"halb":4173,"auchung":4174,"rÃ¤us":4175,"Ġsofort":4176,"Ġhinaus":4177,"Ġhinauf":4178,"neferu":4179,"ohle":4180,"Ġseid":4181,"Ġseien":4182,"Ġwurdest":4183,"Ġentsteht":4184,"ĠentzÃ¼ndet":4185,"ĠGehorchen":4186,"Verh":4187,"Versieh":4188,"gerissen":4189,"notet":4190,"ĠDenk":4191,"Ġ-,":4192,"gefÃ¤ll":4193,"ewen":4194,"Ã¤rm":4195,"merz":4196,"ĠInit":4197,"vorstehers":4198,"ĠGeburt":4199,"ĠDjati":4200,"á¸«wrr":4201,"âĢľ":4202,"âĢŀ":4203,"ĠMenkai":4204,"Ã¼cker":4205,"ĠAugenschminke":4206,"á¸ıêľ£":4207,"ĠÃ¤ch":4208,"Ġgereicht":4209,"schaften":4210,"Ġzufriedenstellen":4211,"ĠtÃ¤glichen":4212,"ĠHorizonts":4213,"ĠHorizontes":4214,"ĠNius":4215,"Å¡r":4216,"Hetepi":4217,"Ġdarf":4218,"ĠBote":4219,"ĠBogen":4220,"GroÃŁes":4221,"ĠHerzens":4222,"ĠTjeti":4223,"ĠBek":4224,"fahren":4225,"Ġfrische":4226,"ĠÃĦltester":4227,"ĠÃĦltesten":4228,"ĠSchmÃ¼cker":4229,"wirbel":4230,"lickt":4231,"zieht":4232,"Ġbeseit":4233,"Abgabe":4234,"Senet":4235,"suchen":4236,"Ġmuss":4237,"ĠÃľberfluÃŁ":4238,"ĠNachwelt":4239,"Ġvollkommener":4240,"Ġrudern":4241,"ĠsÃ¼dlichen":4242,"Ġerforschen":4243,"Ġerkannt":4244,"ĠHekenu":4245,"Ġgelobt":4246,"ĠBrÃ¼dern":4247,"ĠPyramidenanlage":4248,"stÃ¼cke":4249,"Ġangetan":4250,"ĠTage":4251,"ĠSiegels":4252,"Ġallem":4253,"ĠFelder":4254,"schmuck":4255,"ĠSchwanz":4256,"Ġeurem":4257,"ĠFlamme":4258,"bewohner":4259,"GeschwÃ¼r":4260,"Ġgespalten":4261,"jenigen":4262,"gekehrt":4263,"Ã¤uchert":4264,"Horizont":4265,"gÃ¶ttin":4266,"ĠlieÃŁest":4267,"ĠHautgew":4268,"ĠGemetz":4269,"Ġdauerhaft":4270,"ĠSonnenvolk":4271,"ĠAsosi":4272,"Ġgleite":4273,"ĠVollkommenheit":4274,"ĠKrugmagazin":4275,"ĠRechit":4276,"darÃ¼ber":4277,"Ġgedeihen":4278,"Ġkonnte":4279,"Ġpackst":4280,"Ġbefriedigend":4281,"ĠBefindlichen":4282,"malerweise":4283,"Leidens":4284,"Ġnehmen":4285,"ĠZuwendungen":4286,"chiv":4287,"Ġverursacht":4288,"ĠErbfÃ¼r":4289,"eopardenfell":4290,"StrÃ¤nge":4291,"ĠVogelfett":4292,"Vollender":4293,"flammt":4294,"haufens":4295,"Ãĸffne":4296,"ĠHonig":4297,"Ġhabgierig":4298,"ĠMendes":4299,"ĠWepiu":4300,"ĠTadjeser":4301,"Ġgeheimen":4302,"ĠJenseits":4303,"10":4304,"Ber":4305,"Bier":4306,"Bist":4307,"Dir":4308,"Ge":4309,"Gr":4310,"Ged":4311,"GrÃ¼ndung":4312,"Geier":4313,"Her":4314,"Himmel":4315,"Iti":4316,"Iri":4317,"Jeder":4318,"Leinen":4319,"Mes":4320,"Meni":4321,"Natron":4322,"Rein":4323,"Rote":4324,"Sich":4325,"Seschem":4326,"Setz":4327,"Topf":4328,"Tetis":4329,"Voll":4330,"Wahr":4331,"Zimmer":4332,"aten":4333,"eck":4334,"fÃ¼hr":4335,"fÃ¼lle":4336,"gangen":4337,"hÃ¶rt":4338,"hÃ¤l":4339,"hÃ¤us":4340,"heiligtum":4341,"ihm":4342,"krÃ¤":4343,"kungs":4344,"kreis":4345,"kehren":4346,"ksam":4347,"kinder":4348,"lter":4349,"lasse":4350,"machen":4351,"mpor":4352,"mahl":4353,"ná¸ı":4354,"pet":4355,"prÃ¼":4356,"rennt":4357,"sicht":4358,"sfest":4359,"sÅ¡":4360,"sacher":4361,"tau":4362,"tlit":4363,"wêľ£":4364,"wendet":4365,"wohl":4366,"zeh":4367,"zut":4368,"zeich":4369,"zmjn":4370,"Ġfertig":4371,"ľbel":4372,"erk":4373,"esten":4374,"einungen":4375,"stern":4376,"Ġsetz":4377,"ied":4378,"orcht":4379,"Ã¶te":4380,"aul":4381,"aschen":4382,"Ġwor":4383,"ĠwÃ¤":4384,"ichtens":4385,"Ã¼ter":4386,"Ã¼mm":4387,"Ã¼mer":4388,"emph":4389,"ĠSei":4390,"ĠSach":4391,"ĠSeine":4392,"ĠSieb":4393,"ĠSeiten":4394,"ĠSefetj":4395,"ĠStell":4396,"ĠSnofru":4397,"ire":4398,"iri":4399,"Ã¤tig":4400,"ĠGe":4401,"ĠGar":4402,"ĠGrÃ¤":4403,"ĠGaben":4404,"ĠGlut":4405,"iges":4406,"ĠKn":4407,"ingt":4408,"ĠAber":4409,"ĠAbt":4410,"ĠAsch":4411,"ĠAka":4412,"albt":4413,"ĠNah":4414,"ĠNieder":4415,"ĠNorm":4416,"etau":4417,"Ġbreit":4418,"Ġbreite":4419,"Ġbrachte":4420,"ĠhÃ¶re":4421,"ehlen":4422,"Ġmel":4423,"ĠgrÃ¼nd":4424,"ĠBett":4425,"ĠBlÃ¤t":4426,"Ġeingesetzt":4427,"Ġerhebt":4428,"ĠMont":4429,"ĠMeister":4430,"recher":4431,"ĠnÃ¤mlich":4432,"Ġniem":4433,"ropfen":4434,"ĠWa":4435,"ĠWÃ¤":4436,"ĠWorf":4437,"ĠTaus":4438,"Ġfassen":4439,"Ġfinden":4440,"dert":4441,"achit":4442,"arken":4443,"arbeit":4444,"schi":4445,"schlange":4446,"scheiden":4447,"schnur":4448,"schurz":4449,"inde":4450,"ĠHeraustr":4451,"ĠRicht":4452,"ĠRest":4453,"ĠRang":4454,"ĠRote":4455,"ĠReicht":4456,"ĠRÃ¤ucher":4457,"Ġaufsteigen":4458,"ĠLeute":4459,"ĠLippen":4460,"ĠSchÃ¤r":4461,"uto":4462,"anderen":4463,"Ġkennst":4464,"Ġkenne":4465,"ĠDessen":4466,"ĠDunk":4467,"ĠDoppel":4468,"eherr":4469,"absuchen":4470,"reibt":4471,"ĠHerrschers":4472,"epunkt":4473,"Ġverz":4474,"Ġversor":4475,"ĠOpfern":4476,"chtest":4477,"chtigkeit":4478,"ĠVorges":4479,"Ġausgesp":4480,"eschmet":4481,"ĠIr":4482,"ĠIy":4483,"ĠImen":4484,"ĠIpi":4485,"ĠAng":4486,"ĠAnfang":4487,"Chenti":4488,"asti":4489,"edeti":4490,"ĠvorÃ¼ber":4491,"vertre":4492,"ĠZemti":4493,"ĠTotenfest":4494,"ĠCharak":4495,"gelÃ¶":4496,"gelernt":4497,"mÃ¤nn":4498,"ĠEmpor":4499,"Ġstatt":4500,"Ġstellt":4501,"Ġstrom":4502,"ĠSplitterbruch":4503,"ĠGroÃŁwes":4504,"ĠÃ¼berqu":4505,"ĠRegel":4506,"euge":4507,"eule":4508,"leich":4509,"ĠArchiv":4510,"ĠJha":4511,"Ġgebunden":4512,"Ġgebreitet":4513,"weist":4514,"ĠAufh":4515,"ĠAufricht":4516,"ĠAufgabe":4517,"ahrt":4518,"ĠVersorgtheit":4519,"ĠMerire":4520,"opfern":4521,"riften":4522,"rauben":4523,"Ġbebt":4524,"Sieh":4525,"Ġumr":4526,"Ġumgekehrt":4527,"iebung":4528,"Ġsodass":4529,"splitter":4530,"Ġhinein":4531,"Ġhingelegt":4532,"ĠschÃ¶ner":4533,"also":4534,"Ġret":4535,"langt":4536,"Ġentsch":4537,"ischer":4538,"ĠMundes":4539,"Verb":4540,"Versor":4541,"VerjÃ¼ngt":4542,"raten":4543,"Seite":4544,"ĠMannschaft":4545,"ĠQa":4546,"Ġmeines":4547,"ĠweiÃŁer":4548,"ĠFestungen":4549,"Ġpreisen":4550,"ĠGrund":4551,"feder":4552,"Ġbestraft":4553,"Ġbestrafen":4554,"Ġgewaschen":4555,"Ġoben":4556,"Ġverbringen":4557,"stenhaus":4558,"Ġherausgegangen":4559,"Rede":4560,"Stab":4561,"ĠSenet":4562,"ĠÃ¤lteste":4563,"ĠgerÃ¶tet":4564,"Speisen":4565,"Gebietsverwalter":4566,"Werde":4567,"ĠSech":4568,"Ġdaran":4569,"Ġ(??).":4570,"ĠTjen":4571,"Ã¼llen":4572,"ĠBezug":4573,"Ġdorthin":4574,"ĠBegrÃ¤bnisses":4575,"Ġfressen":4576,"ĠÃĦgyp":4577,"Ġanderes":4578,"ĠSchminke":4579,"wird":4580,"ĠBefinden":4581,"ĠBefehle":4582,"Ġfortgenommen":4583,"licken":4584,"Ġberichten":4585,"ĠberÃ¤uchert":4586,"Ġverschlossen":4587,"setze":4588,"ĠgrÃ¶ÃŁte":4589,"Ã¼ndel":4590,"Ġbegab":4591,"Ġbegib":4592,"ĠKupfer":4593,"ĠKummer":4594,"ĠNachbar":4595,"Ġvollkommene":4596,"ĠmÃ¤chtiger":4597,"Ġtrennt":4598,"ĠBesitzer":4599,"ĠsÃ¼ÃŁen":4600,"ĠkÃ¶nigliche":4601,"ĠNasenhÃ¶hlen":4602,"ĠNasenhÃ¶hle":4603,"ĠKÃ¶rp":4604,"ĠProdu":4605,"HÃ¼ter":4606,"Ġðĵį¹Cheops":4607,"Ġwahrhaft":4608,"ĠHapi":4609,"ĠSchwestern":4610,"nebu":4611,"klein":4612,"schwanz":4613,"Ġsiehst":4614,"ĠgrÃ¼nen":4615,"ĠumfaÃŁt":4616,"Ġentfernt":4617,"ĠGehÃ¶rige":4618,"ĠMonatsfest":4619,"ĠkÃ¶nnen":4620,"ĠverklÃ¤ren":4621,"Ġausgestreckt":4622,"ĠStiere":4623,"ĠVorderteil":4624,"Ġschlimm":4625,"phantine":4626,"ĠEssen":4627,"Nebu":4628,"Pyramiden":4629,"Pyramide":4630,"Pyramidenanlage":4631,"ĠLage":4632,"Ġvorbeigehen":4633,"Ġergreifen":4634,"ĠBÃ¶se":4635,"ĠfrÃ¼hen":4636,"ĠBefehls":4637,"losen":4638,"ĠRippenstÃ¼cke":4639,"ĠElephantine":4640,"iehlt":4641,"Ġbleiben":4642,"Ġbeklei":4643,"Ġklaffende":4644,"ĠFÃ¼ÃŁe":4645,"Ġgestorben":4646,"ĠFlach":4647,"êľ£mêľ¥":4648,"garten":4649,"Ġrotes":4650,"Ġwelcher":4651,"ĠSÃ¼den":4652,"ĠKanal":4653,"ition":4654,"Ġkennengelernt":4655,"ĠSterne":4656,"ĠGeneral":4657,"Ġerteilen":4658,"ĠTrauer":4659,"epseskaf":4660,"ĠZweiten":4661,"bohrung":4662,"Wovon":4663,"ĠSykomore":4664,"ĠHauptn":4665,"ĠFÃ¤hre":4666,"ĠVerschiebung":4667,"Ġjubelt":4668,"ĠHÃ¶hepunkt":4669,"ĠMessers":4670,"fÃ¼gen":4671,"Ġwidersetzen":4672,"Ġgeleitet":4673,"Ġumschlossen":4674,"ĠGehilfe":4675,"Ġveranlasst":4676,"Darbringen":4677,"ĠSalbe":4678,"ĠnÃ¶rdlichen":4679,"Ġfahren":4680,"FestduftÃ¶l":4681,"Ġpassiert":4682,"ĠHenutsen":4683,"ĠGrÃ¶ÃŁter":4684,"Amulett":4685,"Bildbeischrift":4686,"ĠGerechtigkeit":4687,"Erwache":4688,"SchlieÃŁ":4689,"ĠStraÃŁe":4690,"ĠDjedefhor":4691,"Geschwulst":4692,"ĠHilfsbedÃ¼rftigen":4693,"normalerweise":4694,"ná¹¯r":4695,"ĠGlÃ¤tten":4696,"ĠAmenemhet":4697,"ĠBildh":4698,"Ġausgebreitet":4699,"ĠAbwehren":4700,"Ġruhig":4701,"Kapelle":4702,"ĠBittsteller":4703,"ĠMyrrhe":4704,"Nachdem":4705,"Ġangegriffen":4706,"ĠTreppe":4707,"ĠRosetau":4708,"Ġbewirken":4709,"ĠNiuserre":4710,"Ġbeseitigt":4711,"ĠErbfÃ¼rst":4712,"Zimmermann":4713,"hÃ¤user":4714,"tlitz":4715,"emphis":4716,"ĠStellvertre":4717,"ĠGrÃ¤ber":4718,"ĠGluthauch":4719,"ĠAbtasten":4720,"ĠBlÃ¤tter":4721,"ĠHeraustreten":4722,"ĠSchÃ¤rfen":4723,"ĠDoppelfeder":4724,"ĠVorgesetz":4725,"ĠGroÃŁwesir":4726,"VerjÃ¼ngtes":4727,"Ġðĵį¹Cheopsðĵįº":4728,"\"),":4729,"$'.":4730,"Bef":4731,"Besch":4732,"Darauf":4733,"Ende":4734,"GÃ¶t":4735,"GÃ¤n":4736,"Geht":4737,"Gerste":4738,"Hebe":4739,"Halte":4740,"II":4741,"Kein":4742,"Korn":4743,"Krankheit":4744,"Kaum":4745,"KÃ¼hl":4746,"Me":4747,"Mache":4748,"Medj":4749,"Nar":4750,"Neu":4751,"Paus":4752,"Schenk":4753,"Sack":4754,"Setze":4755,"Vater":4756,"War":4757,"Wegen":4758,"Zwei":4759,"Zauber":4760,"ba":4761,"beh":4762,"bêľ¥":4763,"blicher":4764,"bÃ¼ndel":4765,"cr":4766,"dame":4767,"daÃŁ":4768,"ecken":4769,"ekenu":4770,"fangen":4771,"fassen":4772,"fallen":4773,"fange":4774,"falls":4775,"gau":4776,"hÃ¤lt":4777,"ionen":4778,"ja":4779,"ket":4780,"kab":4781,"lst":4782,"lte":4783,"ms":4784,"magazin":4785,"nun":4786,"nimmt":4787,"ohe":4788,"offen":4789,"ple":4790,"platz":4791,"reten":4792,"sÃ¼":4793,"sheit":4794,"shalle":4795,"sá¸«":4796,"tp":4797,"tu":4798,"tlichen":4799,"tÃ¤tig":4800,"uter":4801,"wahr":4802,"waut":4803,"wetter":4804,"ym":4805,"zep":4806,"zert":4807,"zeichen":4808,"Ġ.":4809,"Ġat":4810,"Ġacht":4811,"ĸst":4812,"erbt":4813,"erhoben":4814,"enk":4815,"enig":4816,"einander":4817,"stein":4818,"stadt":4819,"strecken":4820,"stattung":4821,"Ġsor":4822,"Ġsáºĸ":4823,"ieben":4824,"gepf":4825,"Ġ(,":4826,"Ã¶ger":4827,"Ã¶pft":4828,"Ġwest":4829,"Ġwohn":4830,"Ġweder":4831,"Ġwenig":4832,"aneb":4833,"anlasse":4834,"emu":4835,"ĠSer":4836,"ĠSon":4837,"ĠSel":4838,"ĠSati":4839,"ĠSitzen":4840,"ĠSumpf":4841,"ĠHy":4842,"ĠHet":4843,"ĠHol":4844,"Ã¤cht":4845,"Ã¤ÃŁe":4846,"Ã¤che":4847,"ĠGed":4848,"ĠGeben":4849,"ĠGek":4850,"ĠGÃ¼ter":4851,"igartig":4852,"ĠKy":4853,"ĠKinn":4854,"ĠAss":4855,"ĠAtef":4856,"alen":4857,"ĠNau":4858,"ĠNord":4859,"ĠNeschmet":4860,"etall":4861,"etopolis":4862,"Ġhor":4863,"ĠhÃ¶r":4864,"Ġhorn":4865,"Ġhandel":4866,"ehre":4867,"Ġgelangt":4868,"Ġmilde":4869,"attel":4870,"Ġgrei":4871,"Ġgute":4872,"ĠBot":4873,"ĠBuch":4874,"ĠButo":4875,"Ġeinnehmen":4876,"Ġerrichtet":4877,"ĠVÃ¶":4878,"elstÃ¼ck":4879,"ĠMit":4880,"ĠMel":4881,"ĠMitt":4882,"rocken":4883,"roffen":4884,"ĠangefÃ¼gt":4885,"ĠWe":4886,"ĠWeh":4887,"ĠWurm":4888,"Ġzuteil":4889,"ĠTon":4890,"ĠfÃ¤hrt":4891,"ĠfÃ¼hlt":4892,"amter":4893,"ĠPh":4894,"ĠPlÃ¤":4895,"ĠPlan":4896,"ĠPhy":4897,"achtet":4898,"arz":4899,"arbeiter":4900,"ols":4901,"ĠFe":4902,"ĠFang":4903,"ĠFÃ¤hr":4904,"schel":4905,"schul":4906,"schiff":4907,"schepses":4908,"ĠRangtitel":4909,"ĠRichtens":4910,"Ġaufstehen":4911,"ĠLib":4912,"ĠLeiden":4913,"ĠLetopolis":4914,"ĠKÃ¶nigsleute":4915,"ĠKÃ¶nigskinder":4916,"ĠSchaden":4917,"ĠSchilf":4918,"ĠVerw":4919,"Ġko":4920,"ĠDep":4921,"Ġtot":4922,"Ġtrefflicher":4923,"ĠtÃ¶ten":4924,"Ġmittel":4925,"reiÃŁt":4926,"riesen":4927,"Ġbeider":4928,"Ġbeistehen":4929,"epu":4930,"Ġverd":4931,"Ġversehen":4932,"Ġgib":4933,"ĠVorbild":4934,"ĠVorsitzen":4935,"Ġdahin":4936,"Ã¤glich":4937,"Ġausge":4938,"ĠausÃ¼ben":4939,"ĠschlÃ¤":4940,"Ġschlie":4941,"Ġschief":4942,"ĠIu":4943,"ĠIze":4944,"ollte":4945,"ĠAnh":4946,"ĠAntilope":4947,"ĠAnwesen":4948,"ĠAngehÃ¶riger":4949,"ĠAntlitz":4950,"ĠTod":4951,"Cha":4952,"istent":4953,"(?):":4954,"verletzung":4955,"Ġjeg":4956,"rÃ¼ne":4957,"Ġlegte":4958,"ĠEd":4959,"Ġ(?)/":4960,"Ġgehemmt":4961,"Schu":4962,"Ġstill":4963,"Ġsteigst":4964,"ĠstÃ¼tzen":4965,"ĠGÃ¶ttin":4966,"ĠSpieÃŁen":4967,"ĠRetech":4968,"ĠErinner":4969,"euch":4970,"eugt":4971,"eugung":4972,"illt":4973,"laff":4974,"lazu":4975,"ĠJu":4976,"ĠStarke":4977,"ĠStarken":4978,"gehoben":4979,"ĠunterÃ¤gypt":4980,"ĠGottesbuch":4981,"Ġgebrochen":4982,"beiden":4983,"lergehen":4984,"Ġdurchzogen":4985,"Ġdurchbohr":4986,"Ġdurchwand":4987,"Ġdurchzieht":4988,"Ġumher":4989,"Ġumgibt":4990,"ĠWasch":4991,"gestelle":4992,"eilung":4993,"speicher":4994,"tiert":4995,"ohlergehen":4996,"Ġgesalbt":4997,"Ġlebenden":4998,"Ġrichtig":4999,"Ġentwi":5000,"ĠGesund":5001,"ĠLandep":5002,"Ġgeschah":5003,"Veranlasse":5004,"rage":5005,"ĠUrin":5006,"ĠHandwaage":5007,"ĠzusammengefÃ¼gt":5008,"ĠHerrinen":5009,"flut":5010,"flÃ¶te":5011,"Ġleiten":5012,"ĠJungtieren":5013,"Ġweichen":5014,"gebunden":5015,"ĠAlter":5016,"ĠgewiÃŁ":5017,"Ġgewesen":5018,"ationen":5019,"ĠTages":5020,"ufrieden":5021,"ĠLangflÃ¶te":5022,"Ġherausgehen":5023,"Steige":5024,"grab":5025,"ĠChentj":5026,"ĠChentit":5027,"ĠWeisheit":5028,"Anfang":5029,"ĠKleid":5030,"trag":5031,"trÃ¤ger":5032,"Ġgeronnen":5033,"ĠEhrfurcht":5034,"ĠGaue":5035,"ĠgefÃ¼hrt":5036,"Å¡d":5037,"ulver":5038,"Ġreinigte":5039,"ĠzurÃ¼ckgew":5040,"ĠzurÃ¼ckkehren":5041,"durchstoÃŁen":5042,"Ġbefehlen":5043,"ĠTjaz":5044,"ĠFrauen":5045,"fahrt":5046,"ĠVerklÃ¤ren":5047,"ĠAnchu":5048,"Ġerscheinen":5049,"ĠFeindes":5050,"ĠBesitzt":5051,"richtigen":5052,"ĠempfÃ¤ngt":5053,"Ġzerha":5054,"Ġverschl":5055,"Aller":5056,"Ġvereinigen":5057,"twort":5058,"zess":5059,"zession":5060,"Ġwirkungs":5061,"ĠSchlangen":5062,"ĠÃľbersch":5063,"gegend":5064,"Ġvertrieben":5065,"Inpu":5066,"ĠHalskragen":5067,"ĠZauberkrÃ¤":5068,"Ġruft":5069,"stÃ¤ndigen":5070,"ĠPlatzes":5071,"ĠRuder":5072,"unterhalt":5073,"ĠGestalten":5074,"Ġhoher":5075,"ĠKornhaufens":5076,"ĠKornspeicher":5077,"ĠMorgendlichen":5078,"ĠWÃ¼st":5079,"ĠWÃ¼sten":5080,"ĠHeq":5081,"Ġgeliebter":5082,"ĠPyramiden":5083,"gion":5084,"eintrauben":5085,"Ġbeladen":5086,"Ġangefertigt":5087,"ĠChenut":5088,"klicht":5089,"schwemm":5090,"Totenpriester":5091,"ĠMonatsanfang":5092,"Ġoberen":5093,"Ġblind":5094,"ĠFesseln":5095,"mpfe":5096,"ĠScheune":5097,"ĠVorderste":5098,"ĠschlÃ¤gt":5099,"ĠÃ¶ffnete":5100,"Sucherin":5101,"ĠGerichts":5102,"ĠWasserspende":5103,"ĠHemi":5104,"ĠErscheinungen":5105,"Ġexistiert":5106,"komple":5107,"ĠChristusdornfrucht":5108,"See":5109,"Umfange":5110,"Wird":5111,"ualitÃ¤t":5112,"wegs":5113,"zittert":5114,"Ġbleibt":5115,"Ġbekannt":5116,"Entfer":5117,"ĠHof":5118,"êľ£ms":5119,"dmandel":5120,"greifer":5121,"Ġbetrifft":5122,"ĠSchwarzer":5123,"Ġdauernd":5124,"ĠHinterteil":5125,"pislazu":5126,"Ġerteilt":5127,"ĠChepri":5128,"Beseitigen":5129,"Iyi":5130,"ĠSchenkeln":5131,"ĠSykomoren":5132,"Ġerwachen":5133,"Ġverwandelt":5134,"ĠStandar":5135,"herrn":5136,"Arm":5137,"ĠNeheb":5138,"ĠBehedeti":5139,"ĠzugehÃ¶rig":5140,"ĠgehÃ¶rst":5141,"ĠprÃ¼fe":5142,"Ġwachsen":5143,"Ġausstatten":5144,"ĠAnlegestelle":5145,"ĠSechemchet":5146,"sêľ£Å¡r":5147,"Ġbenommen":5148,"Ġantwortete":5149,"ĠFalke":5150,"ĠDÃ¶rfer":5151,"ĠSchlagverletzung":5152,"opolitan":5153,"krut":5154,"Ġehernen":5155,"ĠHÃ¤lfte":5156,"ĠWidersacher":5157,"ĠNekropolengrab":5158,"Lebensmittelmagazin":5159,"Ġsolcher":5160,"ĠSandale":5161,"ĠBaumeister":5162,"ĠTanzen":5163,"Ġverwirklicht":5164,"rÃ¼mmert":5165,"rÃ¤usschlange":5166,"gefÃ¤llig":5167,"ĠHautgewebe":5168,"ĠGemetzel":5169,"Vollkommen":5170,"Wahrlich":5171,"ĠverzÃ¶g":5172,"ĠAngriff":5173,"ĠCharakter":5174,"Versorg":5175,"ĠProduk":5176,"Pyramidenkomple":5177,"ĠFlachses":5178,"GÃ¤nse":5179,"KÃ¼hlmittel":5180,"Neuling":5181,"Pause":5182,"SchenkelstÃ¼ck":5183,"crem":5184,"zertrÃ¼mmert":5185,"ĠSonne":5186,"ĠSatii":5187,"ĠPhylen":5188,"schepsesu":5189,"Ġmittels":5190,"ĠVorsitzender":5191,"ĠschlÃ¤ft":5192,"ĠIzezi":5193,"ĠAnwesenheit":5194,"ĠErinnerung":5195,"ĠGottesbuches":5196,"Ġdurchbohrt":5197,"Ġentwick":5198,"ĠHalskragens":5199,"pislazuli":5200,"Pyramidenkomplex":5201,")/":5202,")?":5203,".).":5204,"/(":5205,"/-":5206,"Apis":5207,"Ba":5208,"Beh":5209,"Bek":5210,"Dewen":5211,"Empf":5212,"FrÃ¼chte":5213,"Gehen":5214,"Hand":5215,"Henu":5216,"Iuef":5217,"Jahres":5218,"Kl":5219,"Kommen":5220,"Kraft":5221,"Kasten":5222,"Lager":5223,"Landes":5224,"Memphis":5225,"Nep":5226,"Palast":5227,"Peri":5228,"QualitÃ¤t":5229,"Ra":5230,"Rind":5231,"Redj":5232,"Ster":5233,"Stern":5234,"Tu":5235,"Wund":5236,"Za":5237,"Zerr":5238,"Zirk":5239,"ahe":5240,"app":5241,"bl":5242,"bn":5243,"best":5244,"bestes":5245,"bord":5246,"bald":5247,"dit":5248,"dlich":5249,"dige":5250,"dliche":5251,"digung":5252,"dienen":5253,"eteti":5254,"folg":5255,"fall":5256,"form":5257,"fret":5258,"gigen":5259,"glan":5260,"grÃ¼ne":5261,"hest":5262,"hlich":5263,"hier":5264,"himmel":5265,"hesi":5266,"hÃ¤ngt":5267,"id":5268,"ias":5269,"kan":5270,"kis":5271,"kÃ¶n":5272,"krone":5273,"lchen":5274,"lungs":5275,"letzt":5276,"lasen":5277,"mu":5278,"mein":5279,"maÃŁ":5280,"mack":5281,"nêľ£":5282,"nrw":5283,"ode":5284,"oÃŁen":5285,"pe":5286,"put":5287,"qer":5288,"rehen":5289,"sem":5290,"sut":5291,"samen":5292,"sá¸¥":5293,"svorsteher":5294,"sehrt":5295,"sedjer":5296,"sohle":5297,"ty":5298,"tes":5299,"theit":5300,"tpêľ£":5301,"wa":5302,"wat":5303,"worte":5304,"zet":5305,"zur":5306,"ÃĦ":5307,"Ì¯":5308,"Ġ3":5309,"Ġel":5310,"Ġach":5311,"Ġetwa":5312,"Ġopfern":5313,"erb":5314,"erer":5315,"erne":5316,"Ġdi":5317,"Ġdehnen":5318,"engt":5319,"eshalb":5320,"strei":5321,"stauchung":5322,"Ġse":5323,"Ġseit":5324,"Ġsah":5325,"Ġsitze":5326,"Ġsetzt":5327,"Ġsech":5328,"Ġsetze":5329,"Ġsage":5330,"Ġderen":5331,"Ġderjen":5332,"iele":5333,"ielt":5334,"orb":5335,"ortet":5336,"gecrem":5337,"auen":5338,"aust":5339,"auert":5340,"audern":5341,"Ġweit":5342,"Ġwoh":5343,"Ġwende":5344,"Ġwack":5345,"Ġwendet":5346,"anze":5347,"anken":5348,"anwi":5349,"emann":5350,"ĠSes":5351,"ĠSan":5352,"ĠSep":5353,"ĠSed":5354,"ĠSadj":5355,"ĠSame":5356,"ĠHag":5357,"ĠHorn":5358,"ĠHak":5359,"ĠHesi":5360,"irr":5361,"Ã¤ft":5362,"Ã¤tern":5363,"ĠGep":5364,"ĠGegen":5365,"ĠGrafen":5366,"undet":5367,"igkeiten":5368,"ĠKÃ¤":5369,"ĠKat":5370,"ĠKel":5371,"ĠKol":5372,"ĠKlage":5373,"ĠKurs":5374,"ĠKnoten":5375,"ĠKopft":5376,"ĠKlaff":5377,"inse":5378,"inken":5379,"ĠAnedj":5380,"altet":5381,"ĠNeher":5382,"ĠNÃ¤h":5383,"ettet":5384,"Ġball":5385,"Ġbreiten":5386,"Ġbald":5387,"Ġbeherr":5388,"fertige":5389,"Ġholt":5390,"Ġhalte":5391,"ĠhÃ¤uf":5392,"itu":5393,"genden":5394,"unsch":5395,"ehne":5396,"ehler":5397,"Ġgetreten":5398,"Ġmor":5399,"Ġmache":5400,"ise":5401,"isk":5402,"atit":5403,"ĠgÃ¶t":5404,"ĠBand":5405,"ĠBeb":5406,"ĠBedÃ¼r":5407,"Ġzahl":5408,"Ġerwer":5409,"ĠMeh":5410,"ĠMeth":5411,"ĠMedj":5412,"ĠMÃ¤d":5413,"ĠMilde":5414,"ĠMauern":5415,"ĠMatten":5416,"ĠMeinung":5417,"ĠMaul":5418,"ĠMatit":5419,"reck":5420,"reche":5421,"Ġneben":5422,"ĠnÃ¤h":5423,"Ġnamens":5424,"Ġangesp":5425,"Ġangrei":5426,"ĠWah":5427,"ĠWeben":5428,"ĠWaffen":5429,"ĠWaage":5430,"ĠWorten":5431,"ĠWeintrauben":5432,"Ġzuzu":5433,"Ġzuweise":5434,"ĠTÃ¶r":5435,"leum":5436,"Ġfindet":5437,"Ġdenkt":5438,"amu":5439,"ĠPos":5440,"ĠPfl":5441,"ĠPehu":5442,"ĠPulver":5443,"achsen":5444,"arg":5445,"art":5446,"aris":5447,"arbe":5448,"arbeiten":5449,"old":5450,"olar":5451,"olgt":5452,"ĠFlÃ¼gel":5453,"ĠFeigen":5454,"ĠFarbe":5455,"schung":5456,"schlagen":5457,"schreiben":5458,"ĠRedj":5459,"ĠRÃ¤nder":5460,"ĠRaneb":5461,"ĠLicht":5462,"ĠLeopardenfell":5463,"ĠUnru":5464,"ĠUnwetter":5465,"ĠKÃ¶nigsschurz":5466,"chenti":5467,"chenkt":5468,"ĠScha":5469,"ĠSchle":5470,"ĠSchrei":5471,"ĠSchep":5472,"ĠSchriften":5473,"ĠNebi":5474,"ĠNedit":5475,"andere":5476,"ĠVerstand":5477,"ĠVerlu":5478,"ĠVerantw":5479,"ĠVergangen":5480,"Erde":5481,"Erdmandel":5482,"Ġkn":5483,"ĠDien":5484,"ĠDingen":5485,"ĠDedet":5486,"ĠDattel":5487,"nefret":5488,"endj":5489,"ĠtrÃ¤":5490,"Ġtagt":5491,"Ġtragen":5492,"Ġtaub":5493,"Ġtrage":5494,"reist":5495,"epes":5496,"epet":5497,"Ġvereinen":5498,"ĠOpfersp":5499,"agte":5500,"hnen":5501,"efa":5502,"Ġalias":5503,"ĠKadet":5504,"ĠKasten":5505,"Ġdavor":5506,"kaef":5507,"urf":5508,"urkunde":5509,"ennung":5510,"ĠausreiÃŁt":5511,"Ġschlagen":5512,"Ġschme":5513,"ĠIb":5514,"ĠIchet":5515,"ĠAnschul":5516,"Chep":5517,"ftungs":5518,"ĠlÃ¶":5519,"Ġlag":5520,"Ġlieb":5521,"edes":5522,"Ġvorsteht":5523,"rufen":5524,"Ġspreche":5525,"ĠZorn":5526,"ĠZerst":5527,"ĠCher":5528,"ĠChef":5529,"ĠChufu":5530,"ĠChemm":5531,"Ġjubel":5532,"gelt":5533,"gelÃ¶st":5534,"rÃ¼cken":5535,"mÃ¤ler":5536,"Ġihretwegen":5537,"Schurz":5538,"Schepseskaf":5539,"entflammt":5540,"entscheiden":5541,"Ġsteu":5542,"Ġsteckt":5543,"ernen":5544,"ĠÃ¼berall":5545,"ĠÃ¼bersetzt":5546,"ĠÃ¼berprÃ¼":5547,"setef":5548,"ĠErst":5549,"Ġhergebracht":5550,"eugen":5551,"ilden":5552,"leim":5553,"lÃ¤u":5554,"ĠUntersuchung":5555,"vorder":5556,"ĠArbeiter":5557,"tigt":5558,"tigen":5559,"ĠJat":5560,"ĠJemand":5561,"ĠStunden":5562,"ĠStolist":5563,"ĠStoff":5564,"ĠStÃ¼tze":5565,"gehalten":5566,"ĠGottesopfer":5567,"ĠGottesdiener":5568,"ĠGottesworte":5569,"Ġgebissen":5570,"Ġgebeugt":5571,"weib":5572,"ibi":5573,"ĠMery":5574,"êľ£á¸«":5575,"beim":5576,"ebenenet":5577,"lÃ¼gen":5578,"osp":5579,"rauer":5580,"Ġbeengt":5581,"Ġdurchqu":5582,"Ġumgeben":5583,"Ġumwendet":5584,"ĠHausurkunde":5585,"halte":5586,"dju":5587,"djet":5588,"spiel":5589,"ĠschÃ¶nem":5590,"Ġgesellen":5591,"Ġrichtet":5592,"lanzen":5593,"Ġentr":5594,"Ġentkam":5595,"ĠMundschenk":5596,"ĠGehirn":5597,"Ġgeschlafen":5598,"Ġgeschickt":5599,"ĠWassers":5600,"Verstauchung":5601,"gerÃ¤t":5602,"Seiten":5603,"Ġ-;":5604,"ronen":5605,"gefunden":5606,"anchu":5607,"Ã¤rbung":5608,"ungsmittel":5609,"herde":5610,"herrin":5611,"á¸¥kn":5612,"Ġhervorkommen":5613,"meri":5614,"merksam":5615,"ersten":5616,"ĠAchu":5617,"ĠInn":5618,"geboren":5619,"Ã¶ffnung":5620,"Ġbestimmt":5621,"lieÃŁen":5622,"liehen":5623,"Ġoffen":5624,"Ġverblei":5625,"edju":5626,"sondern":5627,"ĠDjadj":5628,"Stirn":5629,"ĠMensch":5630,"waren":5631,"ĠWeide":5632,"Antilope":5633,"Sondern":5634,"KÃ¶nigs":5635,"ĠAtem":5636,"ĠAusgesp":5637,"Ġeuer":5638,"Ġgerichtet":5639,"Ġgerettet":5640,"Spei":5641,"Sprich":5642,"eigenen":5643,"gewonnen":5644,"gewischt":5645,"ĠKindes":5646,"ĠKindchen":5647,"ĠDuau":5648,"Å¡n":5649,"ĠThoth":5650,"ĠzurÃ¼ckget":5651,"ĠzurÃ¼ckweisen":5652,"ankungen":5653,"Ġbefind":5654,"Ġbefinden":5655,"Ġbefindet":5656,"Ġbefiehlt":5657,"ĠWeri":5658,"Ġ(??":5659,"ĠvollstÃ¤ndig":5660,"ĠTjenenet":5661,"obra":5662,"ĠBez":5663,"geschoben":5664,"schafts":5665,"Ġwegnehmen":5666,"ĠHatnub":5667,"Ġanderer":5668,"ĠHeliopolitan":5669,"Ġwiedergut":5670,"lÃ¶cke":5671,"Ã¤mpfer":5672,"Ġhinterher":5673,"Meries":5674,"Ġempfange":5675,"Ã¼hre":5676,"ĠHenqu":5677,"Ġbereit":5678,"Herrscher":5679,"Ġverschw":5680,"Alle":5681,"ockert":5682,"Ġredet":5683,"ĠEhemann":5684,"Ã¼ndung":5685,"ĠKÃ¶nigssohnes":5686,"ĠwÃ¼nschen":5687,"ĠRÃ¼ckenwirbel":5688,"ĠÃľberschwemm":5689,"Ġvollkommenen":5690,"ĠTempelschreiber":5691,"Ġtritt":5692,"ĠZauberkraft":5693,"ĠWeihrauchs":5694,"Ġverhindert":5695,"stÃ¤ndigkeit":5696,"ĠsÃ¼ÃŁe":5697,"ĠWirkungs":5698,"ĠSchlÃ¤fe":5699,"ĠRuheb":5700,"ĠDienerin":5701,"Ġschwierig":5702,"ĠMeseni":5703,"Hauses":5704,"teilen":5705,"Ã¤cke":5706,"ĠKornmes":5707,"ĠzerstoÃŁen":5708,"Ġerkennen":5709,"Ġbewahrt":5710,"Christusdornfrucht":5711,"ordnet":5712,"Ġwahrlich":5713,"Ġwahrgenommen":5714,"ĠHeeres":5715,"Ġgeliebte":5716,"ĠVertreiben":5717,"ĠTait":5718,"ĠTawer":5719,"ĠNebu":5720,"ĠSiegelvorstehers":5721,"knosp":5722,"ĠFÃ¼rstenhaus":5723,"ĠRenseneb":5724,"ĠLebensunterhalt":5725,"Ġumfassen":5726,"ĠGehÃ¶rigen":5727,"ĠGehÃ¶riger":5728,"ĠMahlzeit":5729,"ĠSchwankungen":5730,"Ġschwarzen":5731,"Ġvorfinden":5732,"Ġeurer":5733,"zwungen":5734,"ĠFlammen":5735,"ĠVorderseite":5736,"ĠElend":5737,"ĠElkab":5738,"ĠmÃ¶chtest":5739,"ĠVollstÃ¤ndigkeit":5740,"fstaat":5741,"ĠwohlgefÃ¤llig":5742,"ĠGoldes":5743,"ĠLapislazuli":5744,"á¸¥nmm":5745,"Ġergreift":5746,"gekÃ¼hlt":5747,"ĠNahrungsmittel":5748,"Ġunversehrt":5749,"Sechem":5750,"Umkreis":5751,"ĠHirten":5752,"ĠNubien":5753,"Ġerhobenem":5754,"ĠVerbrecher":5755,"ĠVerbeugung":5756,"ĠweiÃŁem":5757,"ĠVertrauten":5758,"ĠVertrauens":5759,"Imi":5760,"Krugmagazin":5761,"mÃ¼ckt":5762,"ĠSabni":5763,"nêľ¥w":5764,"ĠHoden":5765,"ĠHofstaat":5766,"ĠGehender":5767,"ĠGetreide":5768,"ĠBescheiden":5769,"ĠBeschwerde":5770,"Ġwelches":5771,"ĠMalachit":5772,"ĠSchwarze":5773,"Ġschweigt":5774,"ĠAugenbrau":5775,"antwortet":5776,"ĠSternen":5777,"ĠKrokodils":5778,"ĠTraum":5779,"ĠWassergebietes":5780,"Ġverborgenen":5781,"swÅ¡":5782,"ĠSchenkel":5783,"ĠSchÃ¶nheit":5784,"ĠDurchbohrung":5785,"ĠHÃ¶hle":5786,"iemals":5787,"ĠgetÃ¶tet":5788,"Ġmachst":5789,"ĠBewohner":5790,"ĠzugehÃ¶rige":5791,"Ġfliegt":5792,"ĠGehilfen":5793,"ĠUserkaf":5794,"ĠoberÃ¤gyptischen":5795,"ĠoberÃ¤gyptische":5796,"meset":5797,"zêľ£b":5798,"ĠdÃ¼rfen":5799,"ĠdÃ¼rsten":5800,"Ã¤ume":5801,"ĠGeschmack":5802,"Ġversammelten":5803,"ĠAnlegepf":5804,"ĠGetreidesÃ¤cke":5805,"ĠEmpfangshalle":5806,"000":5807,"GewÃ¼rm":5808,"gedrÃ¼ckt":5809,"ĠZusammenbinden":5810,"ĠEsels":5811,"ĠLotosknosp":5812,"ĠSchlÃ¼sselbeine":5813,"ĠSchlÃ¼sselbeinen":5814,"GerÃ¤t":5815,"Kanal":5816,"NÃ¤here":5817,"ĠglÃ¤nzend":5818,"ĠBestattung":5819,"Ġzubereiten":5820,"ĠRitualisten":5821,"ĠkÃ¼ssen":5822,"umpolar":5823,"Ġschlecht":5824,"Ġleuchten":5825,"ĠExper":5826,"ĠGelobter":5827,"Hapi":5828,"Itju":5829,"scil":5830,"Ġreichlich":5831,"ĠSehenden":5832,"ĠHÃ¶rner":5833,"ĠBÃ¼ro":5834,"ĠzÃ¤hle":5835,"ĠFreunde":5836,"ĠFlÃ¶ten":5837,"ĠUnwissenden":5838,"ĠVerwaltungen":5839,"Ġschnell":5840,"ĠStatue":5841,"ĠÃ¤chze":5842,"Himmels":5843,"hÃ¤lften":5844,"heiligtums":5845,"zehet":5846,"ĠbreitgedrÃ¼ckt":5847,"ĠMonth":5848,"Ġniemand":5849,"ĠWorflerin":5850,"ĠReichtum":5851,"Ġversorgt":5852,"ĠImeny":5853,"Ġumrundet":5854,"ĠÃĦgypten":5855,"ĠHauptname":5856,"Medjed":5857,"Warum":5858,"behalten":5859,"sá¸«m":5860,"ĸstlicher":5861,"Ġwohnt":5862,"ĠHyÃ¤":5863,"ĠGekrÃ¶":5864,"ĠKyn":5865,"Ġhorischen":5866,"ĠMelken":5867,"ĠFÃ¤hrmann":5868,"ĠSchilfbÃ¼ndel":5869,"ĠAnhÃ¤nger":5870,"ĠSpieÃŁente":5871,"ĠGesundheit":5872,"ĠzurÃ¼ckgewichen":5873,"Allerbestes":5874,"ĠZauberkrÃ¤ften":5875,"ĠWÃ¼stenre":5876,"ĠHeqa":5877,"ĠPyramidenstadt":5878,"ĠHofdame":5879,"ĠverzÃ¶gern":5880,"Empfange":5881,"Nephthys":5882,"Zerrung":5883,"Zirkumpolar":5884,"hestif":5885,"Ġsechs":5886,"gecremt":5887,"ĠSepa":5888,"ĠHagi":5889,"ĠHaker":5890,"ĠKellers":5891,"ĠKopftuch":5892,"ĠAnedjti":5893,"ĠNÃ¤hen":5894,"Ġballartig":5895,"Ġerwerben":5896,"ĠMethode":5897,"ĠMÃ¤dchen":5898,"ĠUnruhestif":5899,"ĠVerantwort":5900,"ĠtagtÃ¤glich":5901,"ĠKadett":5902,"Ġliebgewonnen":5903,"ĠChemmis":5904,"Ġjubelnd":5905,"entscheidende":5906,"Ġsteuern":5907,"ĠzurÃ¼ckgetrieben":5908,"ĠHeliopolitaner":5909,"Ġwiedergutmachen":5910,"ĠRuhebett":5911,"ĠKornmesser":5912,"ĠAnlegepflÃ¶cke":5913,"!,":5914,"'!":5915,"'.\"":5916,".),":5917,"16":5918,"17":5919,"Aust":5920,"BÃ¼":5921,"Bel":5922,"Damit":5923,"Durch":5924,"Doppel":5925,"Danach":5926,"Dienst":5927,"Fel":5928,"FuÃŁ":5929,"Gem":5930,"Gesch":5931,"Hin":5932,"Hut":5933,"Ibi":5934,"Jen":5935,"Kont":5936,"Kommt":5937,"Kreu":5938,"Licht":5939,"Lang":5940,"LÃ¶w":5941,"Mal":5942,"Mat":5943,"Niemals":5944,"Peli":5945,"Reg":5946,"RÃ¶l":5947,"Richter":5948,"Sa":5949,"Sti":5950,"Seni":5951,"Stier":5952,"Seht":5953,"Seschat":5954,"Sefetj":5955,"Sym":5956,"Sollte":5957,"Teil":5958,"Tempel":5959,"Thinit":5960,"Tenne":5961,"Tue":5962,"Upuaut":5963,"Wen":5964,"Wende":5965,"Zur":5966,"Zusammen":5967,"Zufrieden":5968,"aem":5969,"aken":5970,"aper":5971,"baum":5972,"bá¸ıêľ£":5973,"binde":5974,"bols":5975,"dein":5976,"doch":5977,"dien":5978,"deti":5979,"dungen":5980,"dlicher":5981,"drÃ¤n":5982,"efer":5983,"egt":5984,"fr":5985,"fes":5986,"fem":5987,"fnis":5988,"finden":5989,"flÃ¼ss":5990,"ftige":5991,"gnis":5992,"gÃ¤r":5993,"ggr":5994,"hj":5995,"hir":5996,"hol":5997,"hut":5998,"hand":5999,"hati":6000,"harz":6001,"ii":6002,"ibt":6003,"iðĵįº":6004,"je":6005,"jk":6006,"jub":6007,"jeder":6008,"klich":6009,"kÃ¶r":6010,"komm":6011,"kopf":6012,"klage":6013,"kuh":6014,"lau":6015,"lus":6016,"licht":6017,"mêľ£":6018,"na":6019,"nu":6020,"neith":6021,"oÃŁ":6022,"ostr":6023,"pl":6024,"pro":6025,"pil":6026,"palast":6027,"qsn":6028,"rte":6029,"reh":6030,"rimm":6031,"rá¸«":6032,"sd":6033,"sei":6034,"seb":6035,"satz":6036,"snw":6037,"tut":6038,"tausend":6039,"têľ£":6040,"uchen":6041,"ucken":6042,"upil":6043,"vat":6044,"viel":6045,"was":6046,"wÃ¼":6047,"wel":6048,"yut":6049,"zm":6050,"zlich":6051,"zien":6052,"zusammen":6053,"zverband":6054,"Ê¾":6055,"âĿ":6056,"Ġus":6057,"Ġeh":6058,"Ġrie":6059,"Ġrau":6060,"ĠâĢ":6061,"Ġak":6062,"Ġ?),":6063,"ĠâĿ":6064,"erig":6065,"erles":6066,"Ġdank":6067,"ente":6068,"chu":6069,"chst":6070,"einf":6071,"stbar":6072,"steigst":6073,"Ġisst":6074,"Ġseth":6075,"Ġsatt":6076,"Ġsuchen":6077,"ndr":6078,"orru":6079,"gemÃ¤":6080,"aue":6081,"aug":6082,"aumen":6083,"asche":6084,"Ġwus":6085,"Ġwoll":6086,"ĠwÃ¼rde":6087,"Ġweshalb":6088,"ichel":6089,"Ã¼m":6090,"Ã¼re":6091,"Ã¼he":6092,"emsa":6093,"ĠSein":6094,"ĠSin":6095,"ĠSend":6096,"ĠSamen":6097,"ĠSetj":6098,"ĠSeile":6099,"ĠSia":6100,"ĠHoch":6101,"ĠHauch":6102,"ĠHÃ¶ren":6103,"ĠHolz":6104,"irm":6105,"Ã¤ch":6106,"Ã¤le":6107,"tek":6108,"ĠGere":6109,"ĠGlei":6110,"ĠGeschw":6111,"ĠGuten":6112,"under":6113,"ĠKommen":6114,"ĠKusch":6115,"ĠKessel":6116,"ĠKÃ¼nst":6117,"ĠKeule":6118,"ĠKobra":6119,"inen":6120,"insel":6121,"instern":6122,"ĠAck":6123,"ĠAsi":6124,"ĠAnden":6125,"ĠAggr":6126,"alken":6127,"usk":6128,"ussion":6129,"ĠNes":6130,"ĠNot":6131,"ĠNorden":6132,"ĠNetz":6133,"etui":6134,"ÃŁung":6135,"ÃŁler":6136,"Ġblick":6137,"Ġhohe":6138,"tend":6139,"ehsen":6140,"ehlt":6141,"ehnt":6142,"Ġdiejenigen":6143,"Ġgefl":6144,"Ġgetr":6145,"ĠgeknÃ¼pft":6146,"Ġguter":6147,"Ġgrimm":6148,"ĠBat":6149,"ĠBehandlung":6150,"ĠBÃ¤ck":6151,"Ġzie":6152,"Ġzeu":6153,"Ġeinf":6154,"Ġeingesch":6155,"Ġeinmal":6156,"Ġeingerichtet":6157,"Ġeingesunken":6158,"Ġeintreten":6159,"mmern":6160,"Ġerho":6161,"Ġerwir":6162,"Ġerhalten":6163,"ĠVier":6164,"ĠVieh":6165,"ĠVolk":6166,"ĠVÃ¤ter":6167,"ĠVÃ¤tern":6168,"elung":6169,"ausch":6170,"ausstattung":6171,"ĠMar":6172,"ĠMÃ¼t":6173,"ĠMetall":6174,"Ġnie":6175,"Ġnacht":6176,"Ġnahe":6177,"Ġant":6178,"Ġangerichtet":6179,"ĠWep":6180,"ĠWissen":6181,"ĠWenen":6182,"ĠWohlergehen":6183,"ĠWid":6184,"ĠWunsch":6185,"Ġzuerst":6186,"Ġzulassen":6187,"ĠzuhÃ¶rt":6188,"ĠTr":6189,"ĠTet":6190,"ĠTyp":6191,"ĠTepi":6192,"ĠTÃ¤n":6193,"ĠTran":6194,"ĠTenne":6195,"ĠTrag":6196,"ĠTeiche":6197,"ĠTriumph":6198,"leb":6199,"lebt":6200,"leopolis":6201,"leuten":6202,"ĠfrÃ¶":6203,"Ġfalle":6204,"Ġfiel":6205,"Ġfreut":6206,"ĠfÃ¤ngt":6207,"ĠfÃ¼hre":6208,"Ġfehlt":6209,"ament":6210,"amulett":6211,"Ã¼rt":6212,"ĠPlÃ¼":6213,"ĠPrin":6214,"ĠPhal":6215,"ĠPenu":6216,"ĠPupil":6217,"estigt":6218,"aufwÃ¤rts":6219,"artei":6220,"olde":6221,"ĠFort":6222,"ĠFisch":6223,"ĠFÃ¼hr":6224,"ĠFrucht":6225,"ĠFÃ¤nger":6226,"ĠFaden":6227,"ĠForm":6228,"ĠFrÃ¼chte":6229,"ĠFehler":6230,"ĠFinstern":6231,"?);":6232,"schn":6233,"Einheiten":6234,"indern":6235,"ĠHerwer":6236,"ĠHerak":6237,"ĠRei":6238,"ĠRie":6239,"ĠRand":6240,"Ġaufs":6241,"Ġaufger":6242,"Ġaufzu":6243,"Ġaufgew":6244,"Ġaufgerichtet":6245,"ĠLiby":6246,"ĠKÃ¶nigshaus":6247,"ĠKÃ¶nigshauses":6248,"chenem":6249,"ĠSchla":6250,"ĠSchatten":6251,"ĠSchetui":6252,"ĠNech":6253,"ĠVerwaltung":6254,"ĠVerletzung":6255,"ĠVernei":6256,"Erf":6257,"Ergrei":6258,"Erweichen":6259,"Ġkru":6260,"Ġkehren":6261,"Ġkrit":6262,"Ġkorru":6263,"ĠDem":6264,"ĠDorn":6265,"ĠDisk":6266,"neu":6267,"Ġdement":6268,"Ã¶rung":6269,"abgabe":6270,"Ġtrau":6271,"Ġtrefflich":6272,"Ġtraf":6273,"Ġthinitischen":6274,"Ġtue":6275,"Ġtriumph":6276,"Ġtaten":6277,"Ġtanze":6278,"reiÃŁung":6279,"riesenen":6280,"ĠbeiÃŁen":6281,"Ġverf":6282,"Ġverm":6283,"Ġverber":6284,"Ġvergehen":6285,"Ġversieh":6286,"Ġverliehen":6287,"ĠOpfertisch":6288,"ĠOpferausstattung":6289,"chtung":6290,"efi":6291,"efai":6292,"immern":6293,"ĠHorusgel":6294,"ĠausfÃ¼hren":6295,"ierers":6296,"Ġschickt":6297,"Ġschmerz":6298,"ĠIti":6299,"ĠIses":6300,"ĠIdi":6301,"ĠAnu":6302,"ĠAnwei":6303,"ĠAntwort":6304,"ĠAnklage":6305,"Chekenu":6306,"Ġlang":6307,"Ġlange":6308,"Ġlasse":6309,"Ġloben":6310,"Ġlaufen":6311,"Ġlinken":6312,"edrÃ¼ckt":6313,"Ġvorher":6314,"(?)-":6315,"versor":6316,"verlÃ¤ss":6317,").\"":6318,"Ġspr":6319,"Ġspendet":6320,"ĠZelt":6321,"ĠZepter":6322,"ĠZÃ¶ger":6323,"ĠZimmern":6324,"ĠTotenreich":6325,"ĠChu":6326,"ĠChon":6327,"ĠChasti":6328,"Ġjemand":6329,"ĠjÅ¡d":6330,"rÃ¼ch":6331,"Ã¼bergehen":6332,"ebehsen":6333,"mÃ¤chtigkeit":6334,"Ġlege":6335,"ffiz":6336,"Ġihres":6337,"ĠEn":6338,"ĠEil":6339,"ĠEiter":6340,"Ġ(?);":6341,"Ġgehe":6342,"Ġgehorcht":6343,"SchÃ¶n":6344,"SchÃ¼t":6345,"Schutz":6346,"Ġstell":6347,"ĠSpeich":6348,"ĠSpielen":6349,"Ġunten":6350,"Ġwaschen":6351,"ĠÃ¼berlassen":6352,"ĠÃ¼bersetzen":6353,"ĠÃ¼bersetze":6354,"ĠErz":6355,"ĠErzes":6356,"Ġheran":6357,"euten":6358,"eutel":6359,"zende":6360,"ilfe":6361,"leicht":6362,"ahm":6363,"aher":6364,"ahin":6365,"ĠArbeiten":6366,"ĠJahre":6367,"ĠStÃ¤d":6368,"ĠStaken":6369,"gehst":6370,"Ġunterrichtet":6371,"iene":6372,"Ġgebiet":6373,"ĠAufstellen":6374,"riegel":6375,"riebes":6376,"bede":6377,"fertigen":6378,"ĠmÃ¶get":6379,"riÃŁt":6380,"rivat":6381,"lÃ¼pfen":6382,"neni":6383,"rauÃŁen":6384,"ammelt":6385,"Ġdurchsch":6386,"igem":6387,"ĠHaushalt":6388,"rÃ¤ÃŁ":6389,"rÃ¤nder":6390,"Ġnimmst":6391,"ĠHorusauges":6392,"Ġsondern":6393,"Ġsobald":6394,"Ġsoviel":6395,"sport":6396,"ĠGefÃ¤hr":6397,"ĠGefÃ¤ÃŁe":6398,"Ġgestern":6399,"Ġgesamten":6400,"Ġlebendig":6401,"erteil":6402,"ĠÃľbel":6403,"ĠGesetz":6404,"ĠGesiegel":6405,"hinter":6406,"ĠLandleuten":6407,"ĠMai":6408,"ĠTotenopfers":6409,"Priesters":6410,"Ġgeschaut":6411,"Ġgeschrieben":6412,"ĠgeschmÃ¼ckt":6413,"ĠWasserfÃ¼lle":6414,"gerÃ¼":6415,"gerade":6416,"Ġabzu":6417,"Ġabgetrennt":6418,"ĠabgekÃ¼hlt":6419,"ĠGeliebten":6420,"gefÃ¼hrt":6421,"gefilden":6422,"Ã¤rg":6423,"ĠzusammenfÃ¼gen":6424,"Ġzusammenfassen":6425,"flock":6426,"fliegen":6427,"fluss":6428,"Ġleicht":6429,"ĠQebehsen":6430,"ungsstÃ¤tte":6431,"herz":6432,"Ã¤nfte":6433,"Ġliegen":6434,"êľ¥b":6435,"êľ¥nêľ¥":6436,"á¸¥êľ£":6437,"Ġhervorgegangen":6438,"ĠprÃ¤":6439,"Ġpacken":6440,"ĠpaÃŁt":6441,"ĠGrunde":6442,"ĠAchsel":6443,"ĠInti":6444,"ĠIntef":6445,"gebung":6446,"ĠSeschemu":6447,"liebe":6448,"Ġgeworfen":6449,"Ġgewichen":6450,"mannschaft":6451,"Ġob":6452,"ĠEingang":6453,"Ã¤ndig":6454,"Ġherauskommen":6455,"ĠGebÃ¤ck":6456,"ĠGebÃ¤ren":6457,"á¸«n":6458,"á¸«nt":6459,"Statte":6460,"Stoff":6461,"Steig":6462,"grÃ¶":6463,"âĢĺ":6464,"ĠMenge":6465,"ĠAktion":6466,"Nechenem":6467,"ĠBack":6468,"ĠWeiser":6469,"Anlage":6470,"ĠKopfes":6471,"ĠSenu":6472,"ĠSenut":6473,"Ġjedermann":6474,"á¸ındr":6475,"stellst":6476,"ĠKleider":6477,"ĠÃ¤lter":6478,"Ġgering":6479,"Spruch":6480,"Ġzufriedengestellt":6481,"wiegen":6482,"Wasche":6483,"Weret":6484,"ĠDuat":6485,"Ġgefangen":6486,"Ġgefeiert":6487,"Ġsterbe":6488,"Å¡nêľ¥":6489,"Å¡ty":6490,"Å¡jk":6491,"ĠSeanch":6492,"ĠSieben":6493,"ebek":6494,"Ġreinige":6495,"Ġreinigt":6496,"ĠzurÃ¼ckgewiesen":6497,"Ġbefestigt":6498,"ĠBoot":6499,"utef":6500,"Ġ(?,":6501,"Ġvollendet":6502,"ĠveranlaÃŁte":6503,"ĠAtums":6504,"rÃ¶mt":6505,"Vorlesepriester":6506,"erren":6507,"ĠSema":6508,"ĠÃĦuÃŁ":6509,"lÃ¶sen":6510,"ĠVerklÃ¤rtheit":6511,"Ġerschaudern":6512,"ĠRawo":6513,"ĠLeibes":6514,"Meri":6515,"ĠZustÃ¤ndigen":6516,"ildtÃ¤tig":6517,"ucke":6518,"wirklich":6519,"Ã¼hlen":6520,"ĠHeneni":6521,"ĠberÃ¼hrt":6522,"Ġbesp":6523,"Ġzerklein":6524,"Ġrechte":6525,"Ġrezit":6526,"ĠText":6527,"Ġemporsteigt":6528,"Ġemporgestiegen":6529,"Ã¼ndet":6530,"Ġwirkliche":6531,"ĠFeuerst":6532,"bia":6533,"ĠNachlÃ¤ss":6534,"ĠArbeits":6535,"Ġgutem":6536,"Ġvertreibt":6537,"ĠLandmannes":6538,"Insel":6539,"Ġtrennen":6540,"Ġruder":6541,"Ġrufen":6542,"Ġganze":6543,"Bruchs":6544,"Weicht":6545,"etju":6546,"ĠRudj":6547,"ippe":6548,"ehls":6549,"ĠMesechen":6550,"ĠMÃ¤chtiger":6551,"ĠMÃ¤chtige":6552,"Ġkeiner":6553,"teilt":6554,"ĠzerstÃ¶ren":6555,"Ġzerstampf":6556,"Ġerkennt":6557,"ĠMorgenhauses":6558,"ĠMorgenbarke":6559,"ĠProzession":6560,"sechemu":6561,"Ġbewegt":6562,"Achti":6563,"affenheit":6564,"wrm":6565,"Ġðĵį¹S":6566,"ordnung":6567,"ĠHeqet":6568,"ĠGliedern":6569,"ĠStieres":6570,"Ġbelebt":6571,"Ġhochheben":6572,"ĠTaten":6573,"ĠChenemti":6574,"ĠSpeisenbedarf":6575,"Meretneith":6576,"ĠgrÃ¼n":6577,"Ġallein":6578,"Ġumfangen":6579,"Ġumfange":6580,"Ġumfasst":6581,"ĠWÃ¼rdezeichen":6582,"Pfropfen":6583,"schmied":6584,"ĠkÃ¶nnten":6585,"Ġstehlen":6586,"Ġblieb":6587,"ĠFeste":6588,"ĠÃ¼bel":6589,"Ã¤uber":6590,"Ã¤ude":6591,"Ã¤ufen":6592,"ĠFuÃŁes":6593,"ĠAuftrag":6594,"ĠPflanzen":6595,"ĠStirnband":6596,"Ġwohlbehalten":6597,"ĠTausendfÃ¼":6598,"ĠLaken":6599,"Ġvorbeigeht":6600,"ĠJÃ¼ngling":6601,"á¸¥nj":6602,"nachgeben":6603,"Ġebenfalls":6604,"ittend":6605,"ĠfrÃ¼h":6606,"ĠHausvorstehers":6607,"ĠAngelegenheiten":6608,"ĠUmgebung":6609,"ĠWesirs":6610,"Wirst":6611,"hmá¹¯":6612,"Ġbleib":6613,"Ġgepriesen":6614,"schlag":6615,"ĠVerborgen":6616,"Ġabwehrt":6617,"KÃ¶rper":6618,"gÃ¶ttlichen":6619,"mÃ¼den":6620,"ĠSehnet":6621,"ĠbeschÃ¤ft":6622,"unktion":6623,"ĠGrÃ¶ÃŁte":6624,"ĠTjetut":6625,"Ġfortdauert":6626,"ĠScheunenschreiber":6627,"sá¸ıá¸¥":6628,"ĠKostbar":6629,"Ġerblickt":6630,"ĠFluss":6631,"ĠSchweiÃŁ":6632,"Ġschaute":6633,"Ġschauder":6634,"Ġvortrefflicher":6635,"Ġirgendeinem":6636,"Heiligtums":6637,"Menschen":6638,"gleich":6639,"reitsÃ¼":6640,"zÃ¼ndung":6641,"ĠHÃ¤nden":6642,"ĠKleinen":6643,"ĠKanals":6644,"Ġfolgt":6645,"Ġschweigen":6646,"Ġherbeigebracht":6647,"ĠHinterb":6648,"WeingÃ¤r":6649,"ĠAsyut":6650,"ĠWahrlich":6651,"ĠSchlÃ¼sselbein":6652,"andtschaft":6653,"Ġlibysches":6654,"ĠChephren":6655,"ĠBrandopfer":6656,"Ġweiteres":6657,"ĠAmun":6658,"ĠAmset":6659,"ĠerwÃ¤hn":6660,"ĠWenemi":6661,"ĠWeneschet":6662,"Ġklar":6663,"Ġjubeln":6664,"ĠEntschei":6665,"ĠUnterkieferast":6666,"ĠStandwaage":6667,"Ġabgewendet":6668,"Ġabgewehrt":6669,"Baumgarten":6670,"Ibhati":6671,"digungen":6672,"ĠGrÃ¼n":6673,"ĠRÃ¼ckgr":6674,"ĠkÃ¼hlem":6675,"ĠprÃ¼fen":6676,"Semer":6677,"zÃ¤hlt":6678,"Åłtp":6679,"erwecken":6680,"Ġwachsam":6681,"Ġhabt":6682,"ĠMeeres":6683,"rolle":6684,"rollen":6685,"Ġfahrt":6686,"Ġversammelt":6687,"weiterhin":6688,"ĠGrÃ¶ÃŁten":6689,"ĠGetreidesp":6690,"ĠAbendbrot":6691,"Heilkunde":6692,"ZerreiÃŁung":6693,"dieses":6694,"ĠHabgierigen":6695,"rocknungs":6696,"ĠDÃ¶rfern":6697,"ĠDauernden":6698,"hafter":6699,"á¸ınj":6700,"Ġbesteht":6701,"ĠsÃ¼ÃŁes":6702,"ĠZimmermanns":6703,"opolites":6704,"NÃ¤harbeit":6705,"iadem":6706,"ĠbÃ¶se":6707,"Ġernannt":6708,"ĠernÃ¤hren":6709,"Ġerstatten":6710,"Ġzubereitet":6711,"Ġfeinst":6712,"Ġleuchtet":6713,"ĠUrkunde":6714,"schenkel":6715,"ĠFeuerbeckens":6716,"Tierschwanz":6717,"Ġhungern":6718,"ĠMonum":6719,"ĠMeiÃŁel":6720,"ĠMeiÃŁeln":6721,"rodukt":6722,"ĠVerstÃ¼mm":6723,"Ġausspeit":6724,"ĠDenkmÃ¤ler":6725,"ĠBekannte":6726,"Grab":6727,"GedÃ¤rm":6728,"Herzen":6729,"fÃ¼hrer":6730,"sÅ¡m":6731,"wêľ£s":6732,"ĠSeienden":6733,"ĠGewalt":6734,"ĠAkazien":6735,"ĠNaht":6736,"ĠNiederlegen":6737,"ĠgrÃ¼ndlich":6738,"ĠWawat":6739,"ĠTausender":6740,"ĠRichtige":6741,"ĠDunklen":6742,"ĠvorÃ¼bergeht":6743,"gelÃ¶sten":6744,"mÃ¤nnchen":6745,"ĠArchivs":6746,"ĠAufhÃ¤ufen":6747,"ĠentschlÃ¼pfen":6748,"Ġbekleidet":6749,"ĠBildhauer":6750,"ĠStellvertreters":6751,"ĠGrÃ¤bern":6752,"ĠDoppelfederkrone":6753,"ĠVorgesetzten":6754,"GÃ¶ttin":6755,"baef":6756,"bêľ¥êľ¥":6757,"Ġwestliche":6758,"ĠSelkis":6759,"ĠNordwind":6760,"ĠBotschaften":6761,"ĠVÃ¶gel":6762,"ĠMittel":6763,"ĠPhase":6764,"ĠPlÃ¤ne":6765,"ĠLibation":6766,"ĠVerwandtschaft":6767,"Ġausgezeich":6768,"Chaj":6769,"Ġjegliche":6770,"ĠEdlen":6771,"euchtet":6772,"Ġdurchwandern":6773,"ĠLandepflock":6774,"ĠTjazet":6775,"ĠBesitztÃ¼mer":6776,"Ġzerhackt":6777,"Ġverschlingt":6778,"ĠÃľberschuÃŁ":6779,"Totenpriesterin":6780,"ĠGerichtsho":6781,"Entferne":6782,"Versorgter":6783,"Ġentwickelt":6784,"Lagerplatz":6785,"Landestelle":6786,"Tupfer":6787,"glanz":6788,"kÃ¶nnen":6789,"nêľ£w":6790,"Ġdient":6791,"streifen":6792,"Ġsechem":6793,"Ġderjenige":6794,"Ġwackeln":6795,"ĠNeheri":6796,"Ġmorgigen":6797,"ĠBedÃ¼rfnis":6798,"ĠMedjedu":6799,"ĠWahka":6800,"ĠWebens":6801,"ĠPosition":6802,"ĠSchepsi":6803,"ĠVerlust":6804,"ĠVergangenheit":6805,"Ġknir":6806,"ĠtrÃ¤nt":6807,"ĠOpferspeisen":6808,"Ġschmecken":6809,"ĠAnschuldigungen":6810,"ĠCherti":6811,"ĠÃ¼berprÃ¼fe":6812,"ĠArbeitermannschaft":6813,"Ġdurchquert":6814,"Ġentrissen":6815,"ĠInnere":6816,"ĠDjadjaem":6817,"ĠFlammeninsel":6818,"ĠLotosknospen":6819,"ĠExperten":6820,"ĠHyÃ¤ne":6821,"ĠGekrÃ¶se":6822,"Austrocknungs":6823,"BÃ¼schel":6824,"Doppelverband":6825,"GemÃ¤ÃŁ":6826,"Jener":6827,"Kreuzverband":6828,"LÃ¶we":6829,"Pelikan":6830,"Regionen":6831,"RÃ¶llchen":6832,"Symbols":6833,"Thinitischer":6834,"Zufriedener":6835,"jubeln":6836,"ostris":6837,"Ġusw":6838,"Ġehe":6839,"ĠâĢļ":6840,"ĠâĿ¡":6841,"Ġsethischen":6842,"ĠSendschreiben":6843,"ĠAndenken":6844,"ĠAggres":6845,"Ġblickten":6846,"ĠBÃ¤cker":6847,"Ġzeugte":6848,"Ġerhob":6849,"Ġerwirbst":6850,"ĠVolkes":6851,"ĠWidder":6852,"ĠTÃ¤nzer":6853,"ĠfrÃ¶hlich":6854,"ĠPlÃ¼nder":6855,"ĠPhallus":6856,"ĠPupille":6857,"arteiisch":6858,"ĠFischamulett":6859,"ĠFinsternis":6860,"ĠHerakleopolis":6861,"ĠVerneigung":6862,"Ġkritische":6863,"Ġkorrupt":6864,"ĠDiskussion":6865,"Ġdementsprechend":6866,"Ġtraurig":6867,"Ġtriumphiert":6868,"ĠHorusgeleit":6869,"ĠIsesi":6870,"Ġlangsam":6871,"Ġlangem":6872,"ĠEilb":6873,"ĠSpeichel":6874,"Ġgebietest":6875,"rivatgemÃ¤":6876,"ĠGesiegelten":6877,"ĠQebehsenuef":6878,"êľ¥nêľ¥r":6879,"ĠRawoser":6880,"Ġzerkleinert":6881,"ĠMesechenet":6882,"ĠTausendfÃ¼ÃŁler":6883,"ĠbeschÃ¤ftigt":6884,"ĠKostbarkeiten":6885,"WeingÃ¤rten":6886,"ĠVerstÃ¼mmelung":6887,"ĠDjadjaemanch":6888,"Austrocknungsmittel":6889,"\"!":6890,"'-":6891,"(/":6892,")'.":6893,".âĢľ":6894,"14":6895,"?\",":6896,"Au":6897,"Asch":6898,"Adj":6899,"AuÃŁ":6900,"Ass":6901,"Aper":6902,"Amme":6903,"Bet":6904,"Beg":6905,"Behand":6906,"Blasen":6907,"Binse":6908,"Dort":6909,"Euer":6910,"Enten":6911,"Eichel":6912,"Feu":6913,"Finger":6914,"Falls":6915,"Fres":6916,"Grei":6917,"Getrei":6918,"Gibt":6919,"Hu":6920,"Hen":6921,"Hals":6922,"Hunger":6923,"Iut":6924,"Ihm":6925,"Indern":6926,"Irit":6927,"Iwa":6928,"Jahr":6929,"Jubel":6930,"Jrw":6931,"KrÃ¤":6932,"Kehle":6933,"Lei":6934,"Lib":6935,"Leopardenfell":6936,"Lippe":6937,"Mon":6938,"Mut":6939,"Mutter":6940,"Noch":6941,"Nedj":6942,"Name":6943,"Nedjet":6944,"Ob":6945,"Ost":6946,"Osten":6947,"Pu":6948,"Per":6949,"Pro":6950,"PaÃŁ":6951,"Qu":6952,"Res":6953,"Sor":6954,"Seh":6955,"Sach":6956,"Sab":6957,"Sohn":6958,"Sah":6959,"Sachen":6960,"Sumpf":6961,"Sage":6962,"Tjen":6963,"Tewaut":6964,"UrÃ¤usschlange":6965,"Vern":6966,"West":6967,"Wnw":6968,"Wander":6969,"WÃ¼rde":6970,"Zum":6971,"Zerst":6972,"Zittern":6973,"abt":6974,"agel":6975,"afft":6976,"bj":6977,"ble":6978,"bett":6979,"bricht":6980,"bitt":6981,"blick":6982,"breite":6983,"ce":6984,"damm":6985,"ding":6986,"diert":6987,"dauer":6988,"drÃ¼ckt":6989,"drÃ¼cken":6990,"eeren":6991,"ecke":6992,"fein":6993,"fig":6994,"fol":6995,"fÃ¶r":6996,"frei":6997,"fegen":6998,"fdet":6999,"folglich":7000,"fleisch":7001,"faden":7002,"gl":7003,"gaus":7004,"glÃ¼":7005,"guss":7006,"hi":7007,"hang":7008,"hêľ£":7009,"hÃ¤n":7010,"hitzen":7011,"hstÃ¼ck":7012,"heiÃŁ":7013,"ian":7014,"ick":7015,"icken":7016,"iqer":7017,"jn":7018,"jes":7019,"jêľ£":7020,"jdm":7021,"jedes":7022,"ku":7023,"ker":7024,"kem":7025,"kun":7026,"kÃ¶nig":7027,"kru":7028,"knochen":7029,"kranich":7030,"korb":7031,"kÃ¼he":7032,"leinen":7033,"langen":7034,"lÃ¤gt":7035,"ldig":7036,"lachtet":7037,"ma":7038,"mter":7039,"mir":7040,"mus":7041,"mel":7042,"meine":7043,"meinen":7044,"mert":7045,"mutter":7046,"meist":7047,"mÃ¼ck":7048,"muÃŁt":7049,"not":7050,"nimm":7051,"nsw":7052,"ochen":7053,"otep":7054,"onder":7055,"pw":7056,"pun":7057,"ped":7058,"pá¸ı":7059,"pÅ¡n":7060,"rÃ¶n":7061,"rlich":7062,"rÃ¶t":7063,"rungen":7064,"rache":7065,"reht":7066,"richte":7067,"ritt":7068,"rennen":7069,"ressen":7070,"rischt":7071,"rannten":7072,"rpw":7073,"sk":7074,"san":7075,"sol":7076,"sind":7077,"seti":7078,"shaus":7079,"sagen":7080,"swÃ¼rd":7081,"sagt":7082,"setz":7083,"sgeg":7084,"sichtig":7085,"sá¸¥m":7086,"sehne":7087,"tl":7088,"to":7089,"tuch":7090,"tÃ¤ter":7091,"tschafts":7092,"tÊ¾":7093,"ufer":7094,"uden":7095,"uhr":7096,"uhe":7097,"uchts":7098,"va":7099,"vis":7100,"vent":7101,"vels":7102,"vian":7103,"wen":7104,"wein":7105,"weh":7106,"weit":7107,"wenden":7108,"wichtig":7109,"yb":7110,"zus":7111,"zef":7112,"zum":7113,"zwei":7114,"zwar":7115,"zmn":7116,"zret":7117,"Ãľbel":7118,"Ġet":7119,"Ġroh":7120,"Ġeilen":7121,"ĠâĢŀ":7122,"eru":7123,"erdem":7124,"erlegen":7125,"Ġdrei":7126,"Ġdienen":7127,"Ġdanken":7128,"enten":7129,"ensp":7130,"ensten":7131,"ence":7132,"eide":7133,"ess":7134,"einige":7135,"stab":7136,"stru":7137,"stoten":7138,"statt":7139,"Ġsitz":7140,"iege":7141,"ieÃŁ":7142,"ieber":7143,"ieÃŁt":7144,"gehe":7145,"gegeben":7146,"geord":7147,"gequ":7148,"geknÃ¼pft":7149,"aui":7150,"auten":7151,"aure":7152,"auben":7153,"aubt":7154,"auers":7155,"asso":7156,"aserb":7157,"ĠwÃ¼":7158,"Ġwand":7159,"Ġweinen":7160,"Ġwandelt":7161,"Ġwollen":7162,"ant":7163,"anke":7164,"anui":7165,"anedju":7166,"Ã¼gel":7167,"Ã¼blicher":7168,"emes":7169,"ĠSchen":7170,"ĠStep":7171,"ĠSob":7172,"ĠSeiner":7173,"ĠSeines":7174,"ĠSohle":7175,"ĠSarg":7176,"ĠSÃ¤nfte":7177,"ĠSebek":7178,"ĠHau":7179,"ĠHitze":7180,"ĠHaa":7181,"ĠHul":7182,"ĠHebenenet":7183,"irg":7184,"iro":7185,"iry":7186,"Ã¤ÃŁen":7187,"Ã¤ht":7188,"ĠGier":7189,"ĠGang":7190,"ĠGÃ¤r":7191,"ĠGlÃ¤n":7192,"ĠKeb":7193,"ĠKunst":7194,"ĠKehle":7195,"ĠKIndern":7196,"ins":7197,"innern":7198,"ĠApis":7199,"ĠAchtung":7200,"Ġvielen":7201,"alie":7202,"ĠNab":7203,"ĠNimm":7204,"ĠNom":7205,"ĠNestes":7206,"ette":7207,"etschung":7208,"Ġbebe":7209,"Ġbeschw":7210,"Ġblickt":7211,"Ġbrennt":7212,"Ġblicken":7213,"Ġbeugen":7214,"Ġhef":7215,"Ġhassen":7216,"ĠhÃ¤tte":7217,"Ġhell":7218,"Ġhalten":7219,"Ġhelle":7220,"ĠhÃ¼te":7221,"genau":7222,"gende":7223,"genauer":7224,"unichte":7225,"unigte":7226,"ehst":7227,"Ġgezogen":7228,"Ġgefertigt":7229,"Ġmass":7230,"isse":7231,"isbrot":7232,"atsch":7233,"attern":7234,"atmen":7235,"Ġgere":7236,"ĠBl":7237,"ĠBed":7238,"ĠBlÃ¼":7239,"ĠBinden":7240,"ĠBÃ¼nd":7241,"ĠBlick":7242,"ĠBedu":7243,"ĠBreiten":7244,"ĠBaba":7245,"ĠBrote":7246,"ĠBÃ¤ume":7247,"ĠBeutel":7248,"ĠBiene":7249,"Ġzeigt":7250,"Ġzunichte":7251,"Ġeingek":7252,"Ġeinsteigt":7253,"Ġeingecremt":7254,"Ġert":7255,"ĠerklÃ¤r":7256,"ĠerhÃ¶":7257,"Ġerinn":7258,"Ġerhaben":7259,"Ġerweist":7260,"ĠermÃ¼den":7261,"Ġerinnern":7262,"Ã¶nlich":7263,"dene":7264,"ĠVul":7265,"elheit":7266,"elschnur":7267,"ausende":7268,"ausgesetzt":7269,"ĠMu":7270,"ĠMag":7271,"ĠMÃ¤n":7272,"ĠMÃ¼l":7273,"ĠMale":7274,"ĠMÃ¼ndung":7275,"region":7276,"Ġneigen":7277,"Ġnord":7278,"ĠnÃ¤hrt":7279,"ĠOm":7280,"Ġanzu":7281,"Ġangenommen":7282,"Ġansetzen":7283,"Ġanbeten":7284,"Ġanrichtet":7285,"ĠWin":7286,"ĠWut":7287,"ĠWorte":7288,"ĠWÃ¤r":7289,"ĠWunden":7290,"ĠWieder":7291,"ĠWohl":7292,"ĠWelle":7293,"ĠWillen":7294,"ĠzuhÃ¶ren":7295,"Ġzurufen":7296,"Ġzujubeln":7297,"ĠTam":7298,"ĠTjer":7299,"ĠTeil":7300,"ĠTisch":7301,"ĠTai":7302,"ĠTanz":7303,"ĠTasche":7304,"leg":7305,"legi":7306,"leunigte":7307,"Ġfl":7308,"Ġfal":7309,"Ġfangen":7310,"Ġfasse":7311,"Ġfehl":7312,"Ġflo":7313,"Ġfahre":7314,"Ġfreue":7315,"Ġfesten":7316,"amt":7317,"amte":7318,"amutef":7319,"ichtest":7320,"benswÃ¼rd":7321,"ĠPol":7322,"ĠProp":7323,"ĠPhyle":7324,"ĠPepu":7325,"ĠPrivatgemÃ¤":7326,"dersten":7327,"arren":7328,"olte":7329,"olges":7330,"ungfern":7331,"ĠFrÃ¼":7332,"ĠFahr":7333,"ĠFack":7334,"ĠFehl":7335,"ĠFlu":7336,"ĠFay":7337,"ĠFaust":7338,"ĠFÃ¤rbung":7339,"ĠFirm":7340,"ĠFaserb":7341,"schem":7342,"schet":7343,"sched":7344,"schwal":7345,"schÃ¼t":7346,"schÃ¤d":7347,"schlafen":7348,"indert":7349,"ĠHervor":7350,"ĠHerisch":7351,"ĠHerolde":7352,"ĠRed":7353,"ĠRah":7354,"ĠRÃ¶st":7355,"ĠRÃ¤uber":7356,"Ġaufge":7357,"Ġaufgeh":7358,"Ġaufgef":7359,"Ġaufgeht":7360,"ĠaufhÃ¶ren":7361,"ĠauflÃ¶st":7362,"Ġaufgetrennt":7363,"Ġaufrichten":7364,"Ġaufweist":7365,"Ġauffliegen":7366,"ĠLiefer":7367,"ĠLeich":7368,"ĠLichts":7369,"ĠLager":7370,"ĠLenkt":7371,"ĠLeuten":7372,"ĠLasso":7373,"ĠUnver":7374,"ĠUngeb":7375,"ĠUnmut":7376,"ĠUnordnung":7377,"ĠKÃ¶nigsfest":7378,"ĠKÃ¶nigsak":7379,"ĠKÃ¶nigsherr":7380,"ĠKÃ¶nigsschmuck":7381,"ĠKÃ¶nigsleinen":7382,"chenken":7383,"lichkeiten":7384,"ĠSches":7385,"ĠSchau":7386,"ĠSched":7387,"ĠSchatz":7388,"ĠSchÃ¤del":7389,"ĠSchreiten":7390,"ĠSchmerz":7391,"ĠSchalen":7392,"ĠNedj":7393,"ĠNezret":7394,"anden":7395,"andet":7396,"ĠVermÃ¶gens":7397,"ĠVerband":7398,"ĠVerarbeit":7399,"Erbitt":7400,"Ġklu":7401,"ĠDieb":7402,"ĠDelt":7403,"ĠDiagnose":7404,"ĠDienst":7405,"ĠDewen":7406,"ĠDiadem":7407,"neter":7408,"nete":7409,"annter":7410,"annisbrot":7411,"Ã¶rer":7412,"abi":7413,"abtet":7414,"abwÃ¤rts":7415,"Ġtief":7416,"ĠtrÃ¤ge":7417,"Ġtriff":7418,"Ġtrocken":7419,"Ġmitteilen":7420,"reibe":7421,"reichte":7422,"Ġbeide":7423,"ĠHerrschaft":7424,"eput":7425,"eptern":7426,"Ġverhalten":7427,"Ġverletzt":7428,"ĠverÃ¤rg":7429,"ĠOpfergabe":7430,"hner":7431,"chtem":7432,"Ġdiesbe":7433,"$-(":7434,"Ġgilt":7435,"ĠKammern":7436,"umfangen":7437,"ĠVorv":7438,"ĠVorfahren":7439,"ĠVorliebe":7440,"Ġesse":7441,"Ġausges":7442,"Ġausgesch":7443,"Ġauseinander":7444,"Ġausgewischt":7445,"ĠausgerÃ¼":7446,"ierten":7447,"ierung":7448,"ierde":7449,"ierende":7450,"Ġschm":7451,"Ġschaut":7452,"Ġschwie":7453,"Ġschlafen":7454,"Ġschmaler":7455,"ĠId":7456,"ĠIch":7457,"ĠIne":7458,"ĠIuf":7459,"ĠIhy":7460,"ĠIsu":7461,"ĠIrt":7462,"ĠIhu":7463,"ĠIuef":7464,"ĠIII":7465,"ĠIabtet":7466,"ĠAnom":7467,"ĠAnkl":7468,"ĠAnspruch":7469,"ĠAngreifer":7470,"ĠAnfÃ¼hrer":7471,"ĠAnblick":7472,"Chent":7473,"Chasti":7474,"Ġlau":7475,"Ġlauf":7476,"Ġlaut":7477,"ĠlaÃŁt":7478,"istrat":7479,"Ġvorgebracht":7480,"ĠvorwÃ¤rts":7481,"ĠvorzÃ¼glich":7482,"Ġvordersten":7483,"(?)\"":7484,"(?);":7485,"(?)?":7486,"(?)',":7487,"ohnung":7488,"ĠNefert":7489,"achteiligt":7490,"Ġspei":7491,"ĠspÃ¼rt":7492,"ĠZut":7493,"ĠZehen":7494,"ĠZechen":7495,"ĠZeuge":7496,"ĠZerlegen":7497,"ublerin":7498,"ĠCha":7499,"ĠChet":7500,"ĠChase":7501,"ĠCheteti":7502,"Ġjunge":7503,"opole":7504,"rÃ¼l":7505,"mÃ¤ht":7506,"Ġsicher":7507,"Ġlegt":7508,"Ġlegst":7509,"ffe":7510,"ĠEi":7511,"ĠEben":7512,"haber":7513,"hafte":7514,"ĠOberseite":7515,"Ġgehor":7516,"Ġgehorchen":7517,"Ġgehindert":7518,"Schau":7519,"Schla":7520,"Schrift":7521,"Scheitel":7522,"Schale":7523,"Schnei":7524,"ĠstÃ¼tzt":7525,"Ġsteif":7526,"Ġsteigt":7527,"Ġstreck":7528,"lender":7529,"ĠSprech":7530,"ĠSperren":7531,"ĠSpeeren":7532,"ochten":7533,"ĠÃ¼bert":7534,"ĠÃ¼beraus":7535,"ĠÃ¼berschw":7536,"ĠÃ¼bergesetzt":7537,"ĠÃ¼berheb":7538,"á¸¤":7539,"secher":7540,"ĠRezit":7541,"ĠRekrut":7542,"ĠRekru":7543,"ĠErles":7544,"ĠErsten":7545,"ĠErdm":7546,"ĠErkenntnis":7547,"ĠErhitzen":7548,"Ġherrlich":7549,"ltu":7550,"lÃ¤uf":7551,"lÃ¤uft":7552,"ahlen":7553,"ahmt":7554,"ĠUnteren":7555,"vorderer":7556,"ĠJi":7557,"ĠJn":7558,"ĠJam":7559,"ĠJungfern":7560,"ĠJublerin":7561,"ĠStach":7562,"ĠStÃ¼ck":7563,"ĠStall":7564,"ĠStÃ¼tz":7565,"ĠStaub":7566,"ĠStrauÃŁen":7567,"egungen":7568,"gehorcht":7569,"Ġuntergeht":7570,"Ġunterwegs":7571,"niswt":7572,"Ġgebe":7573,"sersch":7574,"weich":7575,"weihr":7576,"ibsen":7577,"ĠAufmerksam":7578,"ĠMerut":7579,"beamter":7580,"Ã¤ttigt":7581,"Ġwarf":7582,"ebeni":7583,"lÃ¼pft":7584,"priesterschaft":7585,"Ġbeob":7586,"Ġbegeg":7587,"Ġbeerbt":7588,"Ġbeweihr":7589,"ammel":7590,"ĠdurchstoÃŁen":7591,"Ġumar":7592,"Ġumschl":7593,"ĠHause":7594,"ĠHausherrin":7595,"gestimmt":7596,"haltung":7597,"ĠTotenpriesterin":7598,"gesammelt":7599,"gesonder":7600,"gesamt":7601,"rÃ¤te":7602,"rÃ¤cht":7603,"eilte":7604,"spricht":7605,"ĠGefilde":7606,"ĠGefrÃ¤ÃŁ":7607,"ĠGefolges":7608,"ĠnachlÃ¤ss":7609,"ĠschÃ¶nes":7610,"ohannisbrot":7611,"Ġgestellt":7612,"Ġgesandt":7613,"ĠgesÃ¤ttigt":7614,"ĠArmsel":7615,"Ġlebend":7616,"Ã¼nft":7617,"erteile":7618,"ĠAblegen":7619,"ĠAbrechnung":7620,"ĠAbgesonder":7621,"lanzt":7622,"ĠÃľ":7623,"ĠÃĸstlicher":7624,"ĠGeschenk":7625,"ĠGesell":7626,"ĠGesichter":7627,"ĠGesetzen":7628,"ĠLande":7629,"ĠMaa":7630,"ĠMaÃŁe":7631,"ĠMafdet":7632,"Ġgeschlachtet":7633,"ĠgeschmÃ¤ht":7634,"ĠWasserschwal":7635,"Verwaltung":7636,"Verletzung":7637,"Verhalte":7638,"Ġgegossen":7639,"rafe":7640,"ĠDenu":7641,"Ġabgeben":7642,"Ġabgenommen":7643,"ĠFreunden":7644,"weren":7645,"ĠUfern":7646,"ĠUrÃ¤usschlange":7647,"ĠUto":7648,"zugehen":7649,"ĠSchreibers":7650,"ĠSchreibergeh":7651,"Festes":7652,"ĠLebende":7653,"duldig":7654,"ĠSeths":7655,"ĠRinderst":7656,"ĠGesichts":7657,"ĠHandbuch":7658,"Ġzusammengebunden":7659,"ĠzusammengeknÃ¼pft":7660,"fluchts":7661,"ĠQu":7662,"ĠQar":7663,"Ġmeinte":7664,"vollmÃ¤chtig":7665,"Ġweich":7666,"Ġweisen":7667,"ungszeit":7668,"ungsbet":7669,"ungskraft":7670,"ungssprÃ¼che":7671,"Ã¤nzlich":7672,"ĠFestung":7673,"ĠFestduft":7674,"êľ¥n":7675,"êľ¥á¸¥":7676,"êľ¥ná¸«":7677,"êľ¥êľ¥m":7678,"êľ¥bêľ£":7679,"á¸¥zmn":7680,"festhalten":7681,"DaÃŁ":7682,"meret":7683,"zaef":7684,"Ġpers":7685,"Ġprodu":7686,"Ġparteiisch":7687,"ĠInseln":7688,"gebiete":7689,"ĠbestÃ¤r":7690,"ĠbestÃ¤ndig":7691,"lieben":7692,"Ġgeweint":7693,"Ġgewichtig":7694,"ĠgewÃ¤hren":7695,"ĠHetepi":7696,"ĠHetepet":7697,"Ġeinzigartig":7698,"Ġverbracht":7699,"Ã¤hlte":7700,"ĠEine":7701,"ĠEinf":7702,"ĠEinen":7703,"ĠLangleb":7704,"Ã¤ndern":7705,"sogar":7706,"erson":7707,"ĠDjaa":7708,"ĠDjeser":7709,"ĠDjemi":7710,"á¸«p":7711,"á¸«êľ£":7712,"á¸«ná¸ı":7713,"á¸«sd":7714,"Reðĵįº":7715,"Rezit":7716,"Stauchung":7717,"eichers":7718,"Ġwomit":7719,"wart":7720,"ĠGeheimnis":7721,"ĠBaqet":7722,"hornrind":7723,"ĠWeite":7724,"ĠWeisen":7725,"ĠWeiÃŁe":7726,"licherweise":7727,"Anbeten":7728,"Angreifer":7729,"Sobek":7730,"menet":7731,"ĠKopfschmuck":7732,"ĠSenaa":7733,"ĠHimmelsstier":7734,"KÃ¶nigstochter":7735,"ĠAuszug":7736,"ĠAusspruch":7737,"ĠAuserles":7738,"UnterÃ¤gypten":7739,"Unterwelt":7740,"á¸ısr":7741,"á¸ıêľ¥êľ¥m":7742,"stellt":7743,"ĠÃ¤uÃŁ":7744,"ĠÃ¤ltesten":7745,"Ġgerade":7746,"ĠAlabastergegen":7747,"Spitzen":7748,"Ġzufriedener":7749,"pps":7750,"ppen":7751,"indender":7752,"GebÃ¤ude":7753,"geworfen":7754,"gewÃ¤sser":7755,"ĠPatron":7756,"ĠDuamutef":7757,"Ġgefolgt":7758,"nerguss":7759,"Ġgemischt":7760,"Å¡f":7761,"Å¡mm":7762,"ĠSeen":7763,"ĠSezef":7764,"Hetepef":7765,"itzer":7766,"ĠBericht":7767,"loses":7768,"ĠWerft":7769,"illklein":7770,"Ġ(??)":7771,"ĠBegierde":7772,"obte":7773,"obwohl":7774,"allenen":7775,"Vorder":7776,"ntest":7777,"Ã¼llung":7778,"ĠBevollmÃ¤chtig":7779,"bekannt":7780,"azi":7781,"errt":7782,"tilopen":7783,"geschirr":7784,"ĠSpeisung":7785,"Ġweggeschoben":7786,"ĠHatjes":7787,"Ġdeinesgleichen":7788,"ĠZehi":7789,"ĠÃĦlter":7790,"ĠÃĦmter":7791,"wesenden":7792,"weseret":7793,"ĠHÃ¶fe":7794,"Ã¤mon":7795,"Ã¤mpft":7796,"zeuger":7797,"ĠVerklÃ¤rungssprÃ¼che":7798,"ĠerschlÃ¤gt":7799,"ĠFeinden":7800,"ĠRage":7801,"ĠBrustkorb":7802,"ĠZugehÃ¶riger":7803,"ĠZufluchts":7804,"tjet":7805,"tjêľ£":7806,"tjenenet":7807,"ĠNetjeri":7808,"Wieder":7809,"sic":7810,"wirkung":7811,"ĠHenenu":7812,"Ġfortgegangen":7813,"Ġleiblichen":7814,"zieh":7815,"Ġberuh":7816,"Abgesondert":7817,"Ġzersplitter":7818,"Ġverschieben":7819,"ĠverhÃ¼llen":7820,"ĠlÃ¤uft":7821,"Alter":7822,"Alters":7823,"Senkung":7824,"ockiert":7825,"Ġvereinige":7826,"twêľ£":7827,"Ġergriff":7828,"stoÃŁ":7829,"Ġwillkommen":7830,"Ġwirksam":7831,"ĠwÃ¼nsche":7832,"ĠHarem":7833,"Ġbegann":7834,"ĠÃľberdauer":7835,"Opfergabe":7836,"Opfertisch":7837,"ĠKuchen":7838,"ĠKult":7839,"Ġvollkommenes":7840,"ĠSobekiry":7841,"ĠeÃŁt":7842,"Ġechtem":7843,"Ġgutes":7844,"ĠTempelverwaltung":7845,"ĠFleischopfer":7846,"Ġvertrau":7847,"ĠGrabes":7848,"ĠHalsvorder":7849,"ĠNachtmahl":7850,"ĠFrem":7851,"ĠFrise":7852,"anntes":7853,"ĠLandestelle":7854,"Gehst":7855,"Ġzweite":7856,"Ġzweiten":7857,"stÃ¤ndiger":7858,"ĠsÃ¼dlich":7859,"ĠWirkung":7860,"ĠTÃ¼rriegel":7861,"ĠSchlÃ¤fer":7862,"olgsmann":7863,"Weise":7864,"WeiÃŁe":7865,"etjes":7866,"Ġbahnen":7867,"Ġallerlei":7868,"Ġschwache":7869,"Ġschwebt":7870,"gsam":7871,"unterwegs":7872,"Ã¤gyptische":7873,"ĠUpuautnacht":7874,"Ġhierher":7875,"ĠMÃ¤chtigen":7876,"Hausmeister":7877,"meer":7878,"nws":7879,"Ġ10":7880,"Ġ1000":7881,"Ġferngehalten":7882,"asengau":7883,"ĠerfÃ¼llt":7884,"Ġerfrischt":7885,"ienene":7886,"Ġbewegen":7887,"Ġbewege":7888,"Ġðĵį¹Sechem":7889,"Ġðĵį¹Sobek":7890,"ĠGlied":7891,"ĠBrÃ¼sten":7892,"ĠHinricht":7893,"Ġbeleben":7894,"Ġangelegt":7895,"Ġangeordnet":7896,"nebut":7897,"ĠChenu":7898,"ĠCheneret":7899,"ĠChenemet":7900,"ĠAufwÃ¤rters":7901,"âĮª.":7902,"á¹¯w":7903,"GefÃ¤ÃŁen":7904,"Gefolgsmann":7905,"pêľ£w":7906,"pêľ£á¹¯":7907,"Ġhinabgestiegen":7908,"ĠLebenshauses":7909,"ĠLebenszeit":7910,"Totenreich":7911,"ĠGehÃ¶rn":7912,"ĠDjedut":7913,"hÃ¶renden":7914,"ĠFeldern":7915,"ĠSchwÃ¤che":7916,"ĠkÃ¶nntest":7917,"Ġstehe":7918,"Ġstehst":7919,"Ġstehend":7920,"ĠStadtgott":7921,"Ġoberster":7922,"Szeptern":7923,"Ġblockiert":7924,"ĠmÃ¼ÃŁte":7925,"ĠPlÃ¤tze":7926,"Ġirgen":7927,"ĠStiftungs":7928,"Ã¤ug":7929,"bereiche":7930,"ĠFurchtsamen":7931,"ĠSchiffe":7932,"Ġschlachten":7933,"beweg":7934,"getragen":7935,"Ġfeststellst":7936,"ĠPflÃ¼gen":7937,"Ġfrischer":7938,"Ġwohlauf":7939,"ĠPeri":7940,"ĠPeribsen":7941,"ĠLadung":7942,"Ġvorbeigegangen":7943,"eket":7944,"jener":7945,"ĠNackens":7946,"ĠBrett":7947,"ĠWindungen":7948,"ĠErschienene":7949,"zugleich":7950,"FÃ¼rwahr":7951,"lok":7952,"ĠUmlauf":7953,"ĠSchlachtopfer":7954,"Kairo":7955,"innig":7956,"innsel":7957,"Ġinsgesamt":7958,"artigen":7959,"ĠSchulter":7960,"Ġtrinke":7961,"Ġbeklagen":7962,"Ġabwischen":7963,"Ġplazieren":7964,"ĠVertraute":7965,"Entbinde":7966,"Hemet":7967,"Imach":7968,"Lebend":7969,"gÃ¶tter":7970,"mÃ¼tig":7971,"Ġbeschleunigte":7972,"Ġbeschweren":7973,"Ġherumgehen":7974,"Ġwiederholte":7975,"ĠÃ¼blicherweise":7976,"davon":7977,"mnsêľ£":7978,"ĠGewebe":7979,"ĠGewÃ¤sser":7980,"ĠBescha":7981,"ĠPaar":7982,"Ġschauen":7983,"Ġsolltest":7984,"ĠSenebes":7985,"Ġirgendein":7986,"Ġirgendeine":7987,"Ġirgendeinen":7988,"ektor":7989,"Ġwelche":7990,"ĠSÃ¼mpfe":7991,"ĠGemahl":7992,"ĠGazellen":7993,"ĠKlein":7994,"ĠKleiner":7995,"ĠKanÃ¤le":7996,"Ġfriedliche":7997,"Ġschweige":7998,"Ġherbeib":7999}