{
  "version": "1.0",
  "truncation": null,
  "padding": null,
  "added_tokens": [
    {
      "id": 0,
      "content": "<pad>",
      "single_word": false,
      "lstrip": false,
      "rstrip": false,
      "normalized": false,
      "special": true
    },
    {
      "id": 1,
      "content": "<s>",
      "single_word": false,
      "lstrip": false,
      "rstrip": false,
      "normalized": false,
      "special": true
    },
    {
      "id": 2,
      "content": "</s>",
      "single_word": false,
      "lstrip": false,
      "rstrip": false,
      "normalized": false,
      "special": true
    },
    {
      "id": 3,
      "content": "<unk>",
      "single_word": false,
      "lstrip": false,
      "rstrip": false,
      "normalized": false,
      "special": true
    },
    {
      "id": 4,
      "content": "[HIERO]",
      "single_word": false,
      "lstrip": false,
      "rstrip": false,
      "normalized": false,
      "special": true
    },
    {
      "id": 5,
      "content": "[TRANS]",
      "single_word": false,
      "lstrip": false,
      "rstrip": false,
      "normalized": false,
      "special": true
    },
    {
      "id": 6,
      "content": "[LEMMA]",
      "single_word": false,
      "lstrip": false,
      "rstrip": false,
      "normalized": false,
      "special": true
    },
    {
      "id": 7,
      "content": "[GLOSS]",
      "single_word": false,
      "lstrip": false,
      "rstrip": false,
      "normalized": false,
      "special": true
    },
    {
      "id": 8,
      "content": "[DE]",
      "single_word": false,
      "lstrip": false,
      "rstrip": false,
      "normalized": false,
      "special": true
    },
    {
      "id": 9,
      "content": "[MASC]",
      "single_word": false,
      "lstrip": false,
      "rstrip": false,
      "normalized": false,
      "special": true
    },
    {
      "id": 10,
      "content": "[FEM]",
      "single_word": false,
      "lstrip": false,
      "rstrip": false,
      "normalized": false,
      "special": true
    }
  ],
  "normalizer": {
    "type": "Sequence",
    "normalizers": [
      {
        "type": "NFD"
      }
    ]
  },
  "pre_tokenizer": {
    "type": "Whitespace"
  },
  "post_processor": {
    "type": "TemplateProcessing",
    "single": [
      {
        "SpecialToken": {
          "id": "<s>",
          "type_id": 0
        }
      },
      {
        "Sequence": {
          "id": "A",
          "type_id": 0
        }
      },
      {
        "SpecialToken": {
          "id": "</s>",
          "type_id": 0
        }
      }
    ],
    "pair": [
      {
        "SpecialToken": {
          "id": "<s>",
          "type_id": 0
        }
      },
      {
        "Sequence": {
          "id": "A",
          "type_id": 0
        }
      },
      {
        "SpecialToken": {
          "id": "</s>",
          "type_id": 0
        }
      },
      {
        "SpecialToken": {
          "id": "</s>",
          "type_id": 0
        }
      },
      {
        "Sequence": {
          "id": "B",
          "type_id": 0
        }
      },
      {
        "SpecialToken": {
          "id": "</s>",
          "type_id": 0
        }
      }
    ],
    "special_tokens": {
      "</s>": {
        "id": "</s>",
        "ids": [
          2
        ],
        "tokens": [
          "</s>"
        ]
      },
      "<s>": {
        "id": "<s>",
        "ids": [
          1
        ],
        "tokens": [
          "<s>"
        ]
      }
    }
  },
  "decoder": null,
  "model": {
    "type": "BPE",
    "dropout": null,
    "unk_token": "<unk>",
    "continuing_subword_prefix": null,
    "end_of_word_suffix": null,
    "fuse_unk": false,
    "byte_fallback": false,
    "ignore_merges": false,
    "vocab": {
      "<pad>": 0,
      "<s>": 1,
      "</s>": 2,
      "<unk>": 3,
      "[HIERO]": 4,
      "[TRANS]": 5,
      "[LEMMA]": 6,
      "[GLOSS]": 7,
      "[DE]": 8,
      "[MASC]": 9,
      "[FEM]": 10,
      "!": 11,
      "\"": 12,
      "$": 13,
      "'": 14,
      "(": 15,
      ")": 16,
      "+": 17,
      ",": 18,
      "-": 19,
      ".": 20,
      "/": 21,
      "0": 22,
      "1": 23,
      "2": 24,
      "3": 25,
      "4": 26,
      "5": 27,
      "6": 28,
      "7": 29,
      "8": 30,
      "9": 31,
      ":": 32,
      ";": 33,
      "<": 34,
      "=": 35,
      ">": 36,
      "?": 37,
      "A": 38,
      "B": 39,
      "C": 40,
      "D": 41,
      "E": 42,
      "F": 43,
      "G": 44,
      "H": 45,
      "I": 46,
      "J": 47,
      "K": 48,
      "L": 49,
      "M": 50,
      "N": 51,
      "O": 52,
      "P": 53,
      "Q": 54,
      "R": 55,
      "S": 56,
      "T": 57,
      "U": 58,
      "V": 59,
      "W": 60,
      "X": 61,
      "Y": 62,
      "Z": 63,
      "[": 64,
      "\\": 65,
      "]": 66,
      "a": 67,
      "b": 68,
      "c": 69,
      "d": 70,
      "e": 71,
      "f": 72,
      "g": 73,
      "h": 74,
      "i": 75,
      "j": 76,
      "k": 77,
      "l": 78,
      "m": 79,
      "n": 80,
      "o": 81,
      "p": 82,
      "q": 83,
      "r": 84,
      "s": 85,
      "t": 86,
      "u": 87,
      "v": 88,
      "w": 89,
      "x": 90,
      "y": 91,
      "z": 92,
      "|": 93,
      "~": 94,
      "ß": 95,
      "ı": 96,
      "ʾ": 97,
      "̈": 98,
      "̌": 99,
      "̣": 100,
      "̭": 101,
      "̮": 102,
      "̯": 103,
      "̱": 104,
      "͗": 105,
      "–": 106,
      "‘": 107,
      "‚": 108,
      "“": 109,
      "„": 110,
      "❡": 111,
      "⟦": 112,
      "⟧": 113,
      "〈": 114,
      "〉": 115,
      "Ꜣ": 116,
      "ꜣ": 117,
      "Ꜥ": 118,
      "ꜥ": 119,
      "Ꞽ": 120,
      "ꞽ": 121,
      "︀": 122,
      "︂": 123,
      "𓀀": 124,
      "𓀁": 125,
      "𓀃": 126,
      "𓀄": 127,
      "𓀆": 128,
      "𓀉": 129,
      "𓀊": 130,
      "𓀋": 131,
      "𓀌": 132,
      "𓀍": 133,
      "𓀎": 134,
      "𓀏": 135,
      "𓀐": 136,
      "𓀑": 137,
      "𓀒": 138,
      "𓀓": 139,
      "𓀔": 140,
      "𓀕": 141,
      "𓀖": 142,
      "𓀗": 143,
      "𓀘": 144,
      "𓀙": 145,
      "𓀚": 146,
      "𓀜": 147,
      "𓀝": 148,
      "𓀞": 149,
      "𓀟": 150,
      "𓀠": 151,
      "𓀡": 152,
      "𓀢": 153,
      "𓀤": 154,
      "𓀦": 155,
      "𓀧": 156,
      "𓀨": 157,
      "𓀩": 158,
      "𓀪": 159,
      "𓀭": 160,
      "𓀯": 161,
      "𓀰": 162,
      "𓀲": 163,
      "𓀵": 164,
      "𓀸": 165,
      "𓀹": 166,
      "𓀺": 167,
      "𓀻": 168,
      "𓀼": 169,
      "𓀽": 170,
      "𓀾": 171,
      "𓁀": 172,
      "𓁅": 173,
      "𓁌": 174,
      "𓁐": 175,
      "𓁑": 176,
      "𓁒": 177,
      "𓁓": 178,
      "𓁔": 179,
      "𓁟": 180,
      "𓁠": 181,
      "𓁢": 182,
      "𓁣": 183,
      "𓁤": 184,
      "𓁥": 185,
      "𓁦": 186,
      "𓁨": 187,
      "𓁶": 188,
      "𓁷": 189,
      "𓁸": 190,
      "𓁹": 191,
      "𓁺": 192,
      "𓁻": 193,
      "𓁼": 194,
      "𓁽": 195,
      "𓁿": 196,
      "𓂀": 197,
      "𓂂": 198,
      "𓂃": 199,
      "𓂆": 200,
      "𓂉": 201,
      "𓂊": 202,
      "𓂋": 203,
      "𓂎": 204,
      "𓂏": 205,
      "𓂐": 206,
      "𓂑": 207,
      "𓂒": 208,
      "𓂓": 209,
      "𓂔": 210,
      "𓂕": 211,
      "𓂖": 212,
      "𓂘": 213,
      "𓂙": 214,
      "𓂚": 215,
      "𓂛": 216,
      "𓂜": 217,
      "𓂝": 218,
      "𓂞": 219,
      "𓂟": 220,
      "𓂠": 221,
      "𓂡": 222,
      "𓂢": 223,
      "𓂣": 224,
      "𓂤": 225,
      "𓂥": 226,
      "𓂦": 227,
      "𓂧": 228,
      "𓂨": 229,
      "𓂩": 230,
      "𓂬": 231,
      "𓂭": 232,
      "𓂷": 233,
      "𓂸": 234,
      "𓂺": 235,
      "𓂻": 236,
      "𓂽": 237,
      "𓂾": 238,
      "𓂿": 239,
      "𓃀": 240,
      "𓃂": 241,
      "𓃃": 242,
      "𓃄": 243,
      "𓃅": 244,
      "𓃒": 245,
      "𓃓": 246,
      "𓃔": 247,
      "𓃘": 248,
      "𓃙": 249,
      "𓃚": 250,
      "𓃛": 251,
      "𓃜": 252,
      "𓃝": 253,
      "𓃞": 254,
      "𓃟": 255,
      "𓃠": 256,
      "𓃡": 257,
      "𓃢": 258,
      "𓃣": 259,
      "𓃥": 260,
      "𓃧": 261,
      "𓃨": 262,
      "𓃩": 263,
      "𓃫": 264,
      "𓃬": 265,
      "𓃭": 266,
      "𓃯": 267,
      "𓃰": 268,
      "𓃱": 269,
      "𓃲": 270,
      "𓃵": 271,
      "𓃶": 272,
      "𓃷": 273,
      "𓃸": 274,
      "𓃹": 275,
      "𓃽": 276,
      "𓃾": 277,
      "𓃿": 278,
      "𓄀": 279,
      "𓄁": 280,
      "𓄂": 281,
      "𓄃": 282,
      "𓄄": 283,
      "𓄅": 284,
      "𓄆": 285,
      "𓄇": 286,
      "𓄈": 287,
      "𓄉": 288,
      "𓄊": 289,
      "𓄋": 290,
      "𓄏": 291,
      "𓄐": 292,
      "𓄑": 293,
      "𓄒": 294,
      "𓄓": 295,
      "𓄔": 296,
      "𓄕": 297,
      "𓄖": 298,
      "𓄗": 299,
      "𓄘": 300,
      "𓄙": 301,
      "𓄚": 302,
      "𓄛": 303,
      "𓄜": 304,
      "𓄝": 305,
      "𓄞": 306,
      "𓄟": 307,
      "𓄠": 308,
      "𓄡": 309,
      "𓄢": 310,
      "𓄣": 311,
      "𓄤": 312,
      "𓄥": 313,
      "𓄦": 314,
      "𓄧": 315,
      "𓄪": 316,
      "𓄫": 317,
      "𓄬": 318,
      "𓄭": 319,
      "𓄯": 320,
      "𓄰": 321,
      "𓄱": 322,
      "𓄲": 323,
      "𓄴": 324,
      "𓄶": 325,
      "𓄹": 326,
      "𓄼": 327,
      "𓄽": 328,
      "𓄿": 329,
      "𓅀": 330,
      "𓅁": 331,
      "𓅂": 332,
      "𓅃": 333,
      "𓅄": 334,
      "𓅅": 335,
      "𓅆": 336,
      "𓅇": 337,
      "𓅈": 338,
      "𓅉": 339,
      "𓅌": 340,
      "𓅎": 341,
      "𓅏": 342,
      "𓅐": 343,
      "𓅑": 344,
      "𓅒": 345,
      "𓅓": 346,
      "𓅔": 347,
      "𓅘": 348,
      "𓅙": 349,
      "𓅚": 350,
      "𓅛": 351,
      "𓅜": 352,
      "𓅝": 353,
      "𓅞": 354,
      "𓅟": 355,
      "𓅠": 356,
      "𓅡": 357,
      "𓅢": 358,
      "𓅣": 359,
      "𓅤": 360,
      "𓅥": 361,
      "𓅧": 362,
      "𓅨": 363,
      "𓅩": 364,
      "𓅪": 365,
      "𓅬": 366,
      "𓅭": 367,
      "𓅮": 368,
      "𓅯": 369,
      "𓅰": 370,
      "𓅱": 371,
      "𓅷": 372,
      "𓅸": 373,
      "𓅹": 374,
      "𓅺": 375,
      "𓅻": 376,
      "𓅼": 377,
      "𓅾": 378,
      "𓅿": 379,
      "𓆀": 380,
      "𓆁": 381,
      "𓆃": 382,
      "𓆄": 383,
      "𓆅": 384,
      "𓆇": 385,
      "𓆈": 386,
      "𓆊": 387,
      "𓆋": 388,
      "𓆌": 389,
      "𓆍": 390,
      "𓆎": 391,
      "𓆏": 392,
      "𓆐": 393,
      "𓆑": 394,
      "𓆓": 395,
      "𓆗": 396,
      "𓆘": 397,
      "𓆙": 398,
      "𓆚": 399,
      "𓆛": 400,
      "𓆜": 401,
      "𓆝": 402,
      "𓆞": 403,
      "𓆟": 404,
      "𓆠": 405,
      "𓆢": 406,
      "𓆣": 407,
      "𓆤": 408,
      "𓆨": 409,
      "𓆩": 410,
      "𓆫": 411,
      "𓆭": 412,
      "𓆮": 413,
      "𓆰": 414,
      "𓆱": 415,
      "𓆳": 416,
      "𓆴": 417,
      "𓆵": 418,
      "𓆶": 419,
      "𓆷": 420,
      "𓆸": 421,
      "𓆻": 422,
      "𓆼": 423,
      "𓇅": 424,
      "𓇆": 425,
      "𓇇": 426,
      "𓇉": 427,
      "𓇋": 428,
      "𓇍": 429,
      "𓇎": 430,
      "𓇏": 431,
      "𓇐": 432,
      "𓇑": 433,
      "𓇒": 434,
      "𓇓": 435,
      "𓇔": 436,
      "𓇖": 437,
      "𓇗": 438,
      "𓇘": 439,
      "𓇙": 440,
      "𓇛": 441,
      "𓇜": 442,
      "𓇝": 443,
      "𓇟": 444,
      "𓇠": 445,
      "𓇡": 446,
      "𓇣": 447,
      "𓇤": 448,
      "𓇥": 449,
      "𓇦": 450,
      "𓇧": 451,
      "𓇨": 452,
      "𓇩": 453,
      "𓇫": 454,
      "𓇬": 455,
      "𓇭": 456,
      "𓇮": 457,
      "𓇯": 458,
      "𓇰": 459,
      "𓇱": 460,
      "𓇲": 461,
      "𓇳": 462,
      "𓇴": 463,
      "𓇶": 464,
      "𓇷": 465,
      "𓇸": 466,
      "𓇹": 467,
      "𓇺": 468,
      "𓇻": 469,
      "𓇼": 470,
      "𓇽": 471,
      "𓇾": 472,
      "𓇿": 473,
      "𓈀": 474,
      "𓈁": 475,
      "𓈃": 476,
      "𓈄": 477,
      "𓈅": 478,
      "𓈆": 479,
      "𓈇": 480,
      "𓈈": 481,
      "𓈉": 482,
      "𓈋": 483,
      "𓈌": 484,
      "𓈍": 485,
      "𓈎": 486,
      "𓈏": 487,
      "𓈐": 488,
      "𓈑": 489,
      "𓈒": 490,
      "𓈓": 491,
      "𓈔": 492,
      "𓈖": 493,
      "𓈗": 494,
      "𓈘": 495,
      "𓈙": 496,
      "𓈚": 497,
      "𓈛": 498,
      "𓈜": 499,
      "𓈝": 500,
      "𓈞": 501,
      "𓈟": 502,
      "𓈢": 503,
      "𓉇": 504,
      "𓉐": 505,
      "𓉒": 506,
      "𓉓": 507,
      "𓉔": 508,
      "𓉕": 509,
      "𓉗": 510,
      "𓉘": 511,
      "𓉜": 512,
      "𓉞": 513,
      "𓉟": 514,
      "𓉠": 515,
      "𓉡": 516,
      "𓉥": 517,
      "𓉦": 518,
      "𓉧": 519,
      "𓉩": 520,
      "𓉪": 521,
      "𓉫": 522,
      "𓉬": 523,
      "𓉭": 524,
      "𓉮": 525,
      "𓉯": 526,
      "𓉱": 527,
      "𓉲": 528,
      "𓉴": 529,
      "𓉵": 530,
      "𓉶": 531,
      "𓉷": 532,
      "𓉸": 533,
      "𓉹": 534,
      "𓉺": 535,
      "𓉻": 536,
      "𓉼": 537,
      "𓉿": 538,
      "𓊀": 539,
      "𓊂": 540,
      "𓊃": 541,
      "𓊄": 542,
      "𓊅": 543,
      "𓊊": 544,
      "𓊋": 545,
      "𓊌": 546,
      "𓊍": 547,
      "𓊎": 548,
      "𓊏": 549,
      "𓊐": 550,
      "𓊑": 551,
      "𓊒": 552,
      "𓊓": 553,
      "𓊔": 554,
      "𓊕": 555,
      "𓊖": 556,
      "𓊗": 557,
      "𓊙": 558,
      "𓊚": 559,
      "𓊛": 560,
      "𓊜": 561,
      "𓊞": 562,
      "𓊠": 563,
      "𓊡": 564,
      "𓊢": 565,
      "𓊤": 566,
      "𓊦": 567,
      "𓊧": 568,
      "𓊨": 569,
      "𓊩": 570,
      "𓊪": 571,
      "𓊫": 572,
      "𓊬": 573,
      "𓊭": 574,
      "𓊮": 575,
      "𓊯": 576,
      "𓊰": 577,
      "𓊲": 578,
      "𓊵": 579,
      "𓊶": 580,
      "𓊷": 581,
      "𓊸": 582,
      "𓊹": 583,
      "𓊺": 584,
      "𓊻": 585,
      "𓊼": 586,
      "𓊽": 587,
      "𓊾": 588,
      "𓊿": 589,
      "𓋀": 590,
      "𓋁": 591,
      "𓋄": 592,
      "𓋅": 593,
      "𓋇": 594,
      "𓋈": 595,
      "𓋉": 596,
      "𓋊": 597,
      "𓋋": 598,
      "𓋌": 599,
      "𓋎": 600,
      "𓋏": 601,
      "𓋑": 602,
      "𓋒": 603,
      "𓋔": 604,
      "𓋕": 605,
      "𓋚": 606,
      "𓋝": 607,
      "𓋞": 608,
      "𓋣": 609,
      "𓋥": 610,
      "𓋦": 611,
      "𓋨": 612,
      "𓋩": 613,
      "𓋪": 614,
      "𓋫": 615,
      "𓋬": 616,
      "𓋭": 617,
      "𓋮": 618,
      "𓋯": 619,
      "𓋲": 620,
      "𓋳": 621,
      "𓋴": 622,
      "𓋵": 623,
      "𓋷": 624,
      "𓋸": 625,
      "𓋹": 626,
      "𓋼": 627,
      "𓋾": 628,
      "𓋿": 629,
      "𓌀": 630,
      "𓌂": 631,
      "𓌃": 632,
      "𓌄": 633,
      "𓌅": 634,
      "𓌇": 635,
      "𓌈": 636,
      "𓌉": 637,
      "𓌋": 638,
      "𓌌": 639,
      "𓌎": 640,
      "𓌐": 641,
      "𓌒": 642,
      "𓌓": 643,
      "𓌔": 644,
      "𓌕": 645,
      "𓌖": 646,
      "𓌗": 647,
      "𓌘": 648,
      "𓌙": 649,
      "𓌚": 650,
      "𓌞": 651,
      "𓌟": 652,
      "𓌠": 653,
      "𓌡": 654,
      "𓌢": 655,
      "𓌤": 656,
      "𓌥": 657,
      "𓌦": 658,
      "𓌧": 659,
      "𓌨": 660,
      "𓌩": 661,
      "𓌪": 662,
      "𓌫": 663,
      "𓌬": 664,
      "𓌮": 665,
      "𓌰": 666,
      "𓌱": 667,
      "𓌳": 668,
      "𓌴": 669,
      "𓌶": 670,
      "𓌷": 671,
      "𓌸": 672,
      "𓌻": 673,
      "𓌼": 674,
      "𓌽": 675,
      "𓌾": 676,
      "𓍁": 677,
      "𓍂": 678,
      "𓍃": 679,
      "𓍄": 680,
      "𓍅": 681,
      "𓍆": 682,
      "𓍇": 683,
      "𓍈": 684,
      "𓍉": 685,
      "𓍊": 686,
      "𓍋": 687,
      "𓍌": 688,
      "𓍍": 689,
      "𓍎": 690,
      "𓍏": 691,
      "𓍐": 692,
      "𓍑": 693,
      "𓍒": 694,
      "𓍓": 695,
      "𓍔": 696,
      "𓍕": 697,
      "𓍖": 698,
      "𓍘": 699,
      "𓍙": 700,
      "𓍚": 701,
      "𓍛": 702,
      "𓍜": 703,
      "𓍞": 704,
      "𓍟": 705,
      "𓍠": 706,
      "𓍡": 707,
      "𓍢": 708,
      "𓍬": 709,
      "𓍯": 710,
      "𓍰": 711,
      "𓍱": 712,
      "𓍲": 713,
      "𓍳": 714,
      "𓍵": 715,
      "𓍶": 716,
      "𓍸": 717,
      "𓍹": 718,
      "𓍺": 719,
      "𓍻": 720,
      "𓍼": 721,
      "𓍿": 722,
      "𓎀": 723,
      "𓎁": 724,
      "𓎂": 725,
      "𓎃": 726,
      "𓎄": 727,
      "𓎅": 728,
      "𓎆": 729,
      "𓎓": 730,
      "𓎔": 731,
      "𓎕": 732,
      "𓎖": 733,
      "𓎗": 734,
      "𓎘": 735,
      "𓎙": 736,
      "𓎚": 737,
      "𓎛": 738,
      "𓎝": 739,
      "𓎟": 740,
      "𓎠": 741,
      "𓎡": 742,
      "𓎢": 743,
      "𓎣": 744,
      "𓎤": 745,
      "𓎦": 746,
      "𓎧": 747,
      "𓎨": 748,
      "𓎩": 749,
      "𓎫": 750,
      "𓎯": 751,
      "𓎰": 752,
      "𓎱": 753,
      "𓎳": 754,
      "𓎴": 755,
      "𓎵": 756,
      "𓎶": 757,
      "𓎷": 758,
      "𓎸": 759,
      "𓎺": 760,
      "𓎻": 761,
      "𓎼": 762,
      "𓎽": 763,
      "𓎾": 764,
      "𓎿": 765,
      "𓏁": 766,
      "𓏂": 767,
      "𓏃": 768,
      "𓏅": 769,
      "𓏇": 770,
      "𓏈": 771,
      "𓏉": 772,
      "𓏊": 773,
      "𓏋": 774,
      "𓏌": 775,
      "𓏎": 776,
      "𓏏": 777,
      "𓏐": 778,
      "𓏑": 779,
      "𓏒": 780,
      "𓏓": 781,
      "𓏕": 782,
      "𓏖": 783,
      "𓏘": 784,
      "𓏙": 785,
      "𓏛": 786,
      "𓏜": 787,
      "𓏝": 788,
      "𓏞": 789,
      "𓏟": 790,
      "𓏠": 791,
      "𓏡": 792,
      "𓏢": 793,
      "𓏣": 794,
      "𓏤": 795,
      "𓏥": 796,
      "𓏨": 797,
      "𓏩": 798,
      "𓏪": 799,
      "𓏫": 800,
      "𓏬": 801,
      "𓏭": 802,
      "𓏮": 803,
      "𓏯": 804,
      "𓏰": 805,
      "𓏱": 806,
      "𓏲": 807,
      "𓏳": 808,
      "𓏴": 809,
      "𓏵": 810,
      "𓏶": 811,
      "𓏸": 812,
      "𓏹": 813,
      "𓏻": 814,
      "𓏼": 815,
      "𓏽": 816,
      "𓐃": 817,
      "𓐄": 818,
      "𓐅": 819,
      "𓐆": 820,
      "𓐇": 821,
      "𓐍": 822,
      "𓐎": 823,
      "𓐏": 824,
      "𓐐": 825,
      "𓐑": 826,
      "𓐒": 827,
      "𓐓": 828,
      "𓐖": 829,
      "𓐗": 830,
      "𓐘": 831,
      "𓐙": 832,
      "𓐚": 833,
      "𓐛": 834,
      "𓐜": 835,
      "𓐝": 836,
      "𓐞": 837,
      "𓐟": 838,
      "𓐠": 839,
      "𓐡": 840,
      "𓐢": 841,
      "𓐣": 842,
      "𓐥": 843,
      "𓐦": 844,
      "𓐧": 845,
      "𓐨": 846,
      "𓐩": 847,
      "𓐪": 848,
      "𓐫": 849,
      "𓐬": 850,
      "𓐭": 851,
      "𓐮": 852,
      "00": 853,
      "er": 854,
      "st": 855,
      "en": 856,
      "sg": 857,
      "ḥ": 858,
      "RO": 859,
      "10": 860,
      "pr": 861,
      "ḫ": 862,
      "in": 863,
      "RA": 864,
      "DE": 865,
      "EM": 866,
      "ERO": 867,
      "GL": 868,
      "HI": 869,
      "LEM": 870,
      "MA": 871,
      "NS": 872,
      "OS": 873,
      "TRA": 874,
      "GLOS": 875,
      "HIERO": 876,
      "LEMMA": 877,
      "TRANS": 878,
      "GLOSS": 879,
      "50": 880,
      "ch": 881,
      "|=": 882,
      "stpr": 883,
      "ḏ": 884,
      "RE": 885,
      "PRE": 886,
      "PREP": 887,
      "i̯": 888,
      "de": 889,
      "400": 890,
      "am": 891,
      "100": 892,
      "nt": 893,
      "90": 894,
      "der": 895,
      "ie": 896,
      "3sg": 897,
      "ac": 898,
      "60": 899,
      "act": 900,
      "ein": 901,
      "tam": 902,
      "70": 903,
      "30": 904,
      "ge": 905,
      "110": 906,
      "ei": 907,
      "40": 908,
      "un": 909,
      "2sg": 910,
      "as": 911,
      "20": 912,
      "or": 913,
      "(.": 914,
      "ḥr": 915,
      "85": 916,
      "š": 917,
      "es": 918,
      "10050": 919,
      "an": 920,
      "̱r": 921,
      "ꞽr": 922,
      "ö": 923,
      "au": 924,
      "10110": 925,
      "11": 926,
      "wt": 927,
      "4000": 928,
      "ich": 929,
      "IT": 930,
      "TIT": 931,
      "TITL": 932,
      "ꞽm": 933,
      "des": 934,
      "LN": 935,
      "YLN": 936,
      "ROYLN": 937,
      "ü": 938,
      "88": 939,
      "55": 940,
      "tꞽ": 941,
      "pl": 942,
      "ER": 943,
      "PER": 944,
      "SN": 945,
      "PERSN": 946,
      "DI": 947,
      "VN": 948,
      "DIVN": 949,
      "nb": 950,
      "den": 951,
      "ir": 952,
      "ṯ": 953,
      "ist": 954,
      "12": 955,
      "16": 956,
      "15": 957,
      "ä": 958,
      "te": 959,
      "kꜣ": 960,
      "ns": 961,
      "nṯr": 962,
      "80": 963,
      "tp": 964,
      ")-": 965,
      "</": 966,
      "die": 967,
      "ig": 968,
      "ad": 969,
      "dem": 970,
      "und": 971,
      "fr": 972,
      "Ḥ": 973,
      "13": 974,
      "nswt": 975,
      "ḫr": 976,
      "pt": 977,
      "ꞽw": 978,
      "800": 979,
      "du": 980,
      "im": 981,
      "al": 982,
      "sein": 983,
      "em": 984,
      "17": 985,
      "us": 986,
      "el": 987,
      "CL": 988,
      "PT": 989,
      "PTCL": 990,
      "ꞽn": 991,
      "ter": 992,
      "adj": 993,
      "fer": 994,
      "ẖ": 995,
      "PL": 996,
      "43": 997,
      "gen": 998,
      "28": 999,
      "mr": 1000,
      "it": 1001,
      "eh": 1002,
      "adjz": 1003,
      "et": 1004,
      "sn": 1005,
      "nḫ": 1006,
      "ḥm": 1007,
      "sch": 1008,
      "nꞽ": 1009,
      "at": 1010,
      "zꜣ": 1011,
      "ꜥw": 1012,
      "400055": 1013,
      "ḥꜣ": 1014,
      "Ḥr": 1015,
      "49": 1016,
      "wr": 1017,
      "Hor": 1018,
      "on": 1019,
      "79": 1020,
      "das": 1021,
      "ḏi̯": 1022,
      "mꜣ": 1023,
      "14": 1024,
      "500": 1025,
      "ḥtp": 1026,
      "is": 1027,
      "nfr": 1028,
      "29": 1029,
      "cp": 1030,
      "ptcp": 1031,
      "Horus": 1032,
      "rʾ": 1033,
      "ön": 1034,
      "ant": 1035,
      "450": 1036,
      "ot": 1037,
      "62": 1038,
      "AD": 1039,
      "zu": 1040,
      "34": 1041,
      "ḏd": 1042,
      "ꜣḫ": 1043,
      "ih": 1044,
      "stc": 1045,
      "59": 1046,
      "ar": 1047,
      "pw": 1048,
      "ḫꜣ": 1049,
      "aus": 1050,
      "67": 1051,
      "nꞽs": 1052,
      ").": 1053,
      "dw": 1054,
      "ber": 1055,
      "önig": 1056,
      "le": 1057,
      "ꞽb": 1058,
      "König": 1059,
      "ass": 1060,
      "ꜥꜣ": 1061,
      "40000": 1062,
      "47": 1063,
      "icht": 1064,
      "𓈖𓏏": 1065,
      "PN": 1066,
      "ür": 1067,
      "imp": 1068,
      "ben": 1069,
      "91": 1070,
      "𓊹𓊹": 1071,
      "dein": 1072,
      "ẖr": 1073,
      "400007": 1074,
      "18": 1075,
      "79800": 1076,
      "Sch": 1077,
      "rn": 1078,
      "27": 1079,
      "eit": 1080,
      "ꜥnḫ": 1081,
      "ach": 1082,
      "Der": 1083,
      "von": 1084,
      "850": 1085,
      "𓇓𓏏": 1086,
      "𓇋𓇋": 1087,
      "auf": 1088,
      "ḫt": 1089,
      "inf": 1090,
      "tꜣ": 1091,
      "ḫnt": 1092,
      "om": 1093,
      "wir": 1094,
      "ver": 1095,
      "ro": 1096,
      "nn": 1097,
      "26": 1098,
      "ADJ": 1099,
      "sw": 1100,
      "19": 1101,
      "mdw": 1102,
      "ol": 1103,
      "bt": 1104,
      "ung": 1105,
      "107": 1106,
      "ꞽri̯": 1107,
      "ḥn": 1108,
      "šm": 1109,
      "ster": 1110,
      "ḥw": 1111,
      "44": 1112,
      "res": 1113,
      "Her": 1114,
      "pass": 1115,
      "Ein": 1116,
      "dir": 1117,
      "est": 1118,
      "25": 1119,
      "23": 1120,
      "wꞽ": 1121,
      "sr": 1122,
      "9190": 1123,
      "643": 1124,
      "𓃹𓈖": 1125,
      "𓇋𓋴": 1126,
      "pn": 1127,
      "788": 1128,
      "Ne": 1129,
      "nm": 1130,
      "Ver": 1131,
      "1sg": 1132,
      "nw": 1133,
      "rḏi̯": 1134,
      "wꜥ": 1135,
      "pfer": 1136,
      "wꜣ": 1137,
      "nicht": 1138,
      "bei": 1139,
      "für": 1140,
      "nḏ": 1141,
      "hr": 1142,
      "Königs": 1143,
      "rꜥw": 1144,
      "bꜣ": 1145,
      "46": 1146,
      "?)": 1147,
      "Un": 1148,
      "sꞽr": 1149,
      "hat": 1150,
      "lich": 1151,
      "400034": 1152,
      "𓂋𓏏": 1153,
      "ms": 1154,
      "882": 1155,
      "ut": 1156,
      "920": 1157,
      "ech": 1158,
      "wird": 1159,
      "57": 1160,
      "ꞽt": 1161,
      "mit": 1162,
      "Er": 1163,
      "be": 1164,
      "ḫrw": 1165,
      "sḏ": 1166,
      "ꜥḥ": 1167,
      "Rꜥw": 1168,
      "ft": 1169,
      "𓐍𓏏": 1170,
      "eher": 1171,
      "10030": 1172,
      "33": 1173,
      "men": 1174,
      "ꞽꜣ": 1175,
      "roß": 1176,
      "ne": 1177,
      "ti": 1178,
      "eine": 1179,
      "45": 1180,
      "py": 1181,
      "dich": 1182,
      "ed": 1183,
      "ṯw": 1184,
      "vor": 1185,
      "130": 1186,
      "260": 1187,
      "150": 1188,
      "ꞽmꜣḫ": 1189,
      "OPN": 1190,
      "TOPN": 1191,
      "rel": 1192,
      "72": 1193,
      "mꞽ": 1194,
      "74": 1195,
      "ḥḏ": 1196,
      "ör": 1197,
      "170": 1198,
      "sie": 1199,
      "69": 1200,
      "mꜣꜥ": 1201,
      "gi": 1202,
      "001": 1203,
      "10090": 1204,
      "end": 1205,
      "Wnꞽs": 1206,
      "wnꞽs": 1207,
      "𓇋𓋴𓍺": 1208,
      "ha": 1209,
      "unde": 1210,
      "wer": 1211,
      "𓍹𓃹𓈖": 1212,
      "𓍹𓃹𓈖𓇋𓋴𓍺": 1213,
      "sḫ": 1214,
      "Unas": 1215,
      "800001": 1216,
      "185": 1217,
      "pf": 1218,
      "𓐍𓂋": 1219,
      "4003": 1220,
      "Opfer": 1221,
      "gr": 1222,
      "ꞽḫ": 1223,
      "(?)": 1224,
      "ten": 1225,
      "re": 1226,
      "𓋴𓈖": 1227,
      "iester": 1228,
      "𓇋𓂋": 1229,
      "nter": 1230,
      "Vor": 1231,
      "PRO": 1232,
      "𓇋𓅓": 1233,
      "hꜣ": 1234,
      "hn": 1235,
      "66": 1236,
      "113": 1237,
      "ann": 1238,
      "iris": 1239,
      "ott": 1240,
      "sen": 1241,
      "5500": 1242,
      "Gott": 1243,
      "ẖꜣ": 1244,
      "wḏ": 1245,
      "kom": 1246,
      "$-": 1247,
      "imm": 1248,
      "𓂋𓈖": 1249,
      "ag": 1250,
      "gibt": 1251,
      "ck": 1252,
      "Ka": 1253,
      "73": 1254,
      "816": 1255,
      "qꜣ": 1256,
      "3pl": 1257,
      "wi̯": 1258,
      "mö": 1259,
      "ihn": 1260,
      "87": 1261,
      "geh": 1262,
      "810": 1263,
      "Die": 1264,
      "𓅱𓏏": 1265,
      "22": 1266,
      "Os": 1267,
      "Osiris": 1268,
      "um": 1269,
      "𓅓𓂋": 1270,
      "Wsꞽr": 1271,
      "da": 1272,
      "dies": 1273,
      "spr": 1274,
      "56": 1275,
      "mn": 1276,
      "ab": 1277,
      "𓊪𓏏": 1278,
      "zẖꜣ": 1279,
      "880": 1280,
      "äg": 1281,
      "ꜥḥꜥ": 1282,
      "pri̯": 1283,
      "di̯": 1284,
      "steher": 1285,
      "rei": 1286,
      "fin": 1287,
      "he": 1288,
      "als": 1289,
      "113110": 1290,
      "PROPN": 1291,
      "𓁷𓏤": 1292,
      "Herr": 1293,
      "460": 1294,
      "So": 1295,
      "78890": 1296,
      "Das": 1297,
      "och": 1298,
      "ausend": 1299,
      "DU": 1300,
      "𓏏𓏏": 1301,
      "Br": 1302,
      "𓇋𓈖": 1303,
      "𓊪𓈖": 1304,
      "ind": 1305,
      "oll": 1306,
      "Au": 1307,
      "285": 1308,
      "An": 1309,
      "77": 1310,
      "mt": 1311,
      "ur": 1312,
      "86": 1313,
      "St": 1314,
      "94": 1315,
      "ier": 1316,
      "𓆓𓂧": 1317,
      "Nfr": 1318,
      "Nefer": 1319,
      "𓊵𓏏": 1320,
      "oten": 1321,
      "𓁷𓂋": 1322,
      "ꞽmn": 1323,
      "ꞽwi̯": 1324,
      "160": 1325,
      "𓏏𓏤": 1326,
      "156": 1327,
      "bn": 1328,
      "wn": 1329,
      "ADV": 1330,
      "adv": 1331,
      "seinem": 1332,
      "Ge": 1333,
      "uch": 1334,
      "6700": 1335,
      "gel": 1336,
      "sꜣ": 1337,
      "120": 1338,
      "360": 1339,
      "82": 1340,
      "185810": 1341,
      "advz": 1342,
      "enn": 1343,
      "tʾ": 1344,
      "90260": 1345,
      "ep": 1346,
      "undefin": 1347,
      "28550": 1348,
      "undefined": 1349,
      "Vorsteher": 1350,
      "Du": 1351,
      "290": 1352,
      "300": 1353,
      "and": 1354,
      "ḏr": 1355,
      "741": 1356,
      "ört": 1357,
      "her": 1358,
      "91901": 1359,
      "10100": 1360,
      "𓊪𓅱": 1361,
      "𓍹𓇳": 1362,
      "400156": 1363,
      "tw": 1364,
      "wal": 1365,
      "𓊨𓁹": 1366,
      "59920": 1367,
      "107500": 1368,
      "59741": 1369,
      "ṯn": 1370,
      "Toten": 1371,
      "oder": 1372,
      "einen": 1373,
      "400090": 1374,
      "ze": 1375,
      "wꜥb": 1376,
      "550": 1377,
      "89": 1378,
      "ḥnꜥ": 1379,
      "qr": 1380,
      "),": 1381,
      "tm": 1382,
      "ꞽni̯": 1383,
      "wie": 1384,
      "acht": 1385,
      "8515": 1386,
      "Pr": 1387,
      "ihm": 1388,
      "119": 1389,
      "mw": 1390,
      "ens": 1391,
      "ub": 1392,
      "kommen": 1393,
      "ihr": 1394,
      "1075": 1395,
      "walter": 1396,
      "219": 1397,
      "sich": 1398,
      "tig": 1399,
      "ypt": 1400,
      "sf": 1401,
      "sš": 1402,
      "lei": 1403,
      "ꞽs": 1404,
      "6050": 1405,
      "+(": 1406,
      "hin": 1407,
      "21": 1408,
      "96700": 1409,
      "smr": 1410,
      "bꞽ": 1411,
      "wei": 1412,
      "zp": 1413,
      "über": 1414,
      "echen": 1415,
      "ägypt": 1416,
      "tet": 1417,
      "Groß": 1418,
      "groß": 1419,
      "1749": 1420,
      "𓊪𓊪": 1421,
      "eith": 1422,
      "947": 1423,
      "was": 1424,
      "dam": 1425,
      "ff": 1426,
      "seine": 1427,
      "292": 1428,
      "epi": 1429,
      "174900": 1430,
      "Nꞽ": 1431,
      "Neith": 1432,
      "(=": 1433,
      "ger": 1434,
      "Sohn": 1435,
      "81660": 1436,
      "𓇋𓇋𓍺": 1437,
      "daß": 1438,
      "39": 1439,
      "br": 1440,
      "Unter": 1441,
      "tausend": 1442,
      "1688": 1443,
      "damit": 1444,
      "600": 1445,
      "Pepi": 1446,
      "Re": 1447,
      "sḥḏ": 1448,
      "𓇋𓅱": 1449,
      "266": 1450,
      "851515": 1451,
      "Wor": 1452,
      "öt": 1453,
      "Ppy": 1454,
      "𓍹𓊪𓊪": 1455,
      "500292": 1456,
      "𓍹𓊪𓊪𓇋𓇋𓍺": 1457,
      "sind": 1458,
      "ppy": 1459,
      "tr": 1460,
      "esch": 1461,
      "mḏ": 1462,
      "1255": 1463,
      "zḥ": 1464,
      "ꜥḥꜣ": 1465,
      "𓍿𓅱": 1466,
      "400313": 1467,
      "il": 1468,
      "pd": 1469,
      "Ober": 1470,
      "200": 1471,
      "yt": 1472,
      "6436": 1473,
      "Priester": 1474,
      "740": 1475,
      "𓂋𓐍": 1476,
      "21930": 1477,
      "sḫm": 1478,
      "780": 1479,
      "Ꞽn": 1480,
      "125510": 1481,
      "bist": 1482,
      "870": 1483,
      "ḥs": 1484,
      "rḫ": 1485,
      "sprechen": 1486,
      "𓐍𓅱": 1487,
      "64362": 1488,
      ".:": 1489,
      "644": 1490,
      "geben": 1491,
      "lä": 1492,
      "Verwalter": 1493,
      "ḥꜣb": 1494,
      "𓊵𓏏𓊪": 1495,
      "186050": 1496,
      "Göt": 1497,
      "so": 1498,
      "𓏛𓏥": 1499,
      "Worte": 1500,
      "24": 1501,
      "𓅨𓂋": 1502,
      "410": 1503,
      "sšm": 1504,
      ".(": 1505,
      "Ch": 1506,
      "tep": 1507,
      "wört": 1508,
      "𓅓𓂝": 1509,
      "wörtl": 1510,
      "940": 1511,
      "9490": 1512,
      "mḥ": 1513,
      "len": 1514,
      "Sp": 1515,
      "129490": 1516,
      "ḫrp": 1517,
      "ꞽy": 1518,
      "ges": 1519,
      "Götter": 1520,
      "7029": 1521,
      "kar": 1522,
      "sk": 1523,
      "ḥnq": 1524,
      "Es": 1525,
      "fl": 1526,
      "seiner": 1527,
      "𓊹𓊹𓊹": 1528,
      "76": 1529,
      "pꜣ": 1530,
      "𓏠𓈖": 1531,
      "priester": 1532,
      "250": 1533,
      "385": 1534,
      "957": 1535,
      "deine": 1536,
      "werden": 1537,
      "𓂋𓂝": 1538,
      "Š": 1539,
      "430": 1540,
      "Mr": 1541,
      "war": 1542,
      "gens": 1543,
      "ṯꜣ": 1544,
      "𓇋𓏏": 1545,
      "IN": 1546,
      "TJ": 1547,
      "INTJ": 1548,
      "pi̯": 1549,
      "we": 1550,
      "beiden": 1551,
      "bb": 1552,
      "nh": 1553,
      "ḫpr": 1554,
      "853": 1555,
      "Ꞽnp": 1556,
      "4011": 1557,
      "296": 1558,
      "750": 1559,
      "88040": 1560,
      "𓇋𓌳": 1561,
      "140": 1562,
      "ah": 1563,
      "gs": 1564,
      "gt": 1565,
      "75": 1566,
      "unter": 1567,
      "Mö": 1568,
      "𓋴𓏏": 1569,
      "Ar": 1570,
      "bw": 1571,
      "1628": 1572,
      "mögens": 1573,
      "Mer": 1574,
      "zen": 1575,
      "ßt": 1576,
      "𓂓𓍺": 1577,
      "ꞽnp": 1578,
      "𓈖𓏏𓋌": 1579,
      "Königsver": 1580,
      "Sie": 1581,
      "je": 1582,
      "702960": 1583,
      "wor": 1584,
      "ent": 1585,
      "ḏꜣ": 1586,
      "Königsvermögens": 1587,
      "sor": 1588,
      "𓉔𓄿": 1589,
      "sꞽ": 1590,
      "𓎛𓈖": 1591,
      "kare": 1592,
      "amen": 1593,
      "180": 1594,
      "kr": 1595,
      "ꜥr": 1596,
      "ḫn": 1597,
      "461": 1598,
      "heit": 1599,
      "zꞽ": 1600,
      "sṯ": 1601,
      "mri̯": 1602,
      "49461": 1603,
      "𓍹𓇳𓄤": 1604,
      "Ḫ": 1605,
      "mnḫ": 1606,
      "Ḏ": 1607,
      "𓊵𓏙": 1608,
      "Anub": 1609,
      "Anubis": 1610,
      ":)": 1611,
      "60920": 1612,
      "49460": 1613,
      "590": 1614,
      "op": 1615,
      "𓇓𓅱": 1616,
      "38": 1617,
      "ka": 1618,
      "ḏw": 1619,
      "560": 1620,
      "Lei": 1621,
      "sag": 1622,
      "än": 1623,
      "wꜣḏ": 1624,
      "99": 1625,
      "ḫtm": 1626,
      "ꜥb": 1627,
      "Fest": 1628,
      "𓈖𓐍": 1629,
      "seinen": 1630,
      "soll": 1631,
      "𓍹𓇳𓄤𓂓𓍺": 1632,
      "la": 1633,
      "Neferkare": 1634,
      "820": 1635,
      "Kꜣ": 1636,
      "Gottes": 1637,
      "𓊪𓏲": 1638,
      "𓏏𓈖": 1639,
      "Auf": 1640,
      "Möge": 1641,
      "dn": 1642,
      "jer": 1643,
      "mꜣꜣ": 1644,
      "ẖnm": 1645,
      "werde": 1646,
      "400330": 1647,
      "reiber": 1648,
      "162870": 1649,
      "ꜣb": 1650,
      "möge": 1651,
      "53": 1652,
      "Aha": 1653,
      "ien": 1654,
      "Ꜥḥꜣ": 1655,
      "𓄿𓏏": 1656,
      "einer": 1657,
      "𓊹𓊹𓊹𓊹": 1658,
      "𓇋𓌳𓄪": 1659,
      "zt": 1660,
      "zw": 1661,
      "96": 1662,
      "Ḥw": 1663,
      "882296": 1664,
      "dieser": 1665,
      "Be": 1666,
      "šn": 1667,
      "gm": 1668,
      "5000": 1669,
      "ꞽtꞽ": 1670,
      "ehr": 1671,
      "𓊢𓂝": 1672,
      "alle": 1673,
      "6230": 1674,
      "92": 1675,
      "Gr": 1676,
      "os": 1677,
      "𓂚𓊂": 1678,
      "𓉘𓂚𓊂": 1679,
      "Versor": 1680,
      "mer": 1681,
      "𓉐𓂋": 1682,
      "1277": 1683,
      "äne": 1684,
      "𓇓𓏏𓈖": 1685,
      "Dom": 1686,
      "msi̯": 1687,
      "93": 1688,
      "𓅓𓏏": 1689,
      "190": 1690,
      "He": 1691,
      "343": 1692,
      "Le": 1693,
      "Pt": 1694,
      "ast": 1695,
      "sd": 1696,
      "𓍿𓈖": 1697,
      "ḏsr": 1698,
      "94700": 1699,
      "Domäne": 1700,
      "eti": 1701,
      "Haus": 1702,
      "wbn": 1703,
      "ün": 1704,
      "geb": 1705,
      "dur": 1706,
      "zꜣb": 1707,
      "88227": 1708,
      "Brot": 1709,
      "220": 1710,
      "wnn": 1711,
      "ꜣpd": 1712,
      "𓇋𓏲": 1713,
      "ḫm": 1714,
      "ück": 1715,
      "23290": 1716,
      "38530": 1717,
      "Versorg": 1718,
      "durch": 1719,
      "83": 1720,
      "deinen": 1721,
      "25130": 1722,
      "echt": 1723,
      "><": 1724,
      "lt": 1725,
      "ḥb": 1726,
      "587": 1727,
      "sḏm": 1728,
      "270": 1729,
      "860": 1730,
      "ḫsf": 1731,
      "972": 1732,
      "ib": 1733,
      "po": 1734,
      "𓂧𓈖": 1735,
      "𓌸𓂋": 1736,
      "ehen": 1737,
      "1190": 1738,
      "27360": 1739,
      "𓇓𓏏𓂋𓐍": 1740,
      "immel": 1741,
      "angen": 1742,
      "142": 1743,
      "deinem": 1744,
      "bl": 1745,
      "ꞽz": 1746,
      "ät": 1747,
      "662": 1748,
      "𓆓𓌃": 1749,
      "indem": 1750,
      "šr": 1751,
      "ꞽmi̯": 1752,
      "fertig": 1753,
      "mꜥ": 1754,
      "worden": 1755,
      "246": 1756,
      "Sein": 1757,
      "ahr": 1758,
      "ꜥi̯": 1759,
      "ḫft": 1760,
      "lichen": 1761,
      "Himmel": 1762,
      "opfer": 1763,
      "59740": 1764,
      "großen": 1765,
      "ler": 1766,
      "ange": 1767,
      "šmꜥ": 1768,
      "ipf": 1769,
      "ipfv": 1770,
      "fꜣ": 1771,
      "ken": 1772,
      "pḥ": 1773,
      "4506": 1774,
      "pꞽ": 1775,
      "𓂋𓏤": 1776,
      "𓌨𓂋": 1777,
      "𓎟𓏏": 1778,
      "auch": 1779,
      "alast": 1780,
      "ef": 1781,
      "se": 1782,
      "ḫwi̯": 1783,
      "Unterägypt": 1784,
      "ige": 1785,
      "nach": 1786,
      "𓊹𓍛": 1787,
      "ang": 1788,
      "hrw": 1789,
      "Totenpriester": 1790,
      "107510": 1791,
      "26870": 1792,
      "Ich": 1793,
      "gekommen": 1794,
      "Kai": 1795,
      "qrs": 1796,
      "97240": 1797,
      "keit": 1798,
      "78873": 1799,
      "𓎛𓈖𓂝": 1800,
      "34320": 1801,
      "54": 1802,
      "chen": 1803,
      "äch": 1804,
      "nhp": 1805,
      "Fr": 1806,
      "si̯": 1807,
      "𓄣𓏤": 1808,
      "𓈖𓏌": 1809,
      "64364": 1810,
      "𓆓𓏏": 1811,
      "gesch": 1812,
      "1510": 1813,
      "igen": 1814,
      "67780": 1815,
      "nimm": 1816,
      "4009": 1817,
      "𓏏𓏏𓇋": 1818,
      "(?": 1819,
      "925": 1820,
      "Sei": 1821,
      "lie": 1822,
      "tel": 1823,
      "isch": 1824,
      "u̯": 1825,
      "ww": 1826,
      "𓂋𓅱": 1827,
      "𓊨𓏏": 1828,
      "šs": 1829,
      "4340": 1830,
      "gehen": 1831,
      "168810": 1832,
      "78": 1833,
      "Set": 1834,
      "ttꞽ": 1835,
      "𓄤𓆑": 1836,
      "echtfertig": 1837,
      "ern": 1838,
      "ügel": 1839,
      "nbw": 1840,
      "Sen": 1841,
      "𓃀𓏏": 1842,
      "tꞽt": 1843,
      "zum": 1844,
      "Palast": 1845,
      "Ttꞽ": 1846,
      "seher": 1847,
      "zi̯": 1848,
      "ꞽḥ": 1849,
      "𓉐𓏤": 1850,
      "30750": 1851,
      "dwꜣ": 1852,
      "81650": 1853,
      "4500": 1854,
      "Geh": 1855,
      "Kr": 1856,
      "Teti": 1857,
      "tt": 1858,
      "ꞽṯ": 1859,
      "48": 1860,
      "520": 1861,
      "Seine": 1862,
      "Horusau": 1863,
      "700": 1864,
      "hor": 1865,
      "zn": 1866,
      "cht": 1867,
      "ont": 1868,
      "sms": 1869,
      "gef": 1870,
      "sštꜣ": 1871,
      "Hat": 1872,
      "wo": 1873,
      "𓂝𓏏": 1874,
      "ḥqꜣ": 1875,
      "400015": 1876,
      "2820": 1877,
      "fꞽ": 1878,
      "𓋹𓈖𓐍": 1879,
      "üt": 1880,
      "𓏏𓏏𓇋𓍺": 1881,
      "Horusauge": 1882,
      "845": 1883,
      "nr": 1884,
      "𓍹𓏏𓏏𓇋𓍺": 1885,
      "470": 1886,
      "itze": 1887,
      "schön": 1888,
      "24640": 1889,
      "bḥ": 1890,
      "voll": 1891,
      "ḥꜥ": 1892,
      "28410": 1893,
      "95740": 1894,
      "dist": 1895,
      "sp": 1896,
      "𓂧𓏏": 1897,
      "tier": 1898,
      "Leiter": 1899,
      "711": 1900,
      "šꜣ": 1901,
      "leben": 1902,
      "8520": 1903,
      "28170": 1904,
      "kommt": 1905,
      "Fre": 1906,
      "𓏤𓏤": 1907,
      "1062": 1908,
      "ꞽwꜣ": 1909,
      "nefer": 1910,
      "Ger": 1911,
      "kn": 1912,
      "wsꞽr": 1913,
      "ꞽnk": 1914,
      "64366": 1915,
      "550028": 1916,
      "𓊪𓏏𓇯": 1917,
      "ꞽṯi̯": 1918,
      "Ma": 1919,
      "dr": 1920,
      "fol": 1921,
      "ꞽp": 1922,
      "ande": 1923,
      "ẖnw": 1924,
      "Schl": 1925,
      "310": 1926,
      "kw": 1927,
      "qs": 1928,
      "𓈖𓈖": 1929,
      "Aufseher": 1930,
      "ꜣḏ": 1931,
      "mrr": 1932,
      "nzw": 1933,
      "wnm": 1934,
      "̈l": 1935,
      "nḫt": 1936,
      "1112": 1937,
      "tꞽw": 1938,
      "Geb": 1939,
      "𓈙𓏏": 1940,
      "𓋴𓌉": 1941,
      "Ḥtp": 1942,
      "271": 1943,
      "Herrn": 1944,
      "2pl": 1945,
      "Namen": 1946,
      "ungen": 1947,
      "wur": 1948,
      "šzp": 1949,
      "wirst": 1950,
      "Hetep": 1951,
      "280": 1952,
      "gmi̯": 1953,
      "ss": 1954,
      "𓈎𓂋": 1955,
      "1670": 1956,
      "4990": 1957,
      "Herz": 1958,
      "64410": 1959,
      "58710": 1960,
      "zur": 1961,
      "ꞽyi̯": 1962,
      "kro": 1963,
      "nen": 1964,
      "gegeben": 1965,
      "238": 1966,
      "710": 1967,
      "det": 1968,
      "ieb": 1969,
      "ṯwt": 1970,
      "10120": 1971,
      "einem": 1972,
      "gegen": 1973,
      "Schreiber": 1974,
      "510": 1975,
      "Gut": 1976,
      "rnp": 1977,
      "Nekro": 1978,
      "900": 1979,
      "Ab": 1980,
      "Bier": 1981,
      "ꜥḏ": 1982,
      "Spitze": 1983,
      "66270": 1984,
      "450656": 1985,
      "Gel": 1986,
      "bin": 1987,
      "wpi̯": 1988,
      "𓂜𓈖": 1989,
      "10130": 1990,
      "157": 1991,
      "wrr": 1992,
      "asser": 1993,
      "Seth": 1994,
      "Den": 1995,
      "Tausend": 1996,
      "Wasser": 1997,
      "𓁹𓏏": 1998,
      "nmt": 1999,
      "550034": 2000,
      "Ges": 2001,
      "seines": 2002,
      "Šmꜥ": 2003,
      "106200": 2004,
      "wurde": 2005,
      "26660": 2006,
      "jen": 2007,
      "𓊃𓏏": 2008,
      "𓍘𓇋": 2009,
      "ßen": 2010,
      "𓇋𓏶": 2011,
      "110300": 2012,
      "Oberägypt": 2013,
      "Va": 2014,
      "snḏ": 2015,
      "hast": 2016,
      "𓄤𓆑𓂋": 2017,
      "Vater": 2018,
      "713": 2019,
      "eil": 2020,
      "Totenopfer": 2021,
      "pole": 2022,
      "330": 2023,
      "H̱": 2024,
      "𓋴𓌮": 2025,
      "𓌳𓁹": 2026,
      "𓏌𓏌": 2027,
      "Großen": 2028,
      "eschem": 2029,
      "Nekropole": 2030,
      "dp": 2031,
      "ri": 2032,
      "𓐍𓅓": 2033,
      "Arm": 2034,
      "92560": 2035,
      "-(": 2036,
      "Al": 2037,
      "ke": 2038,
      "168860": 2039,
      "Wer": 2040,
      "best": 2041,
      "my": 2042,
      "850238": 2043,
      "64365": 2044,
      "Leben": 2045,
      "32820": 2046,
      "dann": 2047,
      "wenn": 2048,
      "400082": 2049,
      "𓋴𓈖𓏥": 2050,
      "Freund": 2051,
      "790": 2052,
      "𓅨𓂋𓏏": 2053,
      "ammen": 2054,
      "ski̯": 2055,
      "tn": 2056,
      "91902": 2057,
      "91903": 2058,
      "𓇋𓌳𓄪𓐍𓅱": 2059,
      "Mund": 2060,
      "sei": 2061,
      "ausg": 2062,
      "1250": 2063,
      "igkeit": 2064,
      "ḥmsi̯": 2065,
      "667": 2066,
      "kann": 2067,
      "qd": 2068,
      "Ach": 2069,
      "man": 2070,
      "noch": 2071,
      "ses": 2072,
      "wdi̯": 2073,
      "𓆱𓐍𓏏": 2074,
      "𓈖𓉔": 2075,
      "ieden": 2076,
      "eines": 2077,
      "šdi̯": 2078,
      "78874": 2079,
      "usammen": 2080,
      "AU": 2081,
      "rd": 2082,
      "𓅜𓅜": 2083,
      "72470": 2084,
      "AUX": 2085,
      "240": 2086,
      "cns": 2087,
      "oh": 2088,
      "zer": 2089,
      "𓇋𓄿": 2090,
      "𓋴𓍋": 2091,
      "103": 2092,
      "𓇋𓇋𓏏": 2093,
      "cnsv": 2094,
      "63": 2095,
      "749": 2096,
      "doch": 2097,
      "𓂋𓏙": 2098,
      "𓏏𓏲": 2099,
      "sollst": 2100,
      "H̱nm": 2101,
      "890": 2102,
      "𓈇𓏤": 2103,
      "𓈎𓄿": 2104,
      "𓈒𓏥": 2105,
      "ort": 2106,
      "Jung": 2107,
      "Wunde": 2108,
      "fen": 2109,
      "emti": 2110,
      "šms": 2111,
      "geht": 2112,
      "127770": 2113,
      "sb": 2114,
      "dessen": 2115,
      "wegen": 2116,
      "Versorgte": 2117,
      "84550": 2118,
      "Chn": 2119,
      "wsr": 2120,
      "𓏃𓏏": 2121,
      "stel": 2122,
      "ingen": 2123,
      "gem": 2124,
      "1672": 2125,
      "äl": 2126,
      "beim": 2127,
      "ḥsb": 2128,
      "830": 2129,
      "obl": 2130,
      "𓂓𓂓": 2131,
      "𓋴𓎡": 2132,
      "7350": 2133,
      "94720": 2134,
      "Chnum": 2135,
      "Men": 2136,
      "dar": 2137,
      "mwt": 2138,
      "400092": 2139,
      "ptḥ": 2140,
      "28250": 2141,
      "dass": 2142,
      "flügel": 2143,
      "oblv": 2144,
      "Mann": 2145,
      "halle": 2146,
      "mu": 2147,
      "rm": 2148,
      "𓏌𓏏": 2149,
      "ste": 2150,
      "104990": 2151,
      "alt": 2152,
      "šmi̯": 2153,
      "Jungtier": 2154,
      "690": 2155,
      "Dein": 2156,
      "Öl": 2157,
      "šp": 2158,
      "ürd": 2159,
      "Gelieb": 2160,
      "36": 2161,
      "les": 2162,
      "ute": 2163,
      "𓆑𓍺": 2164,
      "𓎛𓃀": 2165,
      "1256": 2166,
      "Stẖ": 2167,
      "Wei": 2168,
      "dung": 2169,
      "nḥb": 2170,
      "pẖr": 2171,
      "ṯr": 2172,
      "𓋴𓂧": 2173,
      "sten": 2174,
      "40110": 2175,
      "sḏr": 2176,
      "wḏꜣ": 2177,
      "mḏḥ": 2178,
      "Unterägypten": 2179,
      "Che": 2180,
      "Dn": 2181,
      "Wenn": 2182,
      "bel": 2183,
      "mir": 2184,
      "rs": 2185,
      "𓀀𓏥": 2186,
      "𓏏𓅱": 2187,
      "etjer": 2188,
      "zusammen": 2189,
      "anch": 2190,
      "(?).": 2191,
      "aa": 2192,
      "𓏙𓊵": 2193,
      "Große": 2194,
      "882275": 2195,
      "Gesicht": 2196,
      "Nemti": 2197,
      "glich": 2198,
      "rt": 2199,
      "ꞽd": 2200,
      "𓐍𓈖": 2201,
      "šw": 2202,
      "116230": 2203,
      "wꞽꜣ": 2204,
      "Ptḥ": 2205,
      "Nmt": 2206,
      "Was": 2207,
      "eu": 2208,
      "203": 2209,
      "116": 2210,
      "178": 2211,
      "haben": 2212,
      "Herrin": 2213,
      "Bru": 2214,
      "64440": 2215,
      "Hü": 2216,
      "148520": 2217,
      "nḏr": 2218,
      "sagte": 2219,
      "Denn": 2220,
      "gangen": 2221,
      "pꜥ": 2222,
      "psḏ": 2223,
      "sm": 2224,
      "Ꞽy": 2225,
      "𓉐𓉻": 2226,
      "𓉘𓂧𓈖": 2227,
      "𓋴𓃀": 2228,
      "dern": 2229,
      "kai": 2230,
      "74950": 2231,
      "𓉘𓂧𓈖𓊂": 2232,
      "-)": 2233,
      "37": 2234,
      "Deine": 2235,
      "Ko": 2236,
      "rwḏ": 2237,
      "𓂧𓅱": 2238,
      "𓊤︂": 2239,
      "𓏇𓇋": 2240,
      "1046": 2241,
      "ḏb": 2242,
      "7070": 2243,
      "125": 2244,
      "bꜣḥ": 2245,
      "(?),": 2246,
      "155": 2247,
      "440": 2248,
      "Da": 2249,
      "dau": 2250,
      "400142": 2251,
      "207": 2252,
      "šsꜣ": 2253,
      "2840": 2254,
      "hervor": 2255,
      "Mögest": 2256,
      "Nb": 2257,
      "𓀀𓁐": 2258,
      "ṯzi̯": 2259,
      "iger": 2260,
      "67820": 2261,
      "25090": 2262,
      "95750": 2263,
      "610": 2264,
      "Gbb": 2265,
      "fest": 2266,
      "ꞽwn": 2267,
      "107529": 2268,
      "Ptah": 2269,
      "125010": 2270,
      "Seschem": 2271,
      "𓁹𓈖": 2272,
      "𓆑𓏏": 2273,
      "𓈎𓂝": 2274,
      "𓈖𓆓": 2275,
      "8522": 2276,
      "schen": 2277,
      "66750": 2278,
      "aft": 2279,
      "fe": 2280,
      "sehr": 2281,
      "za": 2282,
      "881": 2283,
      "assen": 2284,
      "91904": 2285,
      "167010": 2286,
      ".\"": 2287,
      "143": 2288,
      "rꜥ": 2289,
      "smꜣ": 2290,
      "𓅱𓍺": 2291,
      "𓌳𓐙": 2292,
      "𓏅𓏏": 2293,
      "ḫb": 2294,
      "1547": 2295,
      "4502": 2296,
      "lebt": 2297,
      "ṯꜣz": 2298,
      "Hauses": 2299,
      "32": 2300,
      "Sšm": 2301,
      "000": 2302,
      "ḥtm": 2303,
      "28150": 2304,
      "atz": 2305,
      "ochter": 2306,
      "𓍹𓇳𓌸": 2307,
      "21881": 2308,
      "ex": 2309,
      "fü": 2310,
      "pp": 2311,
      "𓆤𓏏": 2312,
      "𓇋𓂝": 2313,
      "8544": 2314,
      "1220": 2315,
      "schl": 2316,
      "𓊪𓏏𓎛": 2317,
      "119260": 2318,
      "ffen": 2319,
      "Verwalterin": 2320,
      "𓊢𓂝𓈖": 2321,
      "𓌳𓁹𓄿": 2322,
      "279": 2323,
      "480": 2324,
      "81": 2325,
      "956": 2326,
      "Land": 2327,
      "gꜣ": 2328,
      "hy": 2329,
      "qbḥ": 2330,
      "ꜥm": 2331,
      "𓁶𓏤": 2332,
      "𓋴𓍿": 2333,
      "𓏏𓏭": 2334,
      "ert": 2335,
      "šꜥ": 2336,
      "ẖn": 2337,
      "PRON": 2338,
      "Dar": 2339,
      "Lie": 2340,
      "such": 2341,
      "wä": 2342,
      "𓅭𓏏": 2343,
      "𓊃𓀀": 2344,
      "𓋴𓌂": 2345,
      "𓌻𓂋": 2346,
      "aufhin": 2347,
      "𓆓𓂧𓇋𓈖": 2348,
      "40111": 2349,
      "fn": 2350,
      "kt": 2351,
      "𓇓𓏲": 2352,
      "𓈐𓈐": 2353,
      "öff": 2354,
      "all": 2355,
      "hꜣi̯": 2356,
      "ächtig": 2357,
      "D207": 2358,
      "Mut": 2359,
      "Sach": 2360,
      "We": 2361,
      "ht": 2362,
      "pel": 2363,
      "snṯr": 2364,
      "ꜥq": 2365,
      "𓇑𓇑": 2366,
      "𓋴𓂋": 2367,
      "𓍿𓊃": 2368,
      "igt": 2369,
      "46050": 2370,
      "Chen": 2371,
      "Ḫwi̯": 2372,
      "84": 2373,
      "Ni": 2374,
      "Qꜣ": 2375,
      "gbb": 2376,
      "swt": 2377,
      "Ꜣb": 2378,
      "𓁹𓅃": 2379,
      "𓅓𓎃": 2380,
      "𓏌𓏲": 2381,
      "eni": 2382,
      "allen": 2383,
      "150560": 2384,
      "𓋴𓌮𓄤": 2385,
      "bꞽꜣ": 2386,
      "iz": 2387,
      "𓁹𓏏𓏤": 2388,
      "𓅇𓅓𓎃": 2389,
      "𓅬𓃀": 2390,
      "𓅱𓂝": 2391,
      "𓊃𓈖": 2392,
      "𓍹𓅇𓅓𓎃": 2393,
      "Und": 2394,
      "vorsteher": 2395,
      "𓂋𓈖𓍺": 2396,
      "401175": 2397,
      "Meren": 2398,
      "𓍹𓇳𓌸𓂋𓈖𓍺": 2399,
      "854416": 2400,
      "𓍹𓅇𓅓𓎃𓆑𓍺": 2401,
      "ser": 2402,
      "𓌢𓈖": 2403,
      "ḫꜥi̯": 2404,
      "einz": 2405,
      "136": 2406,
      "4505": 2407,
      "ihre": 2408,
      "dieses": 2409,
      "Schlange": 2410,
      "Merenre": 2411,
      "467": 2412,
      "620": 2413,
      "990": 2414,
      "Lang": 2415,
      "Nw": 2416,
      "𓌃𓆓": 2417,
      "gegangen": 2418,
      "ꞽtr": 2419,
      "ꞽꜣb": 2420,
      "Geflügel": 2421,
      "distr": 2422,
      "'.": 2423,
      "52": 2424,
      "km": 2425,
      "nʾ": 2426,
      "𓆣𓂋": 2427,
      "𓇋𓊪": 2428,
      "281": 2429,
      "veran": 2430,
      "5720": 2431,
      "Erde": 2432,
      "qꜣb": 2433,
      "Ḏd": 2434,
      "167210": 2435,
      "Mutter": 2436,
      "agen": 2437,
      "ho": 2438,
      "iden": 2439,
      "svoll": 2440,
      "𓄔𓅓": 2441,
      "nḏm": 2442,
      "119590": 2443,
      "𓐍𓅱𓆑": 2444,
      "sagt": 2445,
      "Palastes": 2446,
      "Hüter": 2447,
      "122080": 2448,
      "Ḏr": 2449,
      "Dann": 2450,
      "D77": 2451,
      "Djer": 2452,
      "Hand": 2453,
      "Mḥ": 2454,
      "Tꜣ": 2455,
      "bis": 2456,
      "sbꜣ": 2457,
      "𓅐𓏏": 2458,
      "𓎛𓏏": 2459,
      "𓎟𓆑": 2460,
      "äß": 2461,
      "45190": 2462,
      "69300": 2463,
      "5503": 2464,
      "154760": 2465,
      "51510": 2466,
      "Th": 2467,
      "Wab": 2468,
      "epriester": 2469,
      "wš": 2470,
      "ßer": 2471,
      "𓂋𓐍𓏏": 2472,
      "𓃀𓈖": 2473,
      "elt": 2474,
      "etzt": 2475,
      "1940": 2476,
      "ꞽꜣwi̯": 2477,
      "𓐍𓂋𓊹": 2478,
      "Vorles": 2479,
      "Ḏḥw": 2480,
      "nachdem": 2481,
      "andel": 2482,
      "𓈖𓉔𓊪": 2483,
      "nḏri̯": 2484,
      "ḏbꜥ": 2485,
      "Vorlesepriester": 2486,
      "Kam": 2487,
      "Tag": 2488,
      "𓇦𓂋": 2489,
      "𓇳𓎟": 2490,
      "𓎛𓂝": 2491,
      "𓐍𓊪": 2492,
      "aut": 2493,
      "882281": 2494,
      "Ṯ": 2495,
      "mann": 2496,
      "ꞽꜥb": 2497,
      "𓏎𓈖": 2498,
      "ḥz": 2499,
      "90360": 2500,
      "85430": 2501,
      "mdwi̯": 2502,
      "ḥwi̯": 2503,
      "33560": 2504,
      "6950": 2505,
      "iener": 2506,
      "Kopf": 2507,
      "95620": 2508,
      "𓊃𓀀𓏤": 2509,
      "Thot": 2510,
      "380": 2511,
      "420": 2512,
      "mich": 2513,
      "𓉻𓂝": 2514,
      "ḏꞽ": 2515,
      "8555": 2516,
      "8000": 2517,
      "arke": 2518,
      "wꜣḥ": 2519,
      "!\"": 2520,
      "933": 2521,
      "Gau": 2522,
      "Nas": 2523,
      "Pat": 2524,
      "haus": 2525,
      "𓄤𓂋𓏏": 2526,
      "ing": 2527,
      "oren": 2528,
      "ẖkr": 2529,
      "one": 2530,
      "isses": 2531,
      "diesem": 2532,
      "gerechtfertig": 2533,
      "707086": 2534,
      "216": 2535,
      "980": 2536,
      "Ak": 2537,
      "At": 2538,
      "Zu": 2539,
      "jest": 2540,
      "sel": 2541,
      "ḫpi̯": 2542,
      "ied": 2543,
      "124": 2544,
      "4750": 2545,
      "sšr": 2546,
      "Gotteshalle": 2547,
      "127740": 2548,
      "Gehei": 2549,
      "lebensvoll": 2550,
      "Gerechtfertig": 2551,
      "Majest": 2552,
      "izont": 2553,
      "Majestät": 2554,
      "210": 2555,
      "Qaa": 2556,
      "Wꜣḏ": 2557,
      "nis": 2558,
      "stš": 2559,
      "ame": 2560,
      "ꞽrr": 2561,
      "Horizont": 2562,
      "issen": 2563,
      "181": 2564,
      "estlichen": 2565,
      "𓈖𓏌𓏲": 2566,
      "111230": 2567,
      "69040": 2568,
      "104690": 2569,
      "𓀀𓁐𓏥": 2570,
      "gerechtfertigt": 2571,
      "570": 2572,
      "660": 2573,
      "Macht": 2574,
      "Wadj": 2575,
      "fd": 2576,
      "ky": 2577,
      "ru": 2578,
      "𓊃𓊪": 2579,
      "𓐍𓐍": 2580,
      "136230": 2581,
      "schreiber": 2582,
      "4780": 2583,
      "deiner": 2584,
      "grg": 2585,
      "grü": 2586,
      "jeder": 2587,
      "rmṯ": 2588,
      "Geheimn": 2589,
      "Ba": 2590,
      "Fl": 2591,
      "rein": 2592,
      "𓌡𓏏𓏤": 2593,
      "ers": 2594,
      "ḏḥw": 2595,
      "eich": 2596,
      "attet": 2597,
      "2930": 2598,
      "4730": 2599,
      "𓐍𓏏𓏛𓏥": 2600,
      "73940": 2601,
      "aba": 2602,
      "Augen": 2603,
      "𓁷𓂋𓋴": 2604,
      "𓋴𓏏𓈙": 2605,
      "71170": 2606,
      "27940": 2607,
      "Langhor": 2608,
      "149": 2609,
      "Aus": 2610,
      "Psḏ": 2611,
      "gler": 2612,
      "klä": 2613,
      "snb": 2614,
      "utet": 2615,
      "𓍹𓐍𓅱𓆑": 2616,
      "ḥkꜣ": 2617,
      "705": 2618,
      "161940": 2619,
      "156950": 2620,
      "frieden": 2621,
      "1750": 2622,
      "swꜣ": 2623,
      "wieder": 2624,
      "𓈙𓏏𓍔": 2625,
      "Daraufhin": 2626,
      "𓍹𓐍𓅱𓆑𓅱𓍺": 2627,
      "227": 2628,
      "640": 2629,
      "Zꜣ": 2630,
      "bst": 2631,
      "fte": 2632,
      "𓂝𓏤": 2633,
      "𓃀𓅱": 2634,
      "𓇳𓏤": 2635,
      "𓉘𓊹": 2636,
      "steh": 2637,
      "104730": 2638,
      "124340": 2639,
      "mrḥ": 2640,
      "ḥmw": 2641,
      "edj": 2642,
      "bracht": 2643,
      "46710": 2644,
      "93320": 2645,
      "Tochter": 2646,
      "ew": 2647,
      "täg": 2648,
      "ꞽsṯ": 2649,
      "𓄡𓊂": 2650,
      "indes": 2651,
      "unheit": 2652,
      "8512": 2653,
      "šꞽ": 2654,
      "šnw": 2655,
      "158": 2656,
      "mrw": 2657,
      "85080": 2658,
      "2360": 2659,
      "hren": 2660,
      "22160": 2661,
      "hetep": 2662,
      "ihren": 2663,
      "šni̯": 2664,
      "157160": 2665,
      "Geheimnisses": 2666,
      "abaster": 2667,
      "730": 2668,
      "840": 2669,
      "95": 2670,
      "Klei": 2671,
      "mach": 2672,
      "pḏ": 2673,
      "𓆼𓄿": 2674,
      "𓇾𓈇𓏤": 2675,
      "𓍯𓄿": 2676,
      "𓏏𓆑": 2677,
      "𓏏𓉐": 2678,
      "stp": 2679,
      "8516": 2680,
      "1200": 2681,
      "4503": 2682,
      "6210": 2683,
      "170860": 2684,
      "ops": 2685,
      "27040": 2686,
      "folglich": 2687,
      "zurück": 2688,
      "Cheops": 2689,
      "andeln": 2690,
      "Kammer": 2691,
      "760": 2692,
      "98": 2693,
      "Dj": 2694,
      "zḫn": 2695,
      "ꜥn": 2696,
      "𓄂𓂝": 2697,
      "𓇋𓍯": 2698,
      "𓌸𓇋𓇋": 2699,
      "𓎡𓅱": 2700,
      "unden": 2701,
      "ander": 2702,
      "159": 2703,
      "𓂋𓐍𓏛": 2704,
      "Siehe": 2705,
      "ätte": 2706,
      "Himmels": 2707,
      "Alabaster": 2708,
      "424": 2709,
      "Best": 2710,
      "lung": 2711,
      "md": 2712,
      "𓅠𓅓": 2713,
      "𓇋𓃀": 2714,
      "𓍿𓅱𓏏": 2715,
      "60220": 2716,
      "47280": 2717,
      "olis": 2718,
      "3300": 2719,
      "Anch": 2720,
      "Chont": 2721,
      "amenti": 2722,
      "𓆓𓏏𓇿": 2723,
      "schönen": 2724,
      "Langhornr": 2725,
      "175050": 2726,
      "Chontamenti": 2727,
      "Knoch": 2728,
      "az": 2729,
      "dšr": 2730,
      "mächtig": 2731,
      "sḫr": 2732,
      "wp": 2733,
      "wḥm": 2734,
      "𓂻𓈖": 2735,
      "𓅜𓐍𓏏": 2736,
      "10060": 2737,
      "90940": 2738,
      "zufrieden": 2739,
      "170100": 2740,
      "wḏꜥ": 2741,
      "8670": 2742,
      "89850": 2743,
      "geboren": 2744,
      "Oberägyptens": 2745,
      "370": 2746,
      "97": 2747,
      "Nun": 2748,
      "mnꞽ": 2749,
      "ui": 2750,
      "𓁹𓊨": 2751,
      "stei": 2752,
      "7076": 2753,
      "gebracht": 2754,
      "1950": 2755,
      "ihnen": 2756,
      "𓃀𓏏𓄹": 2757,
      "rift": 2758,
      "𓂋𓏙𓈖": 2759,
      "125630": 2760,
      "Liefer": 2761,
      "225": 2762,
      "41": 2763,
      "Ber": 2764,
      "In": 2765,
      "Nut": 2766,
      "mm": 2767,
      "mnw": 2768,
      "𓆑𓏭": 2769,
      "𓆓𓆑": 2770,
      "𓏏𓍃": 2771,
      "109": 2772,
      "1323": 2773,
      "tern": 2774,
      "liche": 2775,
      "5780": 2776,
      "69000": 2777,
      "cken": 2778,
      "diese": 2779,
      "Is": 2780,
      "dos": 2781,
      "hm": 2782,
      "ydos": 2783,
      "Ꞽtm": 2784,
      "𓊪𓆑": 2785,
      "𓎛𓋴": 2786,
      "115": 2787,
      "80940": 2788,
      "ören": 2789,
      "882272": 2790,
      "Abydos": 2791,
      "33040": 2792,
      "Leinen": 2793,
      "Nṯr": 2794,
      "fahr": 2795,
      "mein": 2796,
      "rw": 2797,
      "𓉐𓊤": 2798,
      "inder": 2799,
      "30410": 2800,
      "85150": 2801,
      "1239": 2802,
      "161": 2803,
      "154340": 2804,
      "28160": 2805,
      "art": 2806,
      "weg": 2807,
      "3890": 2808,
      "ienten": 2809,
      "wobei": 2810,
      "Ꜣbḏ": 2811,
      "Akten": 2812,
      "Knochen": 2813,
      "Barke": 2814,
      "aber": 2815,
      "dj": 2816,
      "lassen": 2817,
      "nḥ": 2818,
      "zmy": 2819,
      "𓂝𓏝": 2820,
      "𓇬𓈖": 2821,
      "𓈏𓈏": 2822,
      "šf": 2823,
      "öl": 2824,
      "111510": 2825,
      "Ḥꜣb": 2826,
      "176": 2827,
      "usch": 2828,
      "44430": 2829,
      "25170": 2830,
      "licher": 2831,
      "bek": 2832,
      "458": 2833,
      "ḏꜣi̯": 2834,
      "𓇋𓌳𓄪𓐍": 2835,
      "post": 2836,
      "Ii": 2837,
      "eb": 2838,
      "nḥm": 2839,
      "𓂝𓊢𓂝": 2840,
      "𓈞𓅓": 2841,
      "𓍛𓏤": 2842,
      "eister": 2843,
      "annt": 2844,
      "1780": 2845,
      "ḫꜣi̯": 2846,
      "eiten": 2847,
      "ommen": 2848,
      "26150": 2849,
      "2200": 2850,
      "119610": 2851,
      "Unterägyptens": 2852,
      "Hathor": 2853,
      "Geliebter": 2854,
      "419": 2855,
      "Ehrw": 2856,
      "mꞽn": 2857,
      "sagen": 2858,
      "ꜣw": 2859,
      "𓇋𓁹": 2860,
      "𓈖𓄓": 2861,
      "𓍑𓄿": 2862,
      "𓏌𓅱": 2863,
      "gele": 2864,
      "1587": 2865,
      "äh": 2866,
      "schüt": 2867,
      "450161": 2868,
      "62500": 2869,
      "gehört": 2870,
      "88060": 2871,
      "𓆓𓂧𓈖": 2872,
      "20030": 2873,
      "Frau": 2874,
      "gemacht": 2875,
      "852270": 2876,
      "Patienten": 2877,
      "Atum": 2878,
      "täglich": 2879,
      "Kleidung": 2880,
      "390": 2881,
      "3du": 2882,
      "Man": 2883,
      "rk": 2884,
      "𓏏𓏐": 2885,
      "105780": 2886,
      "ḏs": 2887,
      "8513": 2888,
      "denn": 2889,
      "80012": 2890,
      "ḥmi̯": 2891,
      "450158": 2892,
      "immer": 2893,
      "120790": 2894,
      "Spei": 2895,
      "ḥbs": 2896,
      "111260": 2897,
      "bestattet": 2898,
      "125100": 2899,
      "dauern": 2900,
      "𓊃𓊪𓊗": 2901,
      "42490": 2902,
      "Isis": 2903,
      "Ehrwürd": 2904,
      "Sem": 2905,
      "ren": 2906,
      "ty": 2907,
      "westlichen": 2908,
      "Ꜣs": 2909,
      "𓂭𓂭": 2910,
      "𓇋𓂧": 2911,
      "𓈙𓈖": 2912,
      "𓏎𓈖𓏏": 2913,
      "ḥkn": 2914,
      "400178": 2915,
      "100520": 2916,
      "1191": 2917,
      "147350": 2918,
      "𓃹𓈖𓈖": 2919,
      "Neunheit": 2920,
      "bede": 2921,
      "338": 2922,
      "Großer": 2923,
      "26670": 2924,
      "Krone": 2925,
      "Aktenschreiber": 2926,
      "keine": 2927,
      "rmn": 2928,
      "set": 2929,
      "ꜣg": 2930,
      "𓅯𓄿": 2931,
      "𓇥𓂋": 2932,
      "𓌠𓌠": 2933,
      "𓌸𓂋𓏏": 2934,
      "𓏅𓈖𓏏": 2935,
      "nṯ": 2936,
      "šwi̯": 2937,
      "8820": 2938,
      "163890": 2939,
      "ett": 2940,
      "eten": 2941,
      "146": 2942,
      "sterben": 2943,
      "ḥsi̯": 2944,
      "Chenti": 2945,
      "𓁹𓊨𓀭": 2946,
      "Min": 2947,
      "Rind": 2948,
      "Sed": 2949,
      "uß": 2950,
      "Ꜥnḫ": 2951,
      "𓅱𓀀": 2952,
      "𓎛𓁷𓂋": 2953,
      "𓏌𓏤": 2954,
      "𓐍𓋴": 2955,
      "ersch": 2956,
      "ḏfꜣ": 2957,
      "4006": 2958,
      "šd": 2959,
      "ank": 2960,
      "angeht": 2961,
      "175": 2962,
      "schw": 2963,
      "146700": 2964,
      "ḫꜣs": 2965,
      "47271": 2966,
      "𓇓𓏏𓆤𓏏": 2967,
      "44590": 2968,
      "ckt": 2969,
      "iert": 2970,
      "𓁷𓂋𓋴𓈙𓏏𓍔": 2971,
      "945": 2972,
      "91190": 2973,
      "rdi̯": 2974,
      "spd": 2975,
      "𓂝𓈖": 2976,
      "𓇋𓆑": 2977,
      "𓉘𓈎𓂝": 2978,
      "𓋴𓅓": 2979,
      "𓋴𓐟": 2980,
      "𓏘𓏘": 2981,
      "𓐙𓏏": 2982,
      "400266": 2983,
      "1180": 2984,
      "itz": 2985,
      "185290": 2986,
      "ill": 2987,
      "Oberägypten": 2988,
      "𓅜𓅜𓅜": 2989,
      "Menschen": 2990,
      "𓉘𓈎𓂝𓊂": 2991,
      ".)": 2992,
      "540": 2993,
      "64": 2994,
      "Gesch": 2995,
      "Mit": 2996,
      "Nimm": 2997,
      "Spr": 2998,
      "Wp": 2999,
      "gan": 3000,
      "pzn": 3001,
      "ul": 3002,
      "ße": 3003,
      "ꜥš": 3004,
      "𓂓𓅓": 3005,
      "𓈎𓏏": 3006,
      "𓊪𓇋": 3007,
      "𓎛𓆰": 3008,
      "855": 3009,
      "8823": 3010,
      "162200": 3011,
      "alten": 3012,
      "1760": 3013,
      "119040": 3014,
      "veranla": 3015,
      "grüßt": 3016,
      "𓉘𓊹𓂋": 3017,
      "(-": 3018,
      "Se": 3019,
      "kün": 3020,
      "wpw": 3021,
      "𓃀𓅡": 3022,
      "𓇶𓏌𓏲": 3023,
      "gegrüßt": 3024,
      "ichet": 3025,
      "1240": 3026,
      "alb": 3027,
      "Chent": 3028,
      "opolis": 3029,
      "𓊹𓊹𓊹𓊹𓊹𓊹𓊹𓊹": 3030,
      "Lieferungen": 3031,
      "123910": 3032,
      "𓉘𓊹𓂋𓄡𓊂": 3033,
      "879": 3034,
      "pu": 3035,
      "sqr": 3036,
      "yr": 3037,
      "ꜣs": 3038,
      "𓄹𓏥": 3039,
      "1096": 3040,
      "103300": 3041,
      "gew": 3042,
      "ṯnꞽ": 3043,
      "diesen": 3044,
      "134780": 3045,
      "59880": 3046,
      "47270": 3047,
      "1990": 3048,
      "91909": 3049,
      "leib": 3050,
      "Arme": 3051,
      "Bruder": 3052,
      "bedeutet": 3053,
      "Hö": 3054,
      "dort": 3055,
      "seit": 3056,
      "wnḫ": 3057,
      "𓂻𓅱": 3058,
      "𓇦𓊂": 3059,
      "𓉘𓇦𓊂": 3060,
      "𓏲𓏛𓏥": 3061,
      "400458": 3062,
      "aupt": 3063,
      "112": 3064,
      "118": 3065,
      "123": 3066,
      "onen": 3067,
      "msḏr": 3068,
      "grḥ": 3069,
      "82090": 3070,
      "Seni": 3071,
      "Maat": 3072,
      "𓂓𓂓𓂓": 3073,
      "𓋴𓌂𓐍𓅓": 3074,
      "Sache": 3075,
      "181400": 3076,
      "Bestes": 3077,
      "966": 3078,
      "euch": 3079,
      "sꜥḥ": 3080,
      "twꜣ": 3081,
      "𓂋𓊪": 3082,
      "𓊹𓉱": 3083,
      "𓌢𓌢": 3084,
      "𓎗𓅱": 3085,
      "𓎼𓂋": 3086,
      "ḥri̯": 3087,
      "854": 3088,
      "1682": 3089,
      "äm": 3090,
      "1772": 3091,
      "eli": 3092,
      "850380": 3093,
      "𓇓𓏏𓏞": 3094,
      "verwalter": 3095,
      "urch": 3096,
      "ischen": 3097,
      "Guts": 3098,
      "𓐍𓂋𓊹𓉻": 3099,
      "158710": 3100,
      "veranlaßt": 3101,
      ")!": 3102,
      "):": 3103,
      "Bo": 3104,
      "Bals": 3105,
      "Hen": 3106,
      "Im": 3107,
      "Name": 3108,
      "Ü": 3109,
      "fnḏ": 3110,
      "ia": 3111,
      "meine": 3112,
      "net": 3113,
      "wdp": 3114,
      "zš": 3115,
      "ꜥꜥ": 3116,
      "𓂝𓅱": 3117,
      "𓇼𓇼": 3118,
      "𓊹𓏤": 3119,
      "𓋴𓆓": 3120,
      "105": 3121,
      "1169": 3122,
      "8826": 3123,
      "2830": 3124,
      "snꞽ": 3125,
      "𓈖𓏏𓏏": 3126,
      "𓈖𓏏𓏭": 3127,
      "2710": 3128,
      "64360": 3129,
      "grä": 3130,
      "Auge": 3131,
      "Gefol": 3132,
      "Priesterin": 3133,
      "jedem": 3134,
      "sṯꞽ": 3135,
      "𓊃𓏏𓈉": 3136,
      "Gerechtfertigte": 3137,
      "Balsam": 3138,
      "910": 3139,
      "Mꜣ": 3140,
      "West": 3141,
      "Zeh": 3142,
      "ak": 3143,
      "kf": 3144,
      "pšn": 3145,
      "tf": 3146,
      "ꞽqr": 3147,
      "𓅘𓎛": 3148,
      "𓋴𓆑": 3149,
      "𓏏𓊖": 3150,
      "𓏏𓏥": 3151,
      "4005": 3152,
      "90510": 3153,
      "304": 3154,
      "wṯ": 3155,
      "igung": 3156,
      "1340": 3157,
      "ꞽwf": 3158,
      "etwas": 3159,
      "bnis": 3160,
      "zeu": 3161,
      "weil": 3162,
      "ilop": 3163,
      "𓊵𓏏𓊪𓏙": 3164,
      "Begrä": 3165,
      "liebt": 3166,
      "wšb": 3167,
      "653": 3168,
      "770": 3169,
      "Mnw": 3170,
      "Netjer": 3171,
      "Ra": 3172,
      "Sn": 3173,
      "fort": 3174,
      "gut": 3175,
      "hen": 3176,
      "𓁹𓂋": 3177,
      "𓂋𓂞": 3178,
      "𓉘𓋞": 3179,
      "𓉲𓎱": 3180,
      "𓎛𓎿": 3181,
      "𓏌𓊖": 3182,
      "ḫꜥ": 3183,
      "ḏnn": 3184,
      "Schlä": 3185,
      "wirk": 3186,
      "Herzen": 3187,
      "ꞽꜣm": 3188,
      "(?)/": 3189,
      "550098": 3190,
      "hinter": 3191,
      "6004": 3192,
      "ṯꜣw": 3193,
      "𓏌𓏌𓏌": 3194,
      "119180": 3195,
      "Senior": 3196,
      "882638": 3197,
      "Balsamier": 3198,
      "960": 3199,
      "97350": 3200,
      "Pl": 3201,
      "P30": 3202,
      "Wr": 3203,
      "gmꜣ": 3204,
      "los": 3205,
      "mꞽtr": 3206,
      "nub": 3207,
      "𓇋𓐩": 3208,
      "𓈖𓆱𓐍𓏏": 3209,
      "𓉐𓂋𓏏": 3210,
      "stehen": 3211,
      "stätte": 3212,
      "che": 3213,
      "100310": 3214,
      "ief": 3215,
      "129": 3216,
      "zꜣu̯": 3217,
      "183": 3218,
      "8505": 3219,
      "Einz": 3220,
      "Einkün": 3221,
      "𓐍𓏏𓆑": 3222,
      "99900": 3223,
      "78150": 3224,
      "Hatnub": 3225,
      "99060": 3226,
      "851659": 3227,
      "Einkünfte": 3228,
      "Bes": 3229,
      "D28": 3230,
      "Heli": 3231,
      "Rein": 3232,
      "mʾ": 3233,
      "uf": 3234,
      "wahr": 3235,
      "Ꞽwn": 3236,
      "𓁹𓁹": 3237,
      "𓂝𓂋": 3238,
      "𓃛𓏏": 3239,
      "𓅜𓐍": 3240,
      "𓊿𓏏𓏏": 3241,
      "𓌂𓌂": 3242,
      "𓎛𓅱": 3243,
      "𓏐𓏊": 3244,
      "orgen": 3245,
      "tester": 3246,
      "schrift": 3247,
      "zugr": 3248,
      "bti": 3249,
      "Neb": 3250,
      "Leib": 3251,
      "lagen": 3252,
      "𓏤𓏤𓏤𓏤": 3253,
      "24070": 3254,
      "ewig": 3255,
      "707649": 3256,
      "177200": 3257,
      "ilope": 3258,
      "zugrunde": 3259,
      "718": 3260,
      "970": 3261,
      "Bus": 3262,
      "NU": 3263,
      "Rück": 3264,
      "fied": 3265,
      "ob": 3266,
      "ꜣḥ": 3267,
      "ꜥpr": 3268,
      "ꞽꜥi̯": 3269,
      "𓆓𓈖": 3270,
      "𓈋𓆑": 3271,
      "𓏙𓈖": 3272,
      "ḫnm": 3273,
      "703": 3274,
      "707": 3275,
      "geworden": 3276,
      "8540": 3277,
      "irn": 3278,
      "1550": 3279,
      "131": 3280,
      "ꞽwꜥ": 3281,
      "1770": 3282,
      "eln": 3283,
      "299": 3284,
      "hrauch": 3285,
      "echem": 3286,
      "6620": 3287,
      "agt": 3288,
      "stelle": 3289,
      "𓏌𓏏𓇯": 3290,
      "Weihrauch": 3291,
      "Brust": 3292,
      "nisut": 3293,
      "Langhornrindes": 3294,
      "wṯz": 3295,
      ")</": 3296,
      "51": 3297,
      "68": 3298,
      ">(": 3299,
      "Kas": 3300,
      "Nach": 3301,
      "Ste": 3302,
      "Wir": 3303,
      "dm": 3304,
      "nung": 3305,
      "wsḫ": 3306,
      "zie": 3307,
      "𓈙𓈙": 3308,
      "𓈟𓏏": 3309,
      "𓏛𓈖": 3310,
      "ḥt": 3311,
      "ntꞽ": 3312,
      "eiden": 3313,
      "uniden": 3314,
      "öst": 3315,
      "116050": 3316,
      "8830": 3317,
      "154": 3318,
      "7920": 3319,
      "deines": 3320,
      "verb": 3321,
      "91907": 3322,
      "Verklä": 3323,
      "nḏs": 3324,
      "tified": 3325,
      "Göttern": 3326,
      "38540": 3327,
      "𓌸𓂋𓂋": 3328,
      "400939": 3329,
      "Seite": 3330,
      "selbst": 3331,
      "steht": 3332,
      "𓋴𓐟𓄿": 3333,
      "seitens": 3334,
      "Balsamierer": 3335,
      "mʾw": 3336,
      "NUM": 3337,
      "unidentified": 3338,
      "',": 3339,
      "Fein": 3340,
      "Hügel": 3341,
      "hꞽ": 3342,
      "sḫt": 3343,
      "sehen": 3344,
      "vom": 3345,
      "wd": 3346,
      "𓁷𓄣": 3347,
      "𓃀𓇋": 3348,
      "𓄡𓏏": 3349,
      "𓄡𓏏𓏤": 3350,
      "𓉺𓏌𓊖": 3351,
      "erk": 3352,
      "cher": 3353,
      "ichtet": 3354,
      "nbs": 3355,
      "nsw": 3356,
      "2850": 3357,
      "ẖrd": 3358,
      "4480": 3359,
      "srf": 3360,
      "msꜣḏ": 3361,
      "𓅓𓂋𓉐": 3362,
      "davon": 3363,
      "8990": 3364,
      "leisch": 3365,
      "bringen": 3366,
      "78140": 3367,
      "Geliebte": 3368,
      "𓅜𓐍𓏏𓇿": 3369,
      "Busiris": 3370,
      "1C": 3371,
      "350": 3372,
      "Aber": 3373,
      "Beh": 3374,
      "Ha": 3375,
      "Pyr": 3376,
      "Wie": 3377,
      "ga": 3378,
      "tan": 3379,
      "zmꜣ": 3380,
      "Ꞽr": 3381,
      "ꞽpn": 3382,
      "𓁶𓈋𓆑": 3383,
      "𓋴𓋴": 3384,
      "8514": 3385,
      "emp": 3386,
      "schi": 3387,
      "1415": 3388,
      "Schatz": 3389,
      "heraus": 3390,
      "mḏꜣ": 3391,
      "ild": 3392,
      "𓂋𓂝𓈖": 3393,
      "Frieden": 3394,
      "hervorgekommen": 3395,
      "𓈐𓈐𓈐": 3396,
      "einzige": 3397,
      "116910": 3398,
      "Zehn": 3399,
      "600421": 3400,
      "Pyram": 3401,
      "2du": 3402,
      "61": 3403,
      "Bl": 3404,
      "ba": 3405,
      "hl": 3406,
      "mehr": 3407,
      "sḥtp": 3408,
      "wü": 3409,
      "zbn": 3410,
      "𓂋𓂧": 3411,
      "𓂝𓂝": 3412,
      "𓇉𓄿": 3413,
      "𓋴𓊭": 3414,
      "𓌳𓄿": 3415,
      "𓐙𓊤︂": 3416,
      "ḏḏ": 3417,
      "856": 3418,
      "8527": 3419,
      "162930": 3420,
      "1387": 3421,
      "135720": 3422,
      "empf": 3423,
      "3430": 3424,
      "𓇓𓏏𓁶": 3425,
      "Eine": 3426,
      "mittel": 3427,
      "𓐍𓂋𓀒": 3428,
      "550055": 3429,
      "𓅓𓂋𓉐𓏤": 3430,
      "Bruch": 3431,
      "Meret": 3432,
      "Versorgter": 3433,
      "119050": 3434,
      "𓉻𓂝𓄿": 3435,
      "124220": 3436,
      "Alabastergef": 3437,
      "124070": 3438,
      "𓇓𓏏𓏞𓂝𓏝": 3439,
      "42": 3440,
      "71": 3441,
      "91670": 3442,
      "Fleisch": 3443,
      "P1C": 3444,
      "W54": 3445,
      "keinen": 3446,
      "𓂓𓏏": 3447,
      "𓄂𓏏": 3448,
      "𓅓𓆱𓐍𓏏": 3449,
      "𓈞𓏏": 3450,
      "𓏌𓎡": 3451,
      "ṯḥn": 3452,
      "138670": 3453,
      "46060": 3454,
      "6000": 3455,
      "𓇓𓏏𓈖𓀆": 3456,
      "fꜣi̯": 3457,
      "snḏm": 3458,
      "euer": 3459,
      "Ꞽyi̯": 3460,
      "851267": 3461,
      "Über": 3462,
      "Begräbnis": 3463,
      "Heliopolis": 3464,
      "ewiglich": 3465,
      "Har": 3466,
      "Ihr": 3467,
      "Würd": 3468,
      "hol": 3469,
      "mz": 3470,
      "mus": 3471,
      "per": 3472,
      "sḫꜣ": 3473,
      "zwn": 3474,
      "𓁷𓁶": 3475,
      "𓂋𓂋": 3476,
      "𓅓𓅱": 3477,
      "𓅱𓊖": 3478,
      "𓆓𓊂": 3479,
      "𓉘𓆓𓊂": 3480,
      "𓋴𓐍𓏏": 3481,
      "𓍙𓆑": 3482,
      "sto": 3483,
      "ende": 3484,
      "amm": 3485,
      "7023": 3486,
      "20480": 3487,
      "8511": 3488,
      "etr": 3489,
      "1460": 3490,
      "8509": 3491,
      "ahl": 3492,
      "ohne": 3493,
      "nḥḥ": 3494,
      "uschi": 3495,
      "gelegt": 3496,
      "94530": 3497,
      "𓇶𓏌𓏲𓂐": 3498,
      "Chentuschi": 3499,
      "65370": 3500,
      "Schatzhaus": 3501,
      "𓇓𓏏𓁶𓌨": 3502,
      "340": 3503,
      "519": 3504,
      "65000": 3505,
      "Für": 3506,
      "G29": 3507,
      "Sä": 3508,
      "Tj": 3509,
      "bi": 3510,
      "beit": 3511,
      "kam": 3512,
      "pš": 3513,
      "pht": 3514,
      "ron": 3515,
      "sq": 3516,
      "sꞽꜣ": 3517,
      "ꜣṯ": 3518,
      "𓃀𓈋": 3519,
      "𓆛𓏌": 3520,
      "𓇋𓏠𓈖": 3521,
      "𓏲𓀁": 3522,
      "getr": 3523,
      "1677": 3524,
      "1350": 3525,
      "genommen": 3526,
      "499": 3527,
      "1900": 3528,
      "Nepht": 3529,
      "4630": 3530,
      "siegler": 3531,
      "grö": 3532,
      "qꜣi̯": 3533,
      "Herrsch": 3534,
      "66260": 3535,
      "sbk": 3536,
      "𓏃𓏏𓈙": 3537,
      "špss": 3538,
      "116800": 3539,
      "hys": 3540,
      "136190": 3541,
      "machen": 3542,
      "steigen": 3543,
      "𓐍𓋴𓍙𓆑": 3544,
      "𓂓𓅓𓋹": 3545,
      "96600": 3546,
      "Reinigung": 3547,
      "Nephthys": 3548,
      "455": 3549,
      "Bꜣ": 3550,
      "Kinder": 3551,
      "Nat": 3552,
      "bk": 3553,
      "bes": 3554,
      "diener": 3555,
      "haupt": 3556,
      "sẖ": 3557,
      "ꜣm": 3558,
      "ꜥšꜣ": 3559,
      "𓂋𓍿": 3560,
      "𓄞𓂧": 3561,
      "𓅆𓅆": 3562,
      "𓅓𓂸": 3563,
      "𓆄𓅱": 3564,
      "𓋴𓎛": 3565,
      "𓏲𓏭": 3566,
      "ḥqr": 3567,
      "50980": 3568,
      "del": 3569,
      "gek": 3570,
      "8543": 3571,
      "är": 3572,
      "175720": 3573,
      "onat": 3574,
      "wꜣs": 3575,
      "beischrift": 3576,
      "habe": 3577,
      "𓇋𓅓𓂜": 3578,
      "sꜣḥ": 3579,
      "82260": 3580,
      "8900": 3581,
      "763": 3582,
      "Grün": 3583,
      "700499": 3584,
      "157100": 3585,
      "ausge": 3586,
      "Nase": 3587,
      "𓐙𓏏𓊤︂": 3588,
      "G29A": 3589,
      "Diener": 3590,
      "Sbk": 3591,
      "dmḏ": 3592,
      "feh": 3593,
      "𓄿𓅱": 3594,
      "𓈖𓐩": 3595,
      "𓋴𓍌": 3596,
      "𓋴𓏭": 3597,
      "𓌰𓅓": 3598,
      "𓎡𓄿": 3599,
      "𓏎𓈖𓈖": 3600,
      "𓏤𓏥": 3601,
      "𓐎𓏏": 3602,
      "enk": 3603,
      "dest": 3604,
      "852": 3605,
      "8518": 3606,
      "andes": 3607,
      "400013": 3608,
      "1590": 3609,
      "172360": 3610,
      "ꜥwn": 3611,
      "Schw": 3612,
      "8507": 3613,
      "66620": 3614,
      "große": 3615,
      "Rede": 3616,
      "gesagt": 3617,
      "Gottessiegler": 3618,
      "šnꜥ": 3619,
      "ützt": 3620,
      "belant": 3621,
      "𓅱𓂝𓃂": 3622,
      "855548": 3623,
      "swꜣi̯": 3624,
      "hetepu": 3625,
      "𓃀𓅡𓄿": 3626,
      "Imi": 3627,
      "Säbelant": 3628,
      "35": 3629,
      "44000": 3630,
      "645": 3631,
      "Nar": 3632,
      "Nicht": 3633,
      "Wes": 3634,
      "Zau": 3635,
      "dig": 3636,
      "hören": 3637,
      "lo": 3638,
      "lit": 3639,
      "nꜣ": 3640,
      "nꜥr": 3641,
      "qsn": 3642,
      "rḏw": 3643,
      "wdn": 3644,
      "zb": 3645,
      "𓂾𓂾": 3646,
      "𓇋𓀁": 3647,
      "𓇍𓈖": 3648,
      "𓉜𓊖": 3649,
      "stẖ": 3650,
      "106": 3651,
      "8517": 3652,
      "ꞽrp": 3653,
      "wtꞽ": 3654,
      "üss": 3655,
      "leute": 3656,
      "4740": 3657,
      "sḏb": 3658,
      "grei": 3659,
      "Ḫnt": 3660,
      "Hatia": 3661,
      "𓂧𓏏𓀁": 3662,
      "𓈎𓂋𓌠": 3663,
      "Gutes": 3664,
      "ältester": 3665,
      "gꜣu̯": 3666,
      "Begräbnisstätte": 3667,
      "Natron": 3668,
      "3A": 3669,
      "52840": 3670,
      "Äl": 3671,
      "Fin": 3672,
      "Tem": 3673,
      "Tex": 3674,
      "Wür": 3675,
      "bnꞽ": 3676,
      "heil": 3677,
      "neh": 3678,
      "nur": 3679,
      "wbꜣ": 3680,
      "𓄣𓄣": 3681,
      "𓅓𓄚": 3682,
      "𓅭𓏤": 3683,
      "𓇋𓐍𓅓": 3684,
      "𓍯𓏏": 3685,
      "𓐍𓆑𓏏": 3686,
      "str": 3687,
      "ḥzi̯": 3688,
      "20120": 3689,
      "essen": 3690,
      "ichte": 3691,
      "ül": 3692,
      "ṯz": 3693,
      "1262": 3694,
      "1600": 3695,
      "136620": 3696,
      "etz": 3697,
      "45029": 3698,
      "verein": 3699,
      "hrt": 3700,
      "Königsso": 3701,
      "ꞽꜣw": 3702,
      "𓅱𓏏𓊖": 3703,
      "reicht": 3704,
      "ieren": 3705,
      "ucht": 3706,
      "bruch": 3707,
      "Untersuch": 3708,
      "Oberhaupt": 3709,
      "2000": 3710,
      "lät": 3711,
      "5420": 3712,
      "andelt": 3713,
      "𓇋𓏶𓅱": 3714,
      "𓋴𓍋𓌡𓏏𓏤": 3715,
      "Nasen": 3716,
      "21680": 3717,
      "𓎛𓎿𓊃": 3718,
      "Verklär": 3719,
      "wüns": 3720,
      "Säbelantilope": 3721,
      "Zauber": 3722,
      "Tempel": 3723,
      "650": 3724,
      "72840": 3725,
      "Heil": 3726,
      "Nꜥr": 3727,
      "Ru": 3728,
      "Ti": 3729,
      "sꜣḫ": 3730,
      "will": 3731,
      "ꞽꜥr": 3732,
      "𓄂𓏏𓏏": 3733,
      "𓅓𓂜": 3734,
      "𓅱𓂧": 3735,
      "𓆓𓂝": 3736,
      "𓇋𓊃": 3737,
      "𓈉𓈉": 3738,
      "𓈞𓋴": 3739,
      "𓊨𓊨": 3740,
      "𓍲𓈖": 3741,
      "stat": 3742,
      "auer": 3743,
      "denen": 3744,
      "127": 3745,
      "adurch": 3746,
      "fern": 3747,
      "nḫn": 3748,
      "Einer": 3749,
      "ꞽꜣr": 3750,
      "693": 3751,
      "55000": 3752,
      "Gef": 3753,
      "ihrer": 3754,
      "180130": 3755,
      "Grab": 3756,
      "93780": 3757,
      "𓈖𓏌𓅱": 3758,
      "103500": 3759,
      "mußt": 3760,
      "šps": 3761,
      "öffnet": 3762,
      "450367": 3763,
      "Sedfest": 3764,
      "𓂋𓊪𓂝": 3765,
      "empor": 3766,
      "𓈎𓂋𓌠𓋴𓊭": 3767,
      "Text": 3768,
      "Königssohn": 3769,
      "65": 3770,
      "64750": 3771,
      "74750": 3772,
      "834": 3773,
      "Feuer": 3774,
      "Stier": 3775,
      "bꞽn": 3776,
      "dbḥ": 3777,
      "dadurch": 3778,
      "mk": 3779,
      "ni": 3780,
      "qmꜣ": 3781,
      "richt": 3782,
      "sü": 3783,
      "tun": 3784,
      "zf": 3785,
      "ꞽꞽ": 3786,
      "𓄿𓉔": 3787,
      "𓆱𓏏": 3788,
      "𓇓𓅱𓏏": 3789,
      "𓊹𓋨": 3790,
      "𓋴𓏲": 3791,
      "𓍋𓅓𓂋": 3792,
      "𓎸𓅓": 3793,
      "𓎸𓈖": 3794,
      "𓏃𓈖𓏏": 3795,
      "𓏏𓂋": 3796,
      "𓏝𓏝": 3797,
      "40026": 3798,
      "100440": 3799,
      "ack": 3800,
      "702": 3801,
      "8500": 3802,
      "114": 3803,
      "114740": 3804,
      "134": 3805,
      "138": 3806,
      "135420": 3807,
      "177": 3808,
      "schaft": 3809,
      "3420": 3810,
      "swissen": 3811,
      "ungswissen": 3812,
      "wꜣg": 3813,
      "hatte": 3814,
      "Erfahr": 3815,
      "45640": 3816,
      "sieh": 3817,
      "gehör": 3818,
      "550300": 3819,
      "sfḫ": 3820,
      "78030": 3821,
      "𓏠𓈖𓐍": 3822,
      "geschützt": 3823,
      "znf": 3824,
      "muck": 3825,
      "𓋴𓂧𓄢": 3826,
      "hotep": 3827,
      "Ehrwürdigkeit": 3828,
      "Netjerichet": 3829,
      "𓉘𓋞𓉜𓊖": 3830,
      "𓋴𓍌𓌡𓏏𓏤": 3831,
      "Untersuchung": 3832,
      "Erfahrungswissen": 3833,
      "\",": 3834,
      "22850": 3835,
      "828": 3836,
      "D82": 3837,
      "Iri": 3838,
      "Pe": 3839,
      "Pers": 3840,
      "Q33": 3841,
      "Salb": 3842,
      "Tp": 3843,
      "X3A": 3844,
      "Zimmer": 3845,
      "affen": 3846,
      "fang": 3847,
      "hier": 3848,
      "qn": 3849,
      "zes": 3850,
      "ꞽnt": 3851,
      "𓂓𓂸": 3852,
      "𓂝𓈙": 3853,
      "𓂝𓎛": 3854,
      "𓃀𓋴": 3855,
      "𓈎𓃀": 3856,
      "𓉐𓉐": 3857,
      "𓊹𓉼": 3858,
      "𓌃𓂧𓏏𓀁": 3859,
      "𓎡𓂋": 3860,
      "108830": 3861,
      "iebt": 3862,
      "šnḏ": 3863,
      "111590": 3864,
      "55110": 3865,
      "nḫb": 3866,
      "wrḏ": 3867,
      "45057": 3868,
      "ꜥꜣi̯": 3869,
      "91910": 3870,
      "ḥnk": 3871,
      "ihrem": 3872,
      "gesehen": 3873,
      "Arbeit": 3874,
      "kennt": 3875,
      "𓎟𓏏𓉐": 3876,
      "400976": 3877,
      "ische": 3878,
      "𓈎𓄿𓃀𓏏𓄹": 3879,
      "𓌳𓐙𓂝𓏏": 3880,
      "führen": 3881,
      "Wegen": 3882,
      "159290": 3883,
      "1pl": 3884,
      "680": 3885,
      "613": 3886,
      "Ehe": 3887,
      "Glos": 3888,
      "Hals": 3889,
      "Kor": 3890,
      "Pro": 3891,
      "dꞽ": 3892,
      "hä": 3893,
      "ift": 3894,
      "iff": 3895,
      "si": 3896,
      "sit": 3897,
      "tj": 3898,
      "twt": 3899,
      "tre": 3900,
      "zwr": 3901,
      "𓅱𓊪": 3902,
      "𓆛𓈖": 3903,
      "𓈝𓅓": 3904,
      "𓊩𓁹": 3905,
      "𓊺𓂋": 3906,
      "𓋴𓇛": 3907,
      "𓍿𓏏": 3908,
      "stand": 3909,
      "enden": 3910,
      "chte": 3911,
      "dert": 3912,
      "ieben": 3913,
      "704": 3914,
      "8850": 3915,
      "frau": 3916,
      "139": 3917,
      "174": 3918,
      "itt": 3919,
      "6260": 3920,
      "legen": 3921,
      "184630": 3922,
      "850763": 3923,
      "ḫnti̯": 3924,
      "𓁷𓂋𓏤": 3925,
      "550338": 3926,
      "waren": 3927,
      "𓇋𓏏𓆑": 3928,
      "änder": 3929,
      "ꜣbḏw": 3930,
      "8340": 3931,
      "vollkommen": 3932,
      "binden": 3933,
      "𓌳𓐙𓂝": 3934,
      "Kammerdiener": 3935,
      "115110": 3936,
      "851509": 3937,
      "ankheit": 3938,
      "D286": 3939,
      "Rücken": 3940,
      "Finger": 3941,
      "Titel": 3942,
      "83470": 3943,
      "Salböl": 3944,
      "Glosse": 3945,
      "86210": 3946,
      "Hem": 3947,
      "Mes": 3948,
      "S9": 3949,
      "Tr": 3950,
      "Thr": 3951,
      "US9": 3952,
      "VA": 3953,
      "Voll": 3954,
      "Wein": 3955,
      "dbn": 3956,
      "hö": 3957,
      "kl": 3958,
      "nie": 3959,
      "sꜥnḫ": 3960,
      "smn": 3961,
      "zit": 3962,
      "𓇋𓏤": 3963,
      "𓊃𓈙": 3964,
      "𓐄𓐄": 3965,
      "𓐟𓏤": 3966,
      "sti̯": 3967,
      "ḥd": 3968,
      "ḥfꜣ": 3969,
      "ḫw": 3970,
      "1360": 3971,
      "emd": 3972,
      "171990": 3973,
      "1450": 3974,
      "400005": 3975,
      "𓊹𓊹𓊹𓊹𓊹": 3976,
      "𓇓𓏏𓊵𓏙": 3977,
      "882299": 3978,
      "reiben": 3979,
      "mtw": 3980,
      "8630": 3981,
      "untersuch": 3982,
      "jeden": 3983,
      "𓊹𓊹𓊹𓊹𓊹𓊹𓊹𓊹𓊹": 3984,
      "gebie": 3985,
      "𓋴𓌮𓅓": 3986,
      "Landmann": 3987,
      "Mitte": 3988,
      "onenbeischrift": 3989,
      "168250": 3990,
      "𓇋𓐩𓆓": 3991,
      "129740": 3992,
      "450295": 3993,
      "Textstelle": 3994,
      "Personenbeischrift": 3995,
      "Ehefrau": 3996,
      "Inn": 3997,
      "Ku": 3998,
      "Upu": 3999,
      "Za": 4000,
      "hu": 4001,
      "ja": 4002,
      "könig": 4003,
      "mšꜥ": 4004,
      "nš": 4005,
      "tung": 4006,
      "ꞽꜥ": 4007,
      "ꞽš": 4008,
      "𓅨𓏏": 4009,
      "𓅪𓏥": 4010,
      "𓉓𓏖": 4011,
      "𓍋𓃀𓈋": 4012,
      "𓏯𓏛": 4013,
      "𓏰𓏰": 4014,
      "101950": 4015,
      "prei": 4016,
      "gest": 4017,
      "kꜣp": 4018,
      "ati": 4019,
      "1490": 4020,
      "148990": 4021,
      "2730": 4022,
      "nebti": 4023,
      "wḏb": 4024,
      "ilde": 4025,
      "94060": 4026,
      "Siegler": 4027,
      "Versorgten": 4028,
      "142160": 4029,
      "Krankheit": 4030,
      "Seschemnefer": 4031,
      "𓏏𓏭𓀀": 4032,
      "𓐍𓊪𓂻": 4033,
      "141500": 4034,
      "Würdige": 4035,
      "126290": 4036,
      "318": 4037,
      "Em": 4038,
      "Ew": 4039,
      "Gei": 4040,
      "Halle": 4041,
      "Ist": 4042,
      "Ta": 4043,
      "Tür": 4044,
      "cl": 4045,
      "mü": 4046,
      "netjer": 4047,
      "ock": 4048,
      "wḫꜣ": 4049,
      "zwei": 4050,
      "Ꞽm": 4051,
      "𓃀𓏲": 4052,
      "𓅪𓀀": 4053,
      "𓅱𓏭": 4054,
      "𓆝𓈘": 4055,
      "𓇼𓄿": 4056,
      "𓈍𓂝": 4057,
      "𓉡𓊹𓍛": 4058,
      "𓌡𓏤": 4059,
      "𓏌𓎢": 4060,
      "𓐍𓂋𓏏": 4061,
      "stän": 4062,
      "108": 4063,
      "ingt": 4064,
      "indern": 4065,
      "ḏn": 4066,
      "ḏꜥm": 4067,
      "aum": 4068,
      "400070": 4069,
      "ṯs": 4070,
      "1270": 4071,
      "nsr": 4072,
      "aller": 4073,
      "4370": 4074,
      "145": 4075,
      "leg": 4076,
      "verhin": 4077,
      "170900": 4078,
      "Kapel": 4079,
      "andlung": 4080,
      "Šw": 4081,
      "sagst": 4082,
      "mögest": 4083,
      "500066": 4084,
      "ehren": 4085,
      "𓊨𓏏𓉐": 4086,
      "Gerste": 4087,
      "darf": 4088,
      "excl": 4089,
      "edjem": 4090,
      "Speisen": 4091,
      "𓅘𓎛𓃀𓏏𓄹": 4092,
      "Platz": 4093,
      "größer": 4094,
      "Herrscher": 4095,
      "untersuchst": 4096,
      "52820": 4097,
      "930": 4098,
      "959": 4099,
      "Adj": 4100,
      "G131": 4101,
      "Kör": 4102,
      "Landes": 4103,
      "M3": 4104,
      "Mn": 4105,
      "Snḏm": 4106,
      "dmꞽ": 4107,
      "dlichen": 4108,
      "nos": 4109,
      "seschem": 4110,
      "sechem": 4111,
      "wach": 4112,
      "wandeln": 4113,
      "zm": 4114,
      "Ꜥḏ": 4115,
      "𓄊𓋴": 4116,
      "𓅧𓈎": 4117,
      "𓆓𓋴": 4118,
      "𓇏𓏏𓏭𓀀": 4119,
      "𓈒𓈒": 4120,
      "𓉘𓆢": 4121,
      "𓋹𓈖": 4122,
      "𓌨𓃀": 4123,
      "𓌨𓎛𓃀": 4124,
      "𓎛𓅬": 4125,
      "𓐍𓄪": 4126,
      "ḏbꜣ": 4127,
      "902": 4128,
      "8519": 4129,
      "173": 4130,
      "ḥmꜣ": 4131,
      "asse": 4132,
      "183430": 4133,
      "4430": 4134,
      "titel": 4135,
      "𓋴𓈖𓃀": 4136,
      "hꜣb": 4137,
      "113400": 4138,
      "sprach": 4139,
      "86430": 4140,
      "8970": 4141,
      "weißen": 4142,
      "26680": 4143,
      "2440": 4144,
      "sṯꜣ": 4145,
      "ꜣbd": 4146,
      "ꜣbḏ": 4147,
      "Senedjem": 4148,
      "𓋴𓌉𓂖": 4149,
      "gemäß": 4150,
      "𓉐𓉻𓅓𓂋": 4151,
      "155450": 4152,
      "132300": 4153,
      "𓈏𓈏𓈏": 4154,
      "Höfl": 4155,
      "empfangen": 4156,
      "musst": 4157,
      "𓍋𓅓𓂋𓅪": 4158,
      "𓋴𓇛𓈖𓆓": 4159,
      "490": 4160,
      "580": 4161,
      "78900": 4162,
      "Beiden": 4163,
      "Ent": 4164,
      "Gest": 4165,
      "La": 4166,
      "Nacht": 4167,
      "jetzt": 4168,
      "ng": 4169,
      "pi": 4170,
      "tḫb": 4171,
      "wi": 4172,
      "wnw": 4173,
      "wḥꜥ": 4174,
      "Ꞽmn": 4175,
      "𓂓𓊂": 4176,
      "𓃞𓇍": 4177,
      "𓅓𓅓": 4178,
      "𓉘𓂓𓊂": 4179,
      "𓊃𓐍": 4180,
      "𓋀𓅂": 4181,
      "𓋴𓇦𓂋": 4182,
      "𓍃𓏏": 4183,
      "𓍒𓄿": 4184,
      "𓍚𓀜": 4185,
      "𓏇𓈖": 4186,
      "8510": 4187,
      "8525": 4188,
      "1183": 4189,
      "151": 4190,
      "152710": 4191,
      "ädel": 4192,
      ")-(": 4193,
      "adt": 4194,
      "13A": 4195,
      "pter": 4196,
      "80011": 4197,
      "ell": 4198,
      "1421": 4199,
      "450119": 4200,
      "Schu": 4201,
      "ḫntꞽ": 4202,
      "ḥnmm": 4203,
      "?),": 4204,
      "882902": 4205,
      "221": 4206,
      "hebe": 4207,
      "ꞽsk": 4208,
      "weise": 4209,
      "trau": 4210,
      "län": 4211,
      "lage": 4212,
      "sdꜣ": 4213,
      "84570": 4214,
      "šꜣs": 4215,
      "Lebens": 4216,
      "𓈖𓆓𓐩": 4217,
      "850804": 4218,
      "22520": 4219,
      "ꜣgb": 4220,
      "𓌠𓌠𓌠": 4221,
      "Gutsvorsteher": 4222,
      "Behandlung": 4223,
      "Gründung": 4224,
      "Upuaut": 4225,
      "Ewigkeit": 4226,
      "𓃞𓇍𓎸𓈖": 4227,
      "41180": 4228,
      "?\"": 4229,
      "Bauch": 4230,
      "D210": 4231,
      "Rang": 4232,
      "Sꜣḥ": 4233,
      "bꜥḥ": 4234,
      "dor": 4235,
      "ipp": 4236,
      "meinen": 4237,
      "ogen": 4238,
      "rter": 4239,
      "tut": 4240,
      "Ꞽḫm": 4241,
      "𓀜𓀀": 4242,
      "𓅱𓈙": 4243,
      "𓇋𓏎𓈖": 4244,
      "𓈖𓏥": 4245,
      "𓋴𓐍": 4246,
      "𓌢𓈖𓏏": 4247,
      "𓎛𓌨𓃀": 4248,
      "102730": 4249,
      "ins": 4250,
      "100130": 4251,
      "derer": 4252,
      "ord": 4253,
      "8557": 4254,
      "8545": 4255,
      "1167": 4256,
      "122": 4257,
      "135": 4258,
      "1727": 4259,
      "450178": 4260,
      "181780": 4261,
      "Schut": 4262,
      "Schmuck": 4263,
      "Schädel": 4264,
      "achte": 4265,
      "8506": 4266,
      "verschl": 4267,
      "25390": 4268,
      "haft": 4269,
      "pfen": 4270,
      "agaz": 4271,
      "Sobek": 4272,
      "Bringen": 4273,
      "urcht": 4274,
      "Stei": 4275,
      "8280": 4276,
      "ennen": 4277,
      "herausge": 4278,
      "läßt": 4279,
      "𓂋𓂝𓄤": 4280,
      "ḫnd": 4281,
      "Grg": 4282,
      "Gren": 4283,
      "882278": 4284,
      "52060": 4285,
      "jener": 4286,
      "𓇋𓌳𓄪𓐍𓅱𓐍𓂋": 4287,
      "3760": 4288,
      "𓌳𓁹𓄿𓄿": 4289,
      "𓐍𓐍𓐍": 4290,
      "109620": 4291,
      "Gefolgs": 4292,
      "Mꜣꜥ": 4293,
      "𓌸𓂋𓂋𓎟𓆑": 4294,
      "𓂓𓏏𓀋": 4295,
      "𓋴𓂧𓄢𓉲": 4296,
      "Höfling": 4297,
      "32830": 4298,
      "Chr": 4299,
      "Di": 4300,
      "Tjen": 4301,
      "Wü": 4302,
      "bs": 4303,
      "beh": 4304,
      "bar": 4305,
      "gn": 4306,
      "ick": 4307,
      "kau": 4308,
      "rä": 4309,
      "wen": 4310,
      "zḫ": 4311,
      "ꜣtf": 4312,
      "Ꞽw": 4313,
      "𓃀𓎺": 4314,
      "𓄃𓏲𓏛𓏥": 4315,
      "𓄣𓊂": 4316,
      "𓆑𓄿": 4317,
      "𓇾𓂦": 4318,
      "𓈎𓈖": 4319,
      "𓈖𓂋": 4320,
      "𓈙𓂋": 4321,
      "𓌃𓅓": 4322,
      "𓍔𓄿": 4323,
      "𓏠𓈖𓏏": 4324,
      "𓐎𓏥": 4325,
      "inge": 4326,
      "acken": 4327,
      "709": 4328,
      "Ḥn": 4329,
      "ꞽwr": 4330,
      "schm": 4331,
      "45059": 4332,
      "45027": 4333,
      "62200": 4334,
      "18140": 4335,
      "274": 4336,
      "rochen": 4337,
      "69590": 4338,
      "umf": 4339,
      "findest": 4340,
      "also": 4341,
      "ucher": 4342,
      "107521": 4343,
      "sfṯ": 4344,
      "600304": 4345,
      "𓂋𓂝𓅨": 4346,
      "𓉐𓂋𓂻": 4347,
      "𓍿𓈖𓏥": 4348,
      "8330": 4349,
      "𓌸𓂋𓈘": 4350,
      "ächter": 4351,
      "𓋴𓍿𓎤": 4352,
      "ẖni̯": 4353,
      "Berge": 4354,
      "851508": 4355,
      "176800": 4356,
      "𓎛𓁷𓂋𓅃": 4357,
      "51970": 4358,
      "61370": 4359,
      "95940": 4360,
      "Adjib": 4361,
      "𓋴𓇛𓈖𓆓𓅓": 4362,
      "Christ": 4363,
      "181401": 4364,
      "\".": 4365,
      ");": 4366,
      "21770": 4367,
      "Ant": 4368,
      "Glie": 4369,
      "Hin": 4370,
      "Hol": 4371,
      "Morgen": 4372,
      "Ort": 4373,
      "Per": 4374,
      "Pfl": 4375,
      "Zkr": 4376,
      "eben": 4377,
      "fḫ": 4378,
      "hnw": 4379,
      "halten": 4380,
      "kön": 4381,
      "pft": 4382,
      "psi̯": 4383,
      "zkr": 4384,
      "zogen": 4385,
      "Ꜣḫ": 4386,
      "𓁶𓊪": 4387,
      "𓂓𓎛": 4388,
      "𓂓𓏤": 4389,
      "𓂧𓃀": 4390,
      "𓄂𓏏𓏤": 4391,
      "𓄋𓊪": 4392,
      "𓇋𓇩": 4393,
      "𓇋𓆛𓈖": 4394,
      "𓇹𓇼": 4395,
      "𓇿𓇿": 4396,
      "𓊽𓊽": 4397,
      "𓌃𓂧𓅱": 4398,
      "𓍃𓅓": 4399,
      "𓎗𓌗": 4400,
      "𓎢𓏏": 4401,
      "𓏇𓂋": 4402,
      "𓐍𓃀": 4403,
      "𓐙𓊤": 4404,
      "erst": 4405,
      "ḥp": 4406,
      "400271": 4407,
      "iel": 4408,
      "ies": 4409,
      "7096": 4410,
      "30890": 4411,
      "andw": 4412,
      "8828": 4413,
      "8847": 4414,
      "äck": 4415,
      "usdor": 4416,
      "450419": 4417,
      "850788": 4418,
      "850713": 4419,
      "78875": 4420,
      "sḏꜣ": 4421,
      "150740": 4422,
      "gier": 4423,
      "sḫpr": 4424,
      "recken": 4425,
      "Sokar": 4426,
      "28500": 4427,
      "𓊵𓏏𓊪𓏏": 4428,
      "Duft": 4429,
      "sšmi̯": 4430,
      "gesetzt": 4431,
      "fluß": 4432,
      "pꜣw": 4433,
      "Mri̯": 4434,
      "jede": 4435,
      "Aufwä": 4436,
      "ienen": 4437,
      "gmm": 4438,
      "𓌨𓂋𓏭": 4439,
      "400982": 4440,
      "(?;": 4441,
      "rtḥ": 4442,
      "dauert": 4443,
      "Wadjet": 4444,
      "𓍹𓐍𓅱𓆑𓅱𓍺𓊹𓍛": 4445,
      "𓅠𓅓𓅓": 4446,
      "71810": 4447,
      "ḫnms": 4448,
      "𓋴𓐍𓏏𓇏": 4449,
      "45580": 4450,
      "Narmer": 4451,
      "851711": 4452,
      "höh": 4453,
      "Grenze": 4454,
      "Christusdor": 4455,
      "Aufwärter": 4456,
      "546": 4457,
      "630": 4458,
      "76230": 4459,
      "Fel": 4460,
      "Jah": 4461,
      "Lob": 4462,
      "Monat": 4463,
      "Ö": 4464,
      "Pächter": 4465,
      "Res": 4466,
      "af": 4467,
      "com": 4468,
      "ds": 4469,
      "gḥs": 4470,
      "iter": 4471,
      "kü": 4472,
      "su": 4473,
      "zr": 4474,
      "zwar": 4475,
      "𓂧𓂋": 4476,
      "𓃀𓅱𓏏": 4477,
      "𓇋𓐍": 4478,
      "𓉘𓎚": 4479,
      "𓋹𓋹": 4480,
      "𓎟𓀀": 4481,
      "𓐍𓆑": 4482,
      "stück": 4483,
      "ennt": 4484,
      "inn": 4485,
      "chet": 4486,
      "geöffnet": 4487,
      "eigen": 4488,
      "8560": 4489,
      "85180": 4490,
      "anz": 4491,
      "1140": 4492,
      "883": 4493,
      "123420": 4494,
      "äßen": 4495,
      "136260": 4496,
      "4300": 4497,
      "itter": 4498,
      "nꞽꜣ": 4499,
      "onnen": 4500,
      "2900": 4501,
      "45044": 4502,
      "450296": 4503,
      "Schwe": 4504,
      "verbinden": 4505,
      "2670": 4506,
      "26140": 4507,
      "ꞽty": 4508,
      "150110": 4509,
      "185370": 4510,
      "agnos": 4511,
      "ägt": 4512,
      "heute": 4513,
      "Herren": 4514,
      "Brü": 4515,
      "Str": 4516,
      "Neferseschem": 4517,
      "leidet": 4518,
      "Untergehen": 4519,
      "eschi": 4520,
      "Siegel": 4521,
      "änen": 4522,
      "Befeh": 4523,
      "58770": 4524,
      "31010": 4525,
      "𓇋𓂝𓃀𓎺": 4526,
      "Sachen": 4527,
      "Weg": 4528,
      "109680": 4529,
      "𓇼𓇼𓇼": 4530,
      "Westens": 4531,
      "wirklich": 4532,
      "Besitz": 4533,
      "𓏐𓏊𓏖": 4534,
      "707693": 4535,
      "Würde": 4536,
      "wünscht": 4537,
      "𓌳𓐙𓂝𓏏𓏯𓏛": 4538,
      "treff": 4539,
      "VARA": 4540,
      "huief": 4541,
      "108300": 4542,
      "compl": 4543,
      "Schwester": 4544,
      "agnose": 4545,
      "Neferseschemre": 4546,
      "En": 4547,
      "Phy": 4548,
      "Singen": 4549,
      "eur": 4550,
      "hoch": 4551,
      "nẖnm": 4552,
      "𓀁𓈖": 4553,
      "𓂋𓎗𓌗": 4554,
      "𓄑𓄑": 4555,
      "𓅭𓀀": 4556,
      "𓆣𓂋𓏏": 4557,
      "𓇋𓊪𓈖": 4558,
      "𓈖𓄿": 4559,
      "𓈙𓆄𓅱": 4560,
      "𓊃𓆑": 4561,
      "𓊐𓊪": 4562,
      "𓊹𓀭": 4563,
      "𓋴𓊪": 4564,
      "𓏒𓏥": 4565,
      "𓏶𓅱𓏏𓊖": 4566,
      "erho": 4567,
      "ḫpš": 4568,
      "10070": 4569,
      "8534": 4570,
      "8556": 4571,
      "ššꞽ": 4572,
      "1120": 4573,
      "126": 4574,
      "1690": 4575,
      "80730": 4576,
      "fre": 4577,
      "snꜥꜥ": 4578,
      "7960": 4579,
      "148": 4580,
      "45060": 4581,
      "45030": 4582,
      "34810": 4583,
      "67830": 4584,
      "ꞽbḥ": 4585,
      "181350": 4586,
      "Sche": 4587,
      "Scheschi": 4588,
      "𓇓𓏏𓂋𓐍𓏏": 4589,
      "tꜣš": 4590,
      "𓇋𓋴𓍿": 4591,
      "hrend": 4592,
      "88250": 4593,
      "ꞽtḥ": 4594,
      "hꜣw": 4595,
      "73290": 4596,
      "Dieser": 4597,
      "𓅓𓂋𓂓𓏏𓀋": 4598,
      "finden": 4599,
      "861183": 4600,
      "160330": 4601,
      "sfest": 4602,
      "𓏠𓈖𓇋": 4603,
      "𓂋𓂝𓏏": 4604,
      "Ššꞽ": 4605,
      "43010": 4606,
      "entfer": 4607,
      "400979": 4608,
      "450017": 4609,
      "Kru": 4610,
      "𓈎𓂋𓋴": 4611,
      "Lebenden": 4612,
      "103750": 4613,
      "𓏃𓏏𓊹𓉱": 4614,
      "einziger": 4615,
      "𓇋𓊪𓏝": 4616,
      "setzen": 4617,
      "Chentischi": 4618,
      "400511": 4619,
      "Pyramiden": 4620,
      "Blut": 4621,
      "Älte": 4622,
      "82810": 4623,
      "𓍋𓃀𓈋𓊖": 4624,
      "Schutz": 4625,
      "Diagnose": 4626,
      "𓉘𓎚𓄣𓊂": 4627,
      "31": 4628,
      "61900": 4629,
      "61490": 4630,
      "717": 4631,
      "=(": 4632,
      "Fuß": 4633,
      "Hirn": 4634,
      "Nin": 4635,
      "Stel": 4636,
      "Wag": 4637,
      "bau": 4638,
      "lö": 4639,
      "mnḏ": 4640,
      "nacht": 4641,
      "ober": 4642,
      "pzḥ": 4643,
      "tyt": 4644,
      "ꜣd": 4645,
      "ꜥqꜣ": 4646,
      "𓂧𓍯": 4647,
      "𓄤𓂋": 4648,
      "𓇿𓂦": 4649,
      "𓈖𓇦𓂋": 4650,
      "𓉿𓉿": 4651,
      "𓊃𓎡𓂋": 4652,
      "𓊖𓊖": 4653,
      "𓊪𓈙𓈖": 4654,
      "𓊪𓅯𓄿": 4655,
      "𓋭𓊃": 4656,
      "𓋾𓉞": 4657,
      "𓌞𓋴": 4658,
      "𓍢𓍢": 4659,
      "𓏛𓀀": 4660,
      "ere": 4661,
      "ḏf": 4662,
      "amten": 4663,
      "302": 4664,
      "orm": 4665,
      "šnꞽ": 4666,
      "1130": 4667,
      "400084": 4668,
      "8825": 4669,
      "558": 4670,
      "55150": 4671,
      "163760": 4672,
      "äu": 4673,
      "fried": 4674,
      "137": 4675,
      "1372": 4676,
      "1393": 4677,
      "ptr": 4678,
      "17D": 4679,
      "snf": 4680,
      "nḫḫ": 4681,
      "7930": 4682,
      "1420": 4683,
      "45053": 4684,
      "dwn": 4685,
      "91900": 4686,
      "184340": 4687,
      "vert": 4688,
      "2650": 4689,
      "2300": 4690,
      "Neu": 4691,
      "wꜣš": 4692,
      "sḫpi̯": 4693,
      "185300": 4694,
      "Stadt": 4695,
      "107520": 4696,
      "hinab": 4697,
      "401164": 4698,
      "Mögen": 4699,
      "ehrt": 4700,
      "450223": 4701,
      "𓁹𓏏𓏤𓎛𓁷𓂋𓅃": 4702,
      "𓎛𓂝𓄹𓏥": 4703,
      "176810": 4704,
      "400614": 4705,
      "Boden": 4706,
      "𓆓𓈖𓈖𓏏": 4707,
      "𓈙𓈙𓇋": 4708,
      "Wesir": 4709,
      "31830": 4710,
      "ippen": 4711,
      "Lobprei": 4712,
      "Ninetjer": 4713,
      "58": 4714,
      "Besch": 4715,
      "Fall": 4716,
      "I14": 4717,
      "Kom": 4718,
      "Mein": 4719,
      "Seh": 4720,
      "Wꜣg": 4721,
      "Zeit": 4722,
      "bd": 4723,
      "besch": 4724,
      "gab": 4725,
      "hoh": 4726,
      "ißt": 4727,
      "näm": 4728,
      "sḥmi̯": 4729,
      "tfn": 4730,
      "uer": 4731,
      "wür": 4732,
      "ꜣwi̯": 4733,
      "ꜥḫ": 4734,
      "ꜥbꜣ": 4735,
      "ꞽpw": 4736,
      "ꞽfd": 4737,
      "𓂞𓂞": 4738,
      "𓄞𓏏": 4739,
      "𓄟𓈖": 4740,
      "𓄟𓋴": 4741,
      "𓄹𓄹": 4742,
      "𓅓𓈖": 4743,
      "𓅓𓆱𓏏": 4744,
      "𓅜𓏏": 4745,
      "𓆄𓏲": 4746,
      "𓇋𓂻𓅱": 4747,
      "𓇓𓂋𓐍𓏏": 4748,
      "𓈖𓎟": 4749,
      "𓈙𓂋𓏏": 4750,
      "𓊃𓅭": 4751,
      "𓊪𓊖": 4752,
      "𓊵𓌂𓌂": 4753,
      "𓊹𓉻": 4754,
      "𓊹𓋴𓍿": 4755,
      "400221": 4756,
      "400030": 4757,
      "nsꞽ": 4758,
      "80890": 4759,
      "131760": 4760,
      "174480": 4761,
      "43510": 4762,
      "etj": 4763,
      "schwar": 4764,
      "1480": 4765,
      "ꞽbꞽ": 4766,
      "ḥnw": 4767,
      "wꜥr": 4768,
      "bꜣk": 4769,
      "neb": 4770,
      "Opfern": 4771,
      "qꜣs": 4772,
      "weiter": 4773,
      "39920": 4774,
      "Spalt": 4775,
      "76170": 4776,
      "Art": 4777,
      "ḫnz": 4778,
      "änger": 4779,
      "𓊢𓂝𓂻": 4780,
      "gebar": 4781,
      "Absch": 4782,
      "𓇋𓏶𓏏": 4783,
      "713274": 4784,
      "muß": 4785,
      "Öls": 4786,
      "während": 4787,
      "öffnen": 4788,
      "550321": 4789,
      "Gerechtfertigten": 4790,
      "andere": 4791,
      "anderen": 4792,
      "Leinenzeu": 4793,
      "schützen": 4794,
      "𓎛𓆰𓈖": 4795,
      "leibliche": 4796,
      "183850": 4797,
      "Steh": 4798,
      "Feind": 4799,
      "gabe": 4800,
      "138740": 4801,
      "𓅓𓆱𓐍𓏏𓂻": 4802,
      "nehmen": 4803,
      "Verklärten": 4804,
      "𓏌𓎢𓀀": 4805,
      "sechemui": 4806,
      "𓂓𓎛𓇋𓆑": 4807,
      "Jahres": 4808,
      "𓊪𓈙𓈖𓏴": 4809,
      "Lobpreis": 4810,
      "nämlich": 4811,
      "211": 4812,
      "24430": 4813,
      "367": 4814,
      "68330": 4815,
      "Bin": 4816,
      "Fü": 4817,
      "Ibi": 4818,
      "Länder": 4819,
      "Mach": 4820,
      "Meine": 4821,
      "Mahl": 4822,
      "Miter": 4823,
      "Um": 4824,
      "glei": 4825,
      "hlt": 4826,
      "kein": 4827,
      "met": 4828,
      "thm": 4829,
      "ꞽꜥꜣ": 4830,
      "𓂸𓏏": 4831,
      "𓂻𓅱𓏏": 4832,
      "𓃀𓈞": 4833,
      "𓄭𓂋": 4834,
      "𓆷𓄿": 4835,
      "𓇋𓈎𓂋": 4836,
      "𓇍𓇋𓇋": 4837,
      "𓇓𓅭": 4838,
      "𓇥𓊂": 4839,
      "𓇬𓏘𓏘": 4840,
      "𓈋𓅱": 4841,
      "𓉘𓇥𓊂": 4842,
      "𓋴𓇮": 4843,
      "𓋴𓈙": 4844,
      "𓌳𓐚": 4845,
      "𓎟𓇾𓂦": 4846,
      "𓏲𓀀": 4847,
      "𓐪𓂧": 4848,
      "stes": 4849,
      "ḥꜥi̯": 4850,
      "108340": 4851,
      "40057": 4852,
      "amens": 4853,
      "851": 4854,
      "štꜣ": 4855,
      "anden": 4856,
      "frisch": 4857,
      "1330": 4858,
      "171": 4859,
      "1740": 4860,
      "177930": 4861,
      "ẖnn": 4862,
      "ꜥwꜣ": 4863,
      "4980": 4864,
      "antwor": 4865,
      "ḏdi̯": 4866,
      "Königst": 4867,
      "Schiff": 4868,
      "achten": 4869,
      "25100": 4870,
      "64371": 4871,
      "bef": 4872,
      "siehe": 4873,
      "𓇋𓂋𓏭": 4874,
      "gere": 4875,
      "64430": 4876,
      "Armen": 4877,
      "ḫnr": 4878,
      "𓌸𓂋𓄣": 4879,
      "ausgest": 4880,
      "zerst": 4881,
      "63920": 4882,
      "stellen": 4883,
      "𓊃𓈖𓆑": 4884,
      "𓍛𓏤𓅆": 4885,
      "Speise": 4886,
      "Gutsverwalter": 4887,
      "ziehen": 4888,
      "851441": 4889,
      "Alabastergefäßen": 4890,
      "Nasenhöh": 4891,
      "138920": 4892,
      "königlichen": 4893,
      "Türflügel": 4894,
      "Rangtitel": 4895,
      "𓂋𓂝𓄤𓋴𓌮𓅓": 4896,
      "𓋴𓇛𓈖𓆓𓅓𓄣": 4897,
      "137250": 4898,
      "Neuj": 4899,
      "𓆓𓈖𓈖𓏏𓁶": 4900,
      "Abscheu": 4901,
      "Leinenzeugs": 4902,
      "634": 4903,
      "D33": 4904,
      "E143": 4905,
      "Furcht": 4906,
      "G106": 4907,
      "Handw": 4908,
      "Kan": 4909,
      "Oh": 4910,
      "Plät": 4911,
      "Spd": 4912,
      "Wen": 4913,
      "Zäh": 4914,
      "aben": 4915,
      "bnw": 4916,
      "ko": 4917,
      "ks": 4918,
      "me": 4919,
      "mnn": 4920,
      "meinem": 4921,
      "pat": 4922,
      "reinen": 4923,
      "smꞽ": 4924,
      "samm": 4925,
      "wem": 4926,
      "welt": 4927,
      "ꜣh": 4928,
      "Ꞽꜣ": 4929,
      "Ꞽbꞽ": 4930,
      "𓁹𓇋𓇋": 4931,
      "𓁹𓂋𓏏": 4932,
      "𓂐𓏥": 4933,
      "𓃀𓂝": 4934,
      "𓊃𓂋": 4935,
      "𓊃𓃀𓈖": 4936,
      "𓌡𓂝": 4937,
      "𓎛𓎡": 4938,
      "𓎛𓈎𓏏": 4939,
      "𓎟𓅱": 4940,
      "𓎼𓃀": 4941,
      "stift": 4942,
      "prr": 4943,
      "ḫwrr": 4944,
      "ḏwi̯": 4945,
      "400216": 4946,
      "7033": 4947,
      "get": 4948,
      "110360": 4949,
      "8533": 4950,
      "plitter": 4951,
      "128": 4952,
      "1210": 4953,
      "1630": 4954,
      "1620": 4955,
      "1530": 4956,
      "152670": 4957,
      "kꜣꞽ": 4958,
      "147": 4959,
      "2980": 4960,
      "400006": 4961,
      "verklä": 4962,
      "253": 4963,
      "Verb": 4964,
      "ꞽtn": 4965,
      "69660": 4966,
      "6610": 4967,
      "ochen": 4968,
      "86570": 4969,
      "𓊵𓏏𓊪𓅱": 4970,
      "Totenstift": 4971,
      "55034": 4972,
      "3990": 4973,
      "bringt": 4974,
      "Götterhalle": 4975,
      "702922": 4976,
      "92500": 4977,
      "Lebt": 4978,
      "142800": 4979,
      "šrꞽ": 4980,
      "Fremd": 4981,
      "geschlagen": 4982,
      "92580": 4983,
      "gefallen": 4984,
      "𓎛𓃀𓌨": 4985,
      "𓋴𓂧𓈄": 4986,
      "ꞽdb": 4987,
      "550317": 4988,
      "ḥzz": 4989,
      "Langhornrind": 4990,
      "Mangel": 4991,
      "Neunheiten": 4992,
      "882338": 4993,
      "𓎼𓂋𓀁": 4994,
      "sḫti̯": 4995,
      "Alabastergefäß": 4996,
      "600041": 4997,
      "sqdi̯": 4998,
      "167750": 4999,
      "zbi̯": 5000,
      "𓈎𓂋𓌠𓋴𓊭𓏏": 5001,
      "400261": 5002,
      "𓏠𓈖𓐍𓍊": 5003,
      "Kapelle": 5004,
      "𓏇𓈖𓇳": 5005,
      "Holz": 5006,
      "erhoben": 5007,
      "hohen": 5008,
      "Totenstiftung": 5009,
      "320": 5010,
      "31760": 5011,
      "47920": 5012,
      "670": 5013,
      "7120": 5014,
      "?).": 5015,
      "Bür": 5016,
      "El": 5017,
      "Fett": 5018,
      "Gol": 5019,
      "Geister": 5020,
      "Ins": 5021,
      "Jün": 5022,
      "Kö": 5023,
      "Pꞽ": 5024,
      "R118": 5025,
      "Sü": 5026,
      "Sze": 5027,
      "Sucher": 5028,
      "V96": 5029,
      "aden": 5030,
      "bein": 5031,
      "dd": 5032,
      "dom": 5033,
      "hp": 5034,
      "mzḥ": 5035,
      "nut": 5036,
      "qꜥḥ": 5037,
      "qed": 5038,
      "qbb": 5039,
      "tat": 5040,
      "ufen": 5041,
      "wḫ": 5042,
      "wes": 5043,
      "zi": 5044,
      "ꞽdn": 5045,
      "𓂧𓋴": 5046,
      "𓃥𓅷": 5047,
      "𓄋𓊪𓏏": 5048,
      "𓄟𓋴𓈖": 5049,
      "𓄪𓐍": 5050,
      "𓈙𓏤": 5051,
      "𓉐𓂋𓈖": 5052,
      "𓉔𓈖": 5053,
      "𓉔𓏏": 5054,
      "𓉗𓏏𓉐": 5055,
      "𓉻𓏏": 5056,
      "𓋴𓇋": 5057,
      "𓍯𓎼": 5058,
      "𓎢𓇋𓇋": 5059,
      "ḥḏi̯": 5060,
      "101": 5061,
      "ḫmt": 5062,
      "ḏꜥ": 5063,
      "400246": 5064,
      "400419": 5065,
      "nte": 5066,
      "706": 5067,
      "7026": 5068,
      "7069": 5069,
      "301": 5070,
      "getan": 5071,
      "eitet": 5072,
      "8570": 5073,
      "anfang": 5074,
      "111360": 5075,
      "124780": 5076,
      "169": 5077,
      "166210": 5078,
      "152": 5079,
      "ähr": 5080,
      "171190": 5081,
      "user": 5082,
      "43B": 5083,
      "genheit": 5084,
      "snm": 5085,
      "ḥmt": 5086,
      "34550": 5087,
      "67770": 5088,
      "bereich": 5089,
      "lebe": 5090,
      "𓇓𓏏𓅭": 5091,
      "25180": 5092,
      "5750": 5093,
      "45600": 5094,
      "185460": 5095,
      "dazu": 5096,
      "dafür": 5097,
      "reich": 5098,
      "Auft": 5099,
      "Stein": 5100,
      "21A": 5101,
      "brech": 5102,
      "Oberdom": 5103,
      "20000": 5104,
      "gesicht": 5105,
      "8538": 5106,
      "sollte": 5107,
      "Kꜣꞽ": 5108,
      "ossen": 5109,
      "𓇓𓏏𓈖𓂓": 5110,
      "142170": 5111,
      "ließ": 5112,
      "450097": 5113,
      "wohl": 5114,
      "gegenüber": 5115,
      "Vaters": 5116,
      "stellt": 5117,
      "darüber": 5118,
      "öffne": 5119,
      "𓁹𓏏𓏤𓅃": 5120,
      "70530": 5121,
      "𓇋𓃀𓇋": 5122,
      "Sprechen": 5123,
      "𓎼𓂋𓍅": 5124,
      "Westen": 5125,
      "134020": 5126,
      "Schläfe": 5127,
      "𓎡𓄿𓇋": 5128,
      "𓐎𓏏𓀜": 5129,
      "Thron": 5130,
      "Körper": 5131,
      "M3B": 5132,
      "𓉘𓆢𓍋": 5133,
      "𓅱𓈙𓃀": 5134,
      "450276": 5135,
      "882893": 5136,
      "Öff": 5137,
      "851809": 5138,
      "Scheun": 5139,
      "I14C": 5140,
      "Königstochter": 5141,
      "Neujahr": 5142,
      "Oberdomänen": 5143,
      ")=": 5144,
      "5A": 5145,
      "720": 5146,
      "Aa": 5147,
      "Cha": 5148,
      "Fla": 5149,
      "Gib": 5150,
      "Kl": 5151,
      "Mal": 5152,
      "Neh": 5153,
      "Nḫn": 5154,
      "Rindern": 5155,
      "Smr": 5156,
      "Sah": 5157,
      "Tef": 5158,
      "Tfn": 5159,
      "Vo": 5160,
      "gi̯": 5161,
      "göt": 5162,
      "ide": 5163,
      "jub": 5164,
      "kung": 5165,
      "mḏd": 5166,
      "meister": 5167,
      "nun": 5168,
      "nḥs": 5169,
      "ngꜣ": 5170,
      "spꜣ": 5171,
      "smnḫ": 5172,
      "ꜣms": 5173,
      "ꜥnḏ": 5174,
      "ꞽdr": 5175,
      "𓂊𓏤": 5176,
      "𓄿𓀁": 5177,
      "𓄿𓏲": 5178,
      "𓅱𓏛𓏥": 5179,
      "𓆑𓈖": 5180,
      "𓇛𓅓": 5181,
      "𓈖𓂜": 5182,
      "𓈙𓆑": 5183,
      "𓊖𓏏": 5184,
      "𓊖𓏏𓏤": 5185,
      "𓊿𓏏": 5186,
      "𓍘𓇋𓇋": 5187,
      "𓎔𓏏": 5188,
      "𓎛𓄿": 5189,
      "𓎡𓏏": 5190,
      "eret": 5191,
      "ḥwr": 5192,
      "1020": 5193,
      "inke": 5194,
      "ḏꜥw": 5195,
      "iegel": 5196,
      "70310": 5197,
      "110870": 5198,
      "eilen": 5199,
      "8590": 5200,
      "124480": 5201,
      "163": 5202,
      "nsch": 5203,
      "frü": 5204,
      "Ḥꜣ": 5205,
      "1790": 5206,
      "182": 5207,
      "Schm": 5208,
      "swꜣḏ": 5209,
      "olge": 5210,
      "44150": 5211,
      "882302": 5212,
      "beu": 5213,
      "edi": 5214,
      "130830": 5215,
      "7480": 5216,
      "pfe": 5217,
      "𓅓𓂋𓇓𓏏𓏞𓂝𓏝": 5218,
      "spricht": 5219,
      "sprech": 5220,
      "Stirn": 5221,
      "9420": 5222,
      "sꜣb": 5223,
      "Totenfest": 5224,
      "sšd": 5225,
      "weiß": 5226,
      "60047": 5227,
      "Oberar": 5228,
      "Meru": 5229,
      "Ḏꜥw": 5230,
      "Beamten": 5231,
      "500024": 5232,
      "97200": 5233,
      "Gehör": 5234,
      "52090": 5235,
      "jenen": 5236,
      "sbḫ": 5237,
      "125670": 5238,
      "37500": 5239,
      "𓆑𓏏𓌪": 5240,
      "ppe": 5241,
      "hauses": 5242,
      "95820": 5243,
      "Djau": 5244,
      "𓅠𓅓𓈖": 5245,
      "𓆓𓆑𓆓𓆑": 5246,
      "109830": 5247,
      "annte": 5248,
      "𓈖𓄓𓏏": 5249,
      "schützt": 5250,
      "851316": 5251,
      "Semer": 5252,
      "Spruch": 5253,
      "gans": 5254,
      "105200": 5255,
      "Gefolge": 5256,
      "Einziger": 5257,
      "Wirbel": 5258,
      "𓅓𓂋𓉐𓀗": 5259,
      "Pyramide": 5260,
      "𓂋𓍿𓀀𓁐𓏥": 5261,
      "üssigkeit": 5262,
      "𓍯𓏏𓈐𓈐𓈐": 5263,
      "Gefäß": 5264,
      "702558": 5265,
      "sitzen": 5266,
      "nieder": 5267,
      "Steif": 5268,
      "behandeln": 5269,
      "Glieder": 5270,
      "Pflan": 5271,
      "709669": 5272,
      "Ende": 5273,
      "Phyle": 5274,
      "𓅓𓂋𓂓𓏏𓀋𓎟": 5275,
      "171880": 5276,
      "63460": 5277,
      "D33C": 5278,
      "Fladen": 5279,
      "Tefnut": 5280,
      "Vogel": 5281,
      "\"(": 5282,
      "$.": 5283,
      "712": 5284,
      "977": 5285,
      "Bu": 5286,
      "Dir": 5287,
      "Dwꜣ": 5288,
      "G49": 5289,
      "Gehen": 5290,
      "Ho": 5291,
      "Me": 5292,
      "Mäch": 5293,
      "Net": 5294,
      "Nahr": 5295,
      "Nḫb": 5296,
      "Ohren": 5297,
      "O338": 5298,
      "Sa": 5299,
      "Ster": 5300,
      "Sḫm": 5301,
      "Tor": 5302,
      "U116": 5303,
      "Wahr": 5304,
      "dür": 5305,
      "fei": 5306,
      "gst": 5307,
      "gän": 5308,
      "his": 5309,
      "iffen": 5310,
      "namens": 5311,
      "qu": 5312,
      "sꞽn": 5313,
      "ure": 5314,
      "wa": 5315,
      "ßte": 5316,
      "ꜣbw": 5317,
      "ꞽnb": 5318,
      "𓁷𓂋𓏏": 5319,
      "𓂘𓅜": 5320,
      "𓂧𓊪𓏏": 5321,
      "𓂧𓏏𓏤": 5322,
      "𓄊𓋴𓂋": 5323,
      "𓄔𓄔": 5324,
      "𓄖𓂻": 5325,
      "𓄟𓅱": 5326,
      "𓄿𓊪": 5327,
      "𓅓𓏇": 5328,
      "𓈙𓂝": 5329,
      "𓈛𓏏𓊖": 5330,
      "𓉘𓅃": 5331,
      "𓊃𓃀": 5332,
      "𓊃𓐍𓂋": 5333,
      "𓋭𓏤": 5334,
      "𓋴𓊪𓏏": 5335,
      "𓌟𓏤": 5336,
      "𓍯𓄿𓏏": 5337,
      "𓍱𓎟": 5338,
      "𓎛𓏌": 5339,
      "𓎛𓂓𓂓𓂓": 5340,
      "𓏏𓍔𓄿": 5341,
      "𓐍𓍼": 5342,
      "𓐙︂": 5343,
      "ergrei": 5344,
      "stag": 5345,
      "ender": 5346,
      "innen": 5347,
      "504": 5348,
      "400112": 5349,
      "400114": 5350,
      "400147": 5351,
      "9070": 5352,
      "dere": 5353,
      "7067": 5354,
      "30730": 5355,
      "857": 5356,
      "8550": 5357,
      "ꞽmr": 5358,
      "irgen": 5359,
      "kꜣn": 5360,
      "1391": 5361,
      "elle": 5362,
      "itte": 5363,
      "ehm": 5364,
      "4920": 5365,
      "34750": 5366,
      "arf": 5367,
      "184990": 5368,
      "Schrift": 5369,
      "𓃹𓈖𓉿": 5370,
      "𓃹𓈖𓇋𓈖": 5371,
      "Vertrau": 5372,
      "88249": 5373,
      "Ersch": 5374,
      "vorbei": 5375,
      "griffen": 5376,
      "möchte": 5377,
      "𓅓𓂋𓎧": 5378,
      "𓅓𓂋𓏞": 5379,
      "565": 5380,
      "heben": 5381,
      "sšꜣ": 5382,
      "weichen": 5383,
      "großer": 5384,
      "6003": 5385,
      "pꜣq": 5386,
      "𓏠𓈖𓅪": 5387,
      "Šp": 5388,
      "𓇋𓌳𓐍𓄪": 5389,
      "sdb": 5390,
      "Hausvorsteher": 5391,
      "Kraft": 5392,
      "zni̯": 5393,
      "nri̯": 5394,
      "Wassersp": 5395,
      "Als": 5396,
      "seist": 5397,
      "seite": 5398,
      "ällt": 5399,
      "ṯrp": 5400,
      "smd": 5401,
      "𓍿𓊃𓍞": 5402,
      "Ꜣbd": 5403,
      "bꞽꜣi̯": 5404,
      "450514": 5405,
      "Flüssigkeit": 5406,
      "Ausfluß": 5407,
      "850805": 5408,
      "𓏏𓍃𓅓": 5409,
      "gelegenheit": 5410,
      "Geschenk": 5411,
      "𓊹𓊹𓊹𓊹𓊹𓊹𓊹𓊹𓊹𓊹𓊹𓊹𓊹𓊹𓊹𓊹": 5412,
      "850522": 5413,
      "gaben": 5414,
      "holt": 5415,
      "650007": 5416,
      "Fürst": 5417,
      "𓄣𓄣𓄣": 5418,
      "Geistes": 5419,
      "𓅧𓈎𓂻": 5420,
      "Gestalt": 5421,
      "Befehl": 5422,
      "𓂧𓍯𓇼": 5423,
      "𓊃𓈖𓆑𓂐𓏥": 5424,
      "Plätzen": 5425,
      "𓉘𓆢𓍋𓊂": 5426,
      "Neujahrstag": 5427,
      "Oberdomänenvorsteher": 5428,
      "G49E": 5429,
      "Nahrung": 5430,
      "$,": 5431,
      "191": 5432,
      "155000": 5433,
      "314": 5434,
      "543": 5435,
      "Bö": 5436,
      "Hir": 5437,
      "Hä": 5438,
      "Iy": 5439,
      "Jub": 5440,
      "Pa": 5441,
      "Rindes": 5442,
      "Snb": 5443,
      "Sesch": 5444,
      "To": 5445,
      "Ufer": 5446,
      "Wind": 5447,
      "dꜣ": 5448,
      "fꜥ": 5449,
      "hört": 5450,
      "ient": 5451,
      "kk": 5452,
      "kꞽ": 5453,
      "macht": 5454,
      "nes": 5455,
      "rꞽ": 5456,
      "recht": 5457,
      "skꜣ": 5458,
      "sqꜣi̯": 5459,
      "twr": 5460,
      "tkn": 5461,
      "teil": 5462,
      "uft": 5463,
      "wh": 5464,
      "𓂋𓋴": 5465,
      "𓂝𓃹𓈖": 5466,
      "𓂻𓏲": 5467,
      "𓄋𓈐": 5468,
      "𓄡𓏏𓆑": 5469,
      "𓄿𓈖": 5470,
      "𓇋𓄿𓏏": 5471,
      "𓈖𓋴": 5472,
      "𓈖𓍇": 5473,
      "𓈖𓍘": 5474,
      "𓈖𓎛": 5475,
      "𓉔𓅓": 5476,
      "𓉘𓊵𓌂𓌂": 5477,
      "𓊃𓇋": 5478,
      "𓊃𓎛": 5479,
      "𓋴𓌳": 5480,
      "𓌃𓏝": 5481,
      "𓌠𓊭": 5482,
      "𓌴𓁹": 5483,
      "𓍋𓈋": 5484,
      "𓍘𓍘": 5485,
      "𓎛𓂓": 5486,
      "𓎛𓈎𓂋": 5487,
      "𓎟𓊽": 5488,
      "𓎡𓋴": 5489,
      "𓏊𓏥": 5490,
      "𓏏𓄿": 5491,
      "𓏏𓈉": 5492,
      "𓏏𓇓𓅭": 5493,
      "𓐩𓏌": 5494,
      "𓐫𓂧": 5495,
      "erreicht": 5496,
      "sgnn": 5497,
      "ḥṯ": 5498,
      "prü": 5499,
      "ine": 5500,
      "ḏꜥr": 5501,
      "eint": 5502,
      "unken": 5503,
      "šb": 5504,
      "114300": 5505,
      "ṯbw": 5506,
      "1539": 5507,
      "Ḥm": 5508,
      "131180": 5509,
      "etrei": 5510,
      "etwegen": 5511,
      "schau": 5512,
      "schon": 5513,
      "wrš": 5514,
      "50000": 5515,
      "ḫꜣꜥ": 5516,
      "legt": 5517,
      "ꞽbꜣ": 5518,
      "186": 5519,
      "𓇋𓇋𓀁": 5520,
      "infolge": 5521,
      "versamm": 5522,
      "olist": 5523,
      "Nechen": 5524,
      "grün": 5525,
      "gehören": 5526,
      "reichen": 5527,
      "Stab": 5528,
      "Stolist": 5529,
      "geliebt": 5530,
      "hinit": 5531,
      "𓅨𓂋𓂋𓏏": 5532,
      "ḏꜣḏꜣ": 5533,
      "Ḏꜣ": 5534,
      "Leute": 5535,
      "iby": 5536,
      "kenne": 5537,
      "Gebäck": 5538,
      "71357": 5539,
      "besteh": 5540,
      "𓇋𓌳𓄪𓐍𓅱𓐍𓂋𓊹𓉻": 5541,
      "104600": 5542,
      "exist": 5543,
      "fül": 5544,
      "𓆤𓏏𓋨": 5545,
      "𓐍𓊪𓆣𓂋": 5546,
      "Leinensto": 5547,
      "𓉐𓂋𓏏𓂻": 5548,
      "Hügeln": 5549,
      "cherichet": 5550,
      "vereinigt": 5551,
      "richten": 5552,
      "𓏝𓏝𓏝": 5553,
      "Pezen": 5554,
      "Vollkommen": 5555,
      "863016": 5556,
      "Innern": 5557,
      "142140": 5558,
      "450596": 5559,
      "Untergehenden": 5560,
      "Komm": 5561,
      "𓋴𓂧𓈄𓏴": 5562,
      "Szepter": 5563,
      "Netcherichet": 5564,
      "𓉘𓊵𓌂𓌂𓊂": 5565,
      "!)": 5566,
      "(\"": 5567,
      "51330": 5568,
      "6A": 5569,
      "72650": 5570,
      "91200": 5571,
      "Anb": 5572,
      "Bild": 5573,
      "Baum": 5574,
      "Ele": 5575,
      "Gem": 5576,
      "Getrei": 5577,
      "Km": 5578,
      "Lö": 5579,
      "Nen": 5580,
      "Nä": 5581,
      "Nub": 5582,
      "O2": 5583,
      "Rippen": 5584,
      "Sḥtp": 5585,
      "Sab": 5586,
      "Tru": 5587,
      "Zer": 5588,
      "fällt": 5589,
      "hör": 5590,
      "mẖn": 5591,
      "pe": 5592,
      "sḥd": 5593,
      "woll": 5594,
      "yw": 5595,
      "zäh": 5596,
      "ꞽwt": 5597,
      "𓀻𓋴𓋴": 5598,
      "𓁹𓐍𓂋": 5599,
      "𓂉𓀁": 5600,
      "𓂧𓄑": 5601,
      "𓄙𓅓": 5602,
      "𓆄𓆄": 5603,
      "𓇋𓎁": 5604,
      "𓇍𓇋": 5605,
      "𓇍𓌸𓇋𓇋": 5606,
      "𓈙𓊪": 5607,
      "𓊹𓅆": 5608,
      "𓋹𓂓": 5609,
      "𓋹𓅱": 5610,
      "𓌳𓌉": 5611,
      "𓎢𓅱𓀀": 5612,
      "𓎼𓂋𓏏": 5613,
      "𓏲𓂧": 5614,
      "𓏲𓂻": 5615,
      "𓐍𓆼𓄿": 5616,
      "erung": 5617,
      "4004": 5618,
      "7022": 5619,
      "70343": 5620,
      "eilt": 5621,
      "unver": 5622,
      "20360": 5623,
      "šnṯ": 5624,
      "400096": 5625,
      "16A": 5626,
      "1629": 5627,
      "1692": 5628,
      "äuch": 5629,
      "tef": 5630,
      "133": 5631,
      "1333": 5632,
      "132440": 5633,
      "172": 5634,
      "171460": 5635,
      "179420": 5636,
      "4390": 5637,
      "snfr": 5638,
      "29740": 5639,
      "4507": 5640,
      "62180": 5641,
      "184": 5642,
      "1827": 5643,
      "Schrein": 5644,
      "Schul": 5645,
      "Schak": 5646,
      "Schenk": 5647,
      "8503": 5648,
      "850504": 5649,
      "𓇓𓏏𓐬": 5650,
      "swꜥb": 5651,
      "236": 5652,
      "Unrecht": 5653,
      "882266": 5654,
      "130360": 5655,
      "reden": 5656,
      "550047": 5657,
      "𓅓𓂋𓂖": 5658,
      "reitet": 5659,
      "ocht": 5660,
      "Angelegenheit": 5661,
      "urz": 5662,
      "Stätte": 5663,
      "wni̯": 5664,
      "ṯni̯": 5665,
      "weiße": 5666,
      "gerichtet": 5667,
      "2420": 5668,
      "pꜣy": 5669,
      "jedes": 5670,
      "ängt": 5671,
      "𓈖𓐍𓐍": 5672,
      "𓏏𓈖𓏥": 5673,
      "Grö": 5674,
      "mery": 5675,
      "ꞽzzꞽ": 5676,
      "7000": 5677,
      "gefunden": 5678,
      "ḥꜥꜥ": 5679,
      "Schlacht": 5680,
      "𓁹𓏏𓅃": 5681,
      "daraufhin": 5682,
      "Weise": 5683,
      "Hüte": 5684,
      "hervorkam": 5685,
      "450245": 5686,
      "Ḏdꞽ": 5687,
      "850806": 5688,
      "120010": 5689,
      "Berg": 5690,
      "𓂭𓂭𓂭": 5691,
      "erschienen": 5692,
      "𓇋𓆑𓄹": 5693,
      "ganzen": 5694,
      "See": 5695,
      "𓌢𓌢𓌢": 5696,
      "𓋴𓆓𓃀": 5697,
      "ḥts": 5698,
      "herauskommt": 5699,
      "Tjet": 5700,
      "Imiut": 5701,
      "𓊨𓊨𓊨𓏏": 5702,
      "𓏏𓂋𓆵": 5703,
      "Zimmerleute": 5704,
      "Kuh": 5705,
      "𓋹𓈖𓐍𓏏": 5706,
      "agazin": 5707,
      "Gefolgsmann": 5708,
      "𓌃𓅓𓂧𓅱": 5709,
      "Monats": 5710,
      "entfernen": 5711,
      "Älteste": 5712,
      "36740": 5713,
      "550341": 5714,
      "Sahure": 5715,
      "gött": 5716,
      "𓊹𓊹𓊹𓊹𓊹𓊹𓊹𓊹𓊹𓊹𓊹𓊹𓊹𓊹𓊹𓊹𓊹𓊹": 5717,
      "500006": 5718,
      "Leinenstoff": 5719,
      "702242": 5720,
      ")+(": 5721,
      ",)": 5722,
      "21550": 5723,
      "334": 5724,
      "530": 5725,
      "58820": 5726,
      "6500": 5727,
      "68570": 5728,
      "7A": 5729,
      "747": 5730,
      "81950": 5731,
      "987": 5732,
      "Ä": 5733,
      "Abrech": 5734,
      "Bw": 5735,
      "Bel": 5736,
      "Betr": 5737,
      "D124": 5738,
      "Iu": 5739,
      "M13A": 5740,
      "Nacken": 5741,
      "O175": 5742,
      "Rʾ": 5743,
      "Sꜣb": 5744,
      "V28": 5745,
      "Westlichen": 5746,
      "W17D": 5747,
      "dꜣb": 5748,
      "for": 5749,
      "gb": 5750,
      "gl": 5751,
      "halt": 5752,
      "handeln": 5753,
      "jün": 5754,
      "kla": 5755,
      "lauf": 5756,
      "nd": 5757,
      "nwr": 5758,
      "ote": 5759,
      "oben": 5760,
      "psš": 5761,
      "rin": 5762,
      "rot": 5763,
      "richtet": 5764,
      "rieben": 5765,
      "ual": 5766,
      "wel": 5767,
      "zzꞽ": 5768,
      "zelt": 5769,
      "Ꞽzzꞽ": 5770,
      "ꞽdw": 5771,
      "𓁹𓏏𓈖": 5772,
      "𓂋𓅓": 5773,
      "𓂋𓎡": 5774,
      "𓂔𓉜": 5775,
      "𓂻𓏏": 5776,
      "𓃥𓅓𓂋𓏞": 5777,
      "𓄤𓊵": 5778,
      "𓅒𓈎𓂝": 5779,
      "𓅓𓂻": 5780,
      "𓅱𓏌": 5781,
      "𓆑𓂧": 5782,
      "𓇋𓆓": 5783,
      "𓇾𓇾": 5784,
      "𓈖𓊂": 5785,
      "𓈖𓃀𓋴": 5786,
      "𓈙𓋴": 5787,
      "𓉐𓇓𓏏": 5788,
      "𓉓𓏒": 5789,
      "𓉔𓂋𓅱": 5790,
      "𓉫𓃥𓅷": 5791,
      "𓊏𓊪": 5792,
      "𓋳𓏥": 5793,
      "𓋴𓊵𓏏𓊪": 5794,
      "𓌂𓁷𓄣": 5795,
      "𓌗𓏛": 5796,
      "𓍋𓋴": 5797,
      "𓍿𓂋": 5798,
      "𓎁𓏏": 5799,
      "𓎛𓊪": 5800,
      "𓎟𓇿𓂦": 5801,
      "𓏞𓏛": 5802,
      "𓏶𓅓": 5803,
      "ḥzw": 5804,
      "chter": 5805,
      "400565": 5806,
      "70219": 5807,
      "110660": 5808,
      "eitel": 5809,
      "eicht": 5810,
      "asen": 5811,
      "wtt": 5812,
      "ichter": 5813,
      "5550": 5814,
      "plaz": 5815,
      "1232": 5816,
      "129070": 5817,
      "äd": 5818,
      "tem": 5819,
      "ꞽwd": 5820,
      "alles": 5821,
      "emand": 5822,
      "171450": 5823,
      "itten": 5824,
      "mꜣꞽ": 5825,
      "144980": 5826,
      "45046": 5827,
      "ḏdꞽ": 5828,
      "9120": 5829,
      "1845": 5830,
      "Schrecken": 5831,
      "rner": 5832,
      "85060": 5833,
      "𓇓𓏏𓐭": 5834,
      "aufge": 5835,
      "olt": 5836,
      "šmm": 5837,
      "ḥwn": 5838,
      "srḫ": 5839,
      "nmꞽ": 5840,
      "wꜥḥ": 5841,
      "Erhebe": 5842,
      "695": 5843,
      "geholt": 5844,
      "abw": 5845,
      "𓆓𓂧𓐍𓂋": 5846,
      "gelöst": 5847,
      "sꜣšr": 5848,
      "ennst": 5849,
      "waltung": 5850,
      "leiden": 5851,
      "Großes": 5852,
      "großes": 5853,
      "tritt": 5854,
      "trägt": 5855,
      "𓅨𓂋𓅱": 5856,
      "flie": 5857,
      "8535": 5858,
      "ꜥrr": 5859,
      "𓅓𓏏𓏱": 5860,
      "151010": 5861,
      "450047": 5862,
      "wovon": 5863,
      "wohn": 5864,
      "𓋴𓌉𓂋𓐍𓏏": 5865,
      "Hetepsechemui": 5866,
      "𓇋𓌳𓄪𓐍𓅱𓐍𓂋𓊹": 5867,
      "𓏃𓏏𓊹": 5868,
      "167200": 5869,
      "Mannes": 5870,
      "364": 5871,
      "3620": 5872,
      "450255": 5873,
      "𓍿𓊃𓋭": 5874,
      "550359": 5875,
      "wšd": 5876,
      "ḥzmn": 5877,
      "𓉘𓊹𓈖𓊂": 5878,
      "Djedi": 5879,
      "Inpu": 5880,
      "𓇋𓂧𓂋": 5881,
      "leiblicher": 5882,
      "zeugt": 5883,
      "850583": 5884,
      "𓂝𓂋𓈐": 5885,
      "verbunden": 5886,
      "stoßen": 5887,
      "851172": 5888,
      "Schatzhauses": 5889,
      "pšš": 5890,
      "emporsteigen": 5891,
      "Fingern": 5892,
      "gebiete": 5893,
      "𓏰𓏰𓏰": 5894,
      "müde": 5895,
      "legte": 5896,
      "𓋴𓇦𓂋𓂓": 5897,
      "172700": 5898,
      "Wüste": 5899,
      "räge": 5900,
      "ebenso": 5901,
      "𓇋𓇩𓊃": 5902,
      "trefflich": 5903,
      "882509": 5904,
      "𓌞𓋴𓂻": 5905,
      "Nasenhöhlen": 5906,
      "Handwerk": 5907,
      "Jüngere": 5908,
      "Aufträge": 5909,
      "713574": 5910,
      "𓋹𓂓𓐍": 5911,
      "Schakal": 5912,
      "Abrechnung": 5913,
      "O175B": 5914,
      "klaffen": 5915,
      "123230": 5916,
      "353": 5917,
      "32930": 5918,
      "462": 5919,
      "544": 5920,
      "7107": 5921,
      "71780": 5922,
      "975": 5923,
      "A100": 5924,
      "Bed": 5925,
      "Durch": 5926,
      "Lot": 5927,
      "Lande": 5928,
      "Meister": 5929,
      "Rwḏ": 5930,
      "Sy": 5931,
      "Stern": 5932,
      "Sitz": 5933,
      "Splitter": 5934,
      "S43B": 5935,
      "Von": 5936,
      "Wach": 5937,
      "aat": 5938,
      "bet": 5939,
      "blei": 5940,
      "bḏꜣ": 5941,
      "gung": 5942,
      "gsꜣ": 5943,
      "msw": 5944,
      "pol": 5945,
      "qb": 5946,
      "rwi̯": 5947,
      "rrk": 5948,
      "ta": 5949,
      "–,": 5950,
      "Ꜣbw": 5951,
      "ꜣmꜥ": 5952,
      "ꜥnt": 5953,
      "ꞽꜣḫ": 5954,
      "𓁹𓅱": 5955,
      "𓂊𓂊": 5956,
      "𓂜𓅓": 5957,
      "𓃃𓅱𓍺": 5958,
      "𓄞𓂧𓏏": 5959,
      "𓄯𓄯": 5960,
      "𓄲𓂋": 5961,
      "𓅓𓋴": 5962,
      "𓇋𓊄": 5963,
      "𓈇𓏥": 5964,
      "𓈖𓈙": 5965,
      "𓊤𓏲𓀁": 5966,
      "𓊪𓆓": 5967,
      "𓊪𓎛": 5968,
      "𓊪𓎛𓏏": 5969,
      "𓋴𓄜": 5970,
      "𓋴𓆓𓏏": 5971,
      "𓋴𓌢𓈖": 5972,
      "𓋴𓍯𓄿": 5973,
      "𓌙𓅯": 5974,
      "𓌴𓄿": 5975,
      "𓎛𓆑": 5976,
      "𓎢𓈖": 5977,
      "𓏛𓄣𓏤": 5978,
      "𓐎𓏤": 5979,
      "eral": 5980,
      "107070": 5981,
      "ḫsb": 5982,
      "400304": 5983,
      "400122": 5984,
      "400236": 5985,
      "ackt": 5986,
      "einigt": 5987,
      "eile": 5988,
      "unk": 5989,
      "unst": 5990,
      "essel": 5991,
      "ans": 5992,
      "ṯtw": 5993,
      "165": 5994,
      "167": 5995,
      "1300": 5996,
      "ḫru̯": 5997,
      "ꞽws": 5998,
      "alte": 5999,
      "1756": 6000,
      "1793": 6001,
      "ellung": 6002,
      "ꞽnn": 6003,
      "mry": 6004,
      "ities": 6005,
      "nḫꞽḫ": 6006,
      "antine": 6007,
      "𓈖𓏏𓇓𓏏𓈖": 6008,
      "Schön": 6009,
      "Schep": 6010,
      "Schüt": 6011,
      "193": 6012,
      "882500": 6013,
      "Erden": 6014,
      "Erbe": 6015,
      "vorfindest": 6016,
      "150140": 6017,
      "𓇋𓂋𓊪": 6018,
      "𓇋𓂋𓌗": 6019,
      "Vorder": 6020,
      "immt": 6021,
      "Dies": 6022,
      "𓅱𓏏𓏏": 6023,
      "2220": 6024,
      "dabei": 6025,
      "94240": 6026,
      "8220": 6027,
      "herum": 6028,
      "𓍹𓇳𓃃𓅱𓍺": 6029,
      "gereinigt": 6030,
      "Wort": 6031,
      "trin": 6032,
      "entsprech": 6033,
      "Ḫꜥ": 6034,
      "Ḫꜥi̯": 6035,
      "laß": 6036,
      "𓉐𓂋𓅱": 6037,
      "9370": 6038,
      "gebrochen": 6039,
      "58760": 6040,
      "kenu": 6041,
      "𓎟𓏏𓉐𓏤": 6042,
      "𓄤𓆑𓂋𓏏": 6043,
      "gefilde": 6044,
      "drück": 6045,
      "31020": 6046,
      "6350": 6047,
      "eure": 6048,
      "𓋴𓃀𓇼": 6049,
      "hervorkommt": 6050,
      "𓏅𓏏𓈙": 6051,
      "450226": 6052,
      "𓌳𓁹𓄿𓈖": 6053,
      "450525": 6054,
      "99015": 6055,
      "Ṯtw": 6056,
      "800075": 6057,
      "reinigen": 6058,
      "149660": 6059,
      "mächtiger": 6060,
      "Ehrwürdigen": 6061,
      "Sedjer": 6062,
      "112301": 6063,
      "Henu": 6064,
      "Einzige": 6065,
      "Steuer": 6066,
      "𓈞𓏏𓁐": 6067,
      "Ihre": 6068,
      "650004": 6069,
      "üssel": 6070,
      "üllt": 6071,
      "𓇋𓊃𓊃𓇋": 6072,
      "127110": 6073,
      "Korns": 6074,
      "hält": 6075,
      "zittern": 6076,
      "Empf": 6077,
      "netjeru": 6078,
      "G131B": 6079,
      "𓊽𓊽𓇋": 6080,
      "𓇋𓐍𓏛": 6081,
      "𓈎𓂋𓋴𓌠𓊭": 6082,
      "Binsen": 6083,
      "Miteret": 6084,
      "kod": 6085,
      "Bürger": 6086,
      "Insel": 6087,
      "Scheunen": 6088,
      "𓈖𓂜𓋴𓇦𓂋𓂓": 6089,
      "Pflanze": 6090,
      "Mächte": 6091,
      "𓈖𓍇𓏌𓏲": 6092,
      "O234": 6093,
      "703438": 6094,
      "74700": 6095,
      "702196": 6096,
      "𓋴𓌉𓂋𓐍𓏏𓉒": 6097,
      "97580": 6098,
      "nḫꞽḫi̯": 6099,
      "entsprechend": 6100,
      "58670": 6101,
      ":(": 6102,
      "Gen": 6103,
      "Getr": 6104,
      "Hung": 6105,
      "Hier": 6106,
      "Idu": 6107,
      "Itj": 6108,
      "Joch": 6109,
      "Kro": 6110,
      "Loch": 6111,
      "Nḫt": 6112,
      "P5": 6113,
      "Q18": 6114,
      "Rens": 6115,
      "Rrk": 6116,
      "Sšꜣ": 6117,
      "Smd": 6118,
      "Sechem": 6119,
      "Sonnen": 6120,
      "Thinit": 6121,
      "Ze": 6122,
      "Zur": 6123,
      "bo": 6124,
      "bock": 6125,
      "gar": 6126,
      "gbꜣ": 6127,
      "hd": 6128,
      "handelt": 6129,
      "ickt": 6130,
      "jb": 6131,
      "käm": 6132,
      "kennen": 6133,
      "nꜥw": 6134,
      "nšm": 6135,
      "rpw": 6136,
      "tPL": 6137,
      "ums": 6138,
      "vier": 6139,
      "zlich": 6140,
      "ꜣq": 6141,
      "ꜥfn": 6142,
      "Ꞽdw": 6143,
      "Ꞽꜣm": 6144,
      "𓂋𓏲": 6145,
      "𓂋𓏠𓈖": 6146,
      "𓂧𓂧": 6147,
      "𓂧𓎼": 6148,
      "𓂧𓃀𓈖": 6149,
      "𓃀𓃀": 6150,
      "𓃀𓈖𓏌𓏲": 6151,
      "𓃹𓈖𓏏": 6152,
      "𓄣𓃀": 6153,
      "𓅨𓅨": 6154,
      "𓅱𓀁": 6155,
      "𓆑𓄹𓏥": 6156,
      "𓆳𓏏": 6157,
      "𓇋𓀀": 6158,
      "𓇳𓀭": 6159,
      "𓈉𓏏𓏤": 6160,
      "𓈎𓋴": 6161,
      "𓈖𓅱": 6162,
      "𓈖𓇋": 6163,
      "𓈖𓎟𓆑": 6164,
      "𓉔𓇋": 6165,
      "𓊿𓅂": 6166,
      "𓋴𓌢": 6167,
      "𓋴𓂋𓅱": 6168,
      "𓌴𓄹": 6169,
      "𓍈𓏌𓅱": 6170,
      "𓍒𓄿𓏏": 6171,
      "𓍯𓆓": 6172,
      "𓎟𓎟": 6173,
      "𓎢𓆙": 6174,
      "𓎼𓌴𓄹": 6175,
      "𓏊𓏖": 6176,
      "𓏏𓍯𓄿": 6177,
      "𓏞𓏝": 6178,
      "ersten": 6179,
      "endet": 6180,
      "ḥnn": 6181,
      "102": 6182,
      "ḫbꜣ": 6183,
      "ḫpp": 6184,
      "inz": 6185,
      "100400": 6186,
      "einges": 6187,
      "7055": 6188,
      "gewie": 6189,
      "407": 6190,
      "4080": 6191,
      "8549": 6192,
      "85225": 6193,
      "esen": 6194,
      "anlage": 6195,
      "außer": 6196,
      "1160": 6197,
      "üge": 6198,
      "üpft": 6199,
      "128000": 6200,
      "1680": 6201,
      "167920": 6202,
      "nsb": 6203,
      "80210": 6204,
      "133990": 6205,
      "ald": 6206,
      "els": 6207,
      "ꞽnq": 6208,
      "43580": 6209,
      "2890": 6210,
      "zꜣi̯": 6211,
      "mꜣr": 6212,
      "mꜣw": 6213,
      "4504": 6214,
      "6220": 6215,
      "zug": 6216,
      "ark": 6217,
      "artig": 6218,
      "ḫꜣw": 6219,
      "lege": 6220,
      "Schwar": 6221,
      "Scheitel": 6222,
      "85089": 6223,
      "85038": 6224,
      "aufseher": 6225,
      "1980": 6226,
      "2390": 6227,
      "𓃹𓈖𓐍𓍼": 6228,
      "Nebti": 6229,
      "Verl": 6230,
      "wꜣi̯": 6231,
      "bewahr": 6232,
      "sḏḥ": 6233,
      "ften": 6234,
      "ꞽꜣq": 6235,
      "150120": 6236,
      "gib": 6237,
      "mögen": 6238,
      "𓊪𓏏𓂻": 6239,
      "reiche": 6240,
      "5504": 6241,
      "550364": 6242,
      "89590": 6243,
      "leiter": 6244,
      "Unterwelt": 6245,
      "Unteraufseher": 6246,
      "𓇋𓅱𓂻𓈖": 6247,
      "läss": 6248,
      "24110": 6249,
      "geson": 6250,
      "162890": 6251,
      "Meri": 6252,
      "entstehen": 6253,
      "ḏꜣr": 6254,
      "sorgen": 6255,
      "sꞽp": 6256,
      "sꞽꜥr": 6257,
      "𓎛𓈖𓈎": 6258,
      "180690": 6259,
      "ḫnf": 6260,
      "Leiden": 6261,
      "änk": 6262,
      "500010": 6263,
      "𓅓𓏏𓂻": 6264,
      "22030": 6265,
      "𓇋𓏲𓆑𓄹𓏥": 6266,
      "angenehm": 6267,
      "Frucht": 6268,
      "𓈖𓏌𓏌𓏌": 6269,
      "geschehen": 6270,
      "nimmt": 6271,
      "92570": 6272,
      "Seneb": 6273,
      "71080": 6274,
      "jenes": 6275,
      "bestr": 6276,
      "ausges": 6277,
      "𓋴𓍋𓌡𓏤": 6278,
      "𓋴𓎡𓇼𓇼𓇼": 6279,
      "rmi̯": 6280,
      "aage": 6281,
      "852228": 6282,
      "𓋴𓌂𓅓": 6283,
      "veranlassen": 6284,
      "550378": 6285,
      "grüne": 6286,
      "eicher": 6287,
      "95410": 6288,
      "zḫni̯": 6289,
      "132310": 6290,
      "šfšf": 6291,
      "Frauen": 6292,
      "𓂭𓂭𓏛": 6293,
      "rmni̯": 6294,
      "D287": 6295,
      "ufu": 6296,
      "155040": 6297,
      "östlichen": 6298,
      "Schwellung": 6299,
      "64580": 6300,
      "lobt": 6301,
      "sfḫḫ": 6302,
      "Prov": 6303,
      "sitzt": 6304,
      "Messer": 6305,
      "gebiet": 6306,
      "ständ": 6307,
      "ständig": 6308,
      "verhindere": 6309,
      "855700": 6310,
      "Hinter": 6311,
      "Brüder": 6312,
      "Stelle": 6313,
      "Jahresanfang": 6314,
      "𓇋𓈎𓂋𓏛": 6315,
      "712014": 6316,
      "Gold": 6317,
      "102060": 6318,
      "𓊃𓐍𓂋𓏛": 6319,
      "𓐙︂𓊤": 6320,
      "Seschat": 6321,
      "wršu̯": 6322,
      "bestehend": 6323,
      "400447": 6324,
      "jüngt": 6325,
      "zeltes": 6326,
      "Splitterbruch": 6327,
      "kodil": 6328,
      "Bürgermeister": 6329,
      "Getränk": 6330,
      "gewiesen": 6331,
      "𓋴𓍋𓌡𓏤𓏏": 6332,
      "22930": 6333,
      "61950": 6334,
      "94920": 6335,
      "A21A": 6336,
      "Boten": 6337,
      "Dor": 6338,
      "Dinge": 6339,
      "F81": 6340,
      "F51": 6341,
      "Gaz": 6342,
      "Hut": 6343,
      "H38": 6344,
      "Hän": 6345,
      "Haut": 6346,
      "Kon": 6347,
      "Kind": 6348,
      "Mnꞽ": 6349,
      "Mat": 6350,
      "O36": 6351,
      "Pen": 6352,
      "Rinder": 6353,
      "Rere": 6354,
      "Tat": 6355,
      "Wi": 6356,
      "Wsr": 6357,
      "Zusammen": 6358,
      "etep": 6359,
      "fallen": 6360,
      "ifer": 6361,
      "land": 6362,
      "mḥr": 6363,
      "nq": 6364,
      "ph": 6365,
      "palast": 6366,
      "polis": 6367,
      "qnꞽ": 6368,
      "sḥm": 6369,
      "ue": 6370,
      "uckt": 6371,
      "wDU": 6372,
      "wissen": 6373,
      "zeit": 6374,
      "ꜣkr": 6375,
      "Ꞽtꞽ": 6376,
      "ꞽpt": 6377,
      "ꞽzꞽ": 6378,
      "𓀜𓈖": 6379,
      "𓂋𓈋𓅱": 6380,
      "𓂚𓄿": 6381,
      "𓂝𓃂": 6382,
      "𓂠𓏌𓏌𓏌": 6383,
      "𓂧𓋬": 6384,
      "𓃀𓂻": 6385,
      "𓃞𓊵": 6386,
      "𓃞𓄤𓊵": 6387,
      "𓄚𓈖𓏌𓏲": 6388,
      "𓄟𓋴𓏏": 6389,
      "𓄪𓏤": 6390,
      "𓄿𓄿": 6391,
      "𓅮𓄿": 6392,
      "𓅱𓀀𓏥": 6393,
      "𓇋𓆓𓂧": 6394,
      "𓇑𓃀": 6395,
      "𓇦𓂋𓏏": 6396,
      "𓈖𓅪": 6397,
      "𓈖𓆑": 6398,
      "𓈖𓇋𓋴": 6399,
      "𓈖𓈞𓅓": 6400,
      "𓉗𓂔": 6401,
      "𓊌𓏥": 6402,
      "𓊹𓂋": 6403,
      "𓊹𓈖": 6404,
      "𓋴𓅱": 6405,
      "𓌂𓉥": 6406,
      "𓌃𓂧": 6407,
      "𓌡𓏏": 6408,
      "𓌻𓂋𓏏": 6409,
      "𓎟𓍋𓃀𓈋𓊖": 6410,
      "𓏁𓈗": 6411,
      "𓏙𓏏": 6412,
      "𓏲𓏛": 6413,
      "𓐞𓏤": 6414,
      "stt": 6415,
      "standen": 6416,
      "prꞽ": 6417,
      "ḫnḏ": 6418,
      "50340": 6419,
      "chten": 6420,
      "40043": 6421,
      "40099": 6422,
      "90880": 6423,
      "7050": 6424,
      "7093": 6425,
      "gezeugt": 6426,
      "unge": 6427,
      "20570": 6428,
      "ꞽrṯ": 6429,
      "ührt": 6430,
      "nbi̯": 6431,
      "ṯꞽ": 6432,
      "1260": 6433,
      "1669": 6434,
      "151900": 6435,
      "152300": 6436,
      "156610": 6437,
      "Ḥp": 6438,
      "duft": 6439,
      "1777": 6440,
      "ꞽnꞽ": 6441,
      "iti": 6442,
      "snk": 6443,
      "nḫꜣ": 6444,
      "schwei": 6445,
      "4940": 6446,
      "ondern": 6447,
      "141120": 6448,
      "291": 6449,
      "62620": 6450,
      "ard": 6451,
      "6750": 6452,
      "bereitet": 6453,
      "ꜥꜣb": 6454,
      "ichten": 6455,
      "𓇋𓇋𓇋": 6456,
      "vern": 6457,
      "2660": 6458,
      "192": 6459,
      "19A": 6460,
      "hru̯": 6461,
      "bꜣq": 6462,
      "bedarf": 6463,
      "3310": 6464,
      "tige": 6465,
      "7490": 6466,
      "sieht": 6467,
      "400350": 6468,
      "hnen": 6469,
      "cke": 6470,
      "7310": 6471,
      "87870": 6472,
      "gehandelt": 6473,
      "𓅓𓂋𓂝": 6474,
      "dagegen": 6475,
      "sprochen": 6476,
      "865": 6477,
      "160170": 6478,
      "160570": 6479,
      "sꜣꜣ": 6480,
      "herbei": 6481,
      "8910": 6482,
      "Pri̯": 6483,
      "weisen": 6484,
      "weicht": 6485,
      "gerufen": 6486,
      "ilf": 6487,
      "𓅨𓂋𓆓": 6488,
      "𓂋𓂝𓐍𓂋": 6489,
      "401115": 6490,
      "sꞽꜥ": 6491,
      "oppel": 6492,
      "sollen": 6493,
      "𓄿𓏏𓏯": 6494,
      "𓇋𓌳𓄪𓐍𓏏": 6495,
      "500027": 6496,
      "blick": 6497,
      "ischt": 6498,
      "isches": 6499,
      "Senet": 6500,
      "48440": 6501,
      "Schlüssel": 6502,
      "𓈖𓈖𓈖": 6503,
      "Wassergebiet": 6504,
      "jene": 6505,
      "𓐍𓅓𓂜": 6506,
      "Wereret": 6507,
      "fenbereich": 6508,
      "Meni": 6509,
      "rts": 6510,
      "155970": 6511,
      "143330": 6512,
      "ḫbz": 6513,
      "𓇋𓂝𓈗": 6514,
      "𓋴𓂋𓆑": 6515,
      "fahren": 6516,
      "𓇋𓌳𓄪𓐍𓅱𓏏": 6517,
      "rkḥ": 6518,
      "146360": 6519,
      "175160": 6520,
      "𓁷𓂋𓋴𓈙𓏏𓍔𓈖": 6521,
      "94550": 6522,
      "879851": 6523,
      "85457": 6524,
      "400524": 6525,
      "Schläfenbereich": 6526,
      "71840": 6527,
      "verborgen": 6528,
      "Feinde": 6529,
      "852746": 6530,
      "138730": 6531,
      "Schatzhausverwalter": 6532,
      "getreten": 6533,
      "167790": 6534,
      "45530": 6535,
      "𓅆𓅆𓅆": 6536,
      "gekocht": 6537,
      "64560": 6538,
      "𓅓𓄚𓏌": 6539,
      "Heiligt": 6540,
      "Heilmittel": 6541,
      "statte": 6542,
      "kenntnis": 6543,
      "Halses": 6544,
      "𓎛𓅬𓏏": 6545,
      "wnwn": 6546,
      "herausgekommen": 6547,
      "zḫz": 6548,
      "450309": 6549,
      "Pyramidenanlage": 6550,
      "𓄤𓂋𓆑": 6551,
      "142050": 6552,
      "vertreiben": 6553,
      "Sehetep": 6554,
      "Spaltbruch": 6555,
      "𓇍𓇋𓇋𓂻": 6556,
      "𓐪𓂧𓏌": 6557,
      "400576": 6558,
      "ꜥwꜣi̯": 6559,
      "𓌡𓂝𓏏𓏤": 6560,
      "703392": 6561,
      "verklärt": 6562,
      "Steinbock": 6563,
      "ḥwrw": 6564,
      "179040": 6565,
      "Semerchet": 6566,
      "139140": 6567,
      "Wasserspenden": 6568,
      "𓋴𓌳𓌪": 6569,
      "Truppe": 6570,
      "Schultern": 6571,
      "trinkt": 6572,
      "𓊽𓊽𓇋𓏛𓀀": 6573,
      "Jochbein": 6574,
      "Krokodil": 6575,
      "Rensi": 6576,
      "168040": 6577,
      "850381": 6578,
      "Provinz": 6579,
      "F51D": 6580,
      "Konifer": 6581,
      "755": 6582,
      "91770": 6583,
      "Abe": 6584,
      "A13A": 6585,
      "Busch": 6586,
      "Bḥd": 6587,
      "Dur": 6588,
      "Dje": 6589,
      "Fähr": 6590,
      "Gie": 6591,
      "Gift": 6592,
      "Hab": 6593,
      "Heti": 6594,
      "Hitze": 6595,
      "Jemand": 6596,
      "Rit": 6597,
      "Rech": 6598,
      "Roten": 6599,
      "Rote": 6600,
      "Samen": 6601,
      "Tet": 6602,
      "Unw": 6603,
      "Wo": 6604,
      "aßt": 6605,
      "aka": 6606,
      "dan": 6607,
      "lasse": 6608,
      "liby": 6609,
      "mal": 6610,
      "meiner": 6611,
      "nf": 6612,
      "nk": 6613,
      "nꜣw": 6614,
      "pis": 6615,
      "pos": 6616,
      "sbe": 6617,
      "sqd": 6618,
      "setzt": 6619,
      "tḫ": 6620,
      "tmꜣ": 6621,
      "wbs": 6622,
      "zün": 6623,
      "ꜣwꜣ": 6624,
      "ꞽšd": 6625,
      "𓀗𓀀": 6626,
      "𓂝𓃀": 6627,
      "𓂝𓅓": 6628,
      "𓂝𓆑": 6629,
      "𓂧𓅓": 6630,
      "𓂧𓏇𓇋": 6631,
      "𓂻𓀀": 6632,
      "𓃀𓇜": 6633,
      "𓃀𓂝𓎛": 6634,
      "𓃛𓅱": 6635,
      "𓃥𓆝𓈘": 6636,
      "𓄫𓅱": 6637,
      "𓅓𓎔": 6638,
      "𓅡𓅡": 6639,
      "𓅱𓄋": 6640,
      "𓅱𓄊𓋴": 6641,
      "𓅱𓍿𓊃𓍞": 6642,
      "𓆓𓊃": 6643,
      "𓇅𓏏": 6644,
      "𓇋𓈙": 6645,
      "𓇋𓈙𓏏": 6646,
      "𓈍𓂝𓅱": 6647,
      "𓈖𓎼": 6648,
      "𓈖𓏭": 6649,
      "𓈖𓅘𓎛": 6650,
      "𓉗𓉻": 6651,
      "𓉲𓎟": 6652,
      "𓊃𓅱": 6653,
      "𓋎𓊵": 6654,
      "𓋨𓏏": 6655,
      "𓌟𓈖𓅪": 6656,
      "𓌨𓌪": 6657,
      "𓌨𓂋𓏏": 6658,
      "𓍛𓅓": 6659,
      "𓎆𓎆": 6660,
      "𓎝𓎛": 6661,
      "𓎟𓅆": 6662,
      "𓎟𓏤": 6663,
      "𓎼𓈖𓈖": 6664,
      "𓏌𓏥": 6665,
      "𓏏𓅱𓏏": 6666,
      "𓏙𓊵𓏏𓊪": 6667,
      "𓏲𓅪": 6668,
      "𓐎𓏛": 6669,
      "𓐙𓂝": 6670,
      "eren": 6671,
      "ergriffen": 6672,
      "stark": 6673,
      "sgr": 6674,
      "ḥḥ": 6675,
      "106750": 6676,
      "ḫꜣḫ": 6677,
      "4002": 6678,
      "iefer": 6679,
      "ieht": 6680,
      "7047": 6681,
      "7057": 6682,
      "eiß": 6683,
      "8528": 6684,
      "šty": 6685,
      "esi": 6686,
      "ötet": 6687,
      "11A": 6688,
      "112660": 6689,
      "irti": 6690,
      "1679": 6691,
      "1624": 6692,
      "1696": 6693,
      "ährt": 6694,
      "fru": 6695,
      "froh": 6696,
      "132840": 6697,
      "ale": 6698,
      "1716": 6699,
      "178850": 6700,
      "ellen": 6701,
      "itzen": 6702,
      "etwa": 6703,
      "snw": 6704,
      "sche": 6705,
      "49870": 6706,
      "onpolis": 6707,
      "1476": 6708,
      "141990": 6709,
      "141480": 6710,
      "141620": 6711,
      "294": 6712,
      "45050": 6713,
      "450140": 6714,
      "450177": 6715,
      "62220": 6716,
      "ichtig": 6717,
      "rnpi̯": 6718,
      "ache": 6719,
      "85070": 6720,
      "nnm": 6721,
      "263": 6722,
      "pnq": 6723,
      "78870": 6724,
      "nwḏ": 6725,
      "nichts": 6726,
      "bꜣꜣ": 6727,
      "Unheil": 6728,
      "begr": 6729,
      "3350": 6730,
      "130840": 6731,
      "𓐍𓂋𓎟𓆑": 6732,
      "400375": 6733,
      "komm": 6734,
      "87760": 6735,
      "gehor": 6736,
      "findet": 6737,
      "𓏏𓏏𓏛": 6738,
      "Brand": 6739,
      "Ausg": 6740,
      "Angesicht": 6741,
      "urm": 6742,
      "urs": 6743,
      "9470": 6744,
      "𓆓𓂧𓏏𓈖": 6745,
      "Vorstehers": 6746,
      "andt": 6747,
      "ḏrḏ": 6748,
      "herab": 6749,
      "55044": 6750,
      "89760": 6751,
      "sšn": 6752,
      "39850": 6753,
      "Untertan": 6754,
      "nhd": 6755,
      "Arzt": 6756,
      "Festen": 6757,
      "Festduft": 6758,
      "sollt": 6759,
      "lafen": 6760,
      "Möget": 6761,
      "liegt": 6762,
      "Palastleiter": 6763,
      "450089": 6764,
      "481": 6765,
      "4890": 6766,
      "bḥd": 6767,
      "51020": 6768,
      "jenem": 6769,
      "kannst": 6770,
      "zerrieben": 6771,
      "älter": 6772,
      "𓌻𓂋𓂋": 6773,
      "Wege": 6774,
      "Patient": 6775,
      "ruh": 6776,
      "149100": 6777,
      "37090": 6778,
      "steigt": 6779,
      "109800": 6780,
      "𓇋𓌳𓄪𓐍𓐍𓂋𓊹𓉻": 6781,
      "𓇋𓂧𓀔": 6782,
      "400645": 6783,
      "𓎛𓆰𓈖𓏌𓏲": 6784,
      "882332": 6785,
      "Sees": 6786,
      "𓇶𓏌𓏲𓄹": 6787,
      "168210": 6788,
      "Bogen": 6789,
      "akonpolis": 6790,
      "Schlächter": 6791,
      "𓐍𓏏𓆑𓁷𓏤": 6792,
      "Besit": 6793,
      "𓏐𓏊𓏒": 6794,
      "97060": 6795,
      "Nachti": 6796,
      "61400": 6797,
      "Harfe": 6798,
      "𓂋𓂋𓎢𓆙": 6799,
      "702352": 6800,
      "850967": 6801,
      "ꜣṯp": 6802,
      "onatsfest": 6803,
      "nehme": 6804,
      "𓅓𓄚𓈖𓏌𓏲": 6805,
      "𓇋𓐍𓅓𓂜": 6806,
      "134180": 6807,
      "𓂓𓂸𓃒": 6808,
      "𓈝𓅓𓂻": 6809,
      "Throne": 6810,
      "ation": 6811,
      "verhindern": 6812,
      "sprachigen": 6813,
      "länder": 6814,
      "172720": 6815,
      "barkeit": 6816,
      "wendet": 6817,
      "𓌃𓂧𓅱𓀁": 6818,
      "Feld": 6819,
      "𓄑𓄑𓄑": 6820,
      "𓊹𓀭𓉻": 6821,
      "freut": 6822,
      "Krug": 6823,
      "frischem": 6824,
      "zerstört": 6825,
      "Speisezeltes": 6826,
      "153030": 6827,
      "Verband": 6828,
      "𓏠𓈖𓐍𓍊𓏛": 6829,
      "Öffnung": 6830,
      "nschaft": 6831,
      "𓅓𓂋𓂓𓏏𓀋𓎟𓈖𓏏𓇓𓏏𓈖": 6832,
      "Jubel": 6833,
      "unvergän": 6834,
      "70005": 6835,
      "Betrachten": 6836,
      "V28C": 6837,
      "plaziert": 6838,
      "450468": 6839,
      "wohner": 6840,
      "Handwerker": 6841,
      "Hierakonpolis": 6842,
      "eingesunken": 6843,
      "852258": 6844,
      "Rerek": 6845,
      "400993": 6846,
      "Koniferen": 6847,
      "Gießer": 6848,
      "𓎼𓈖𓈖𓀉": 6849,
      "begraben": 6850,
      "Untertanen": 6851,
      "2A": 6852,
      "25550": 6853,
      "322": 6854,
      "867": 6855,
      "950": 6856,
      "Aben": 6857,
      "Amen": 6858,
      "Bein": 6859,
      "Bei": 6860,
      "Bas": 6861,
      "Bbꞽ": 6862,
      "De": 6863,
      "D140": 6864,
      "D154": 6865,
      "G200": 6866,
      "Gans": 6867,
      "Htꞽ": 6868,
      "Hör": 6869,
      "Halb": 6870,
      "Haupt": 6871,
      "Ib": 6872,
      "I6A": 6873,
      "Je": 6874,
      "Kn": 6875,
      "Lüge": 6876,
      "Mau": 6877,
      "Met": 6878,
      "M33": 6879,
      "Mil": 6880,
      "Rat": 6881,
      "Richt": 6882,
      "Rnsꞽ": 6883,
      "Richter": 6884,
      "Snfr": 6885,
      "Sot": 6886,
      "Sänger": 6887,
      "User": 6888,
      "W30": 6889,
      "Wild": 6890,
      "age": 6891,
      "bš": 6892,
      "buch": 6893,
      "bbꞽ": 6894,
      "bald": 6895,
      "card": 6896,
      "dgi̯": 6897,
      "fassen": 6898,
      "hh": 6899,
      "htꞽ": 6900,
      "hle": 6901,
      "kiefer": 6902,
      "mṯn": 6903,
      "richte": 6904,
      "rnsꞽ": 6905,
      "viel": 6906,
      "wend": 6907,
      "zbꜣ": 6908,
      "zend": 6909,
      "ꜥnn": 6910,
      "𓀾𓏛": 6911,
      "𓂋𓌗": 6912,
      "𓂋𓇥𓂋": 6913,
      "𓂝𓐍": 6914,
      "𓂝𓐍𓂋": 6915,
      "𓂧𓄿𓏏": 6916,
      "𓃀𓃀𓇋": 6917,
      "𓃂𓈗": 6918,
      "𓃥𓏞": 6919,
      "𓄋𓏏": 6920,
      "𓄋𓈐𓈐𓈐": 6921,
      "𓅈𓏏𓏭": 6922,
      "𓅒𓊵": 6923,
      "𓅒𓊹𓈖": 6924,
      "𓅓𓄡": 6925,
      "𓅱𓍑𓄿": 6926,
      "𓅷𓄿": 6927,
      "𓆓𓏴": 6928,
      "𓇋𓐍𓏏": 6929,
      "𓇋𓃀𓏏": 6930,
      "𓇷𓏏": 6931,
      "𓈖𓂧": 6932,
      "𓈖𓅓": 6933,
      "𓈖𓇦": 6934,
      "𓈖𓋹": 6935,
      "𓈖𓄡𓏏𓆑": 6936,
      "𓈙𓂝𓏏": 6937,
      "𓊃𓄿": 6938,
      "𓊃𓅨𓂋": 6939,
      "𓊪𓋴𓆓": 6940,
      "𓊪𓊃𓎛": 6941,
      "𓊵𓊪𓏏": 6942,
      "𓋴𓇋𓂝": 6943,
      "𓋴𓆼𓄿": 6944,
      "𓌾𓏥": 6945,
      "𓎂𓂔𓉜": 6946,
      "𓎛𓎛": 6947,
      "𓎟𓌳": 6948,
      "𓏤𓏏": 6949,
      "𓏯𓅆": 6950,
      "𓏲𓃀𓈖𓏌𓏲": 6951,
      "𓏴𓀁": 6952,
      "erhebe": 6953,
      "stier": 6954,
      "enet": 6955,
      "ḥy": 6956,
      "104390": 6957,
      "ḫd": 6958,
      "400181": 6959,
      "400101": 6960,
      "ntf": 6961,
      "nten": 6962,
      "iet": 6963,
      "7039": 6964,
      "110560": 6965,
      "405": 6966,
      "uns": 6967,
      "asst": 6968,
      "209": 6969,
      "8580": 6970,
      "8562": 6971,
      "8593": 6972,
      "85190": 6973,
      "85279": 6974,
      "šmꜣ": 6975,
      "angs": 6976,
      "öten": 6977,
      "400011": 6978,
      "400080": 6979,
      "400043": 6980,
      "deswegen": 6981,
      "üche": 6982,
      "irkare": 6983,
      "ṯms": 6984,
      "ṯntꞽ": 6985,
      "1263": 6986,
      "änn": 6987,
      "ären": 6988,
      "teti": 6989,
      "tpꜣ": 6990,
      "frei": 6991,
      "fremd": 6992,
      "134370": 6993,
      "131210": 6994,
      "aler": 6995,
      "uss": 6996,
      "ꞽnm": 6997,
      "ters": 6998,
      "schn": 6999,
      "schlie": 7000,
      "49600": 7001,
      "ond": 7002,
      "795": 7003,
      "79960": 7004,
      "141": 7005,
      "1427": 7006,
      "1472": 7007,
      "450112": 7008,
      "623": 7009,
      "34760": 7010,
      "𓈖𓏏𓇋": 7011,
      "Schwei": 7012,
      "ḫti̯": 7013,
      "2640": 7014,
      "olk": 7015,
      "ungs": 7016,
      "Herbei": 7017,
      "257": 7018,
      "srwḏ": 7019,
      "Vert": 7020,
      "nwd": 7021,
      "beiter": 7022,
      "hrung": 7023,
      "Königspalast": 7024,
      "lichkeit": 7025,
      "uten": 7026,
      "neunheit": 7027,
      "vorn": 7028,
      "𓐍𓂋𓊤": 7029,
      "ꞽḫm": 7030,
      "(?)!": 7031,
      "𓇋𓅓𓅱": 7032,
      "imme": 7033,
      "Diese": 7034,
      "Dieses": 7035,
      "mnd": 7036,
      "abgesch": 7037,
      "abgew": 7038,
      "Anfang": 7039,
      "8620": 7040,
      "Neferirkare": 7041,
      "55033": 7042,
      "hinunter": 7043,
      "2190": 7044,
      "bꞽk": 7045,
      "brot": 7046,
      "Unterkiefer": 7047,
      "treten": 7048,
      "Gött": 7049,
      "Chufu": 7050,
      "gesp": 7051,
      "gessen": 7052,
      "Götterneunheit": 7053,
      "𓂋𓂝𓇳": 7054,
      "8536": 7055,
      "401130": 7056,
      "140700": 7057,
      "𓉔𓄿𓃀𓂻": 7058,
      "dndn": 7059,
      "werdet": 7060,
      "Befin": 7061,
      "Bebi": 7062,
      "500020": 7063,
      "𓉐𓂋𓂋": 7064,
      "𓇓𓏏𓈖𓄤": 7065,
      "astet": 7066,
      "𓍿𓈖𓍘𓇋": 7067,
      "gebunden": 7068,
      "šrr": 7069,
      "efetj": 7070,
      "Frü": 7071,
      "7840": 7072,
      "𓄤𓆑𓂋𓅱": 7073,
      "450056": 7074,
      "4840": 7075,
      "70011": 7076,
      "gefüllt": 7077,
      "84510": 7078,
      "nrw": 7079,
      "Freu": 7080,
      "folgen": 7081,
      "Schlangen": 7082,
      "𓋴𓌉𓀆": 7083,
      "𓋴𓌉𓏞": 7084,
      "Werk": 7085,
      "Achs": 7086,
      "𓇋𓇋𓏏𓅪𓏥": 7087,
      "3680": 7088,
      "125600": 7089,
      "𓐍𓈖𓌰𓅓": 7090,
      "𓏅𓏏𓊹𓉱": 7091,
      "32A": 7092,
      "𓊪𓏏𓎛𓅢": 7093,
      "Liebl": 7094,
      "𓌻𓂋𓅱𓏏": 7095,
      "52130": 7096,
      "idenz": 7097,
      "Ṯntꞽ": 7098,
      "ruder": 7099,
      "Flut": 7100,
      "159110": 7101,
      "Bereich": 7102,
      "mme": 7103,
      "132380": 7104,
      "hmṯ": 7105,
      "146400": 7106,
      "146190": 7107,
      "erscheint": 7108,
      "𓐙𓏏𓊤": 7109,
      "Geschw": 7110,
      "123270": 7111,
      "𓋴𓆑𓍿": 7112,
      "fortdauern": 7113,
      "𓉘𓋞𓏏": 7114,
      "Nebet": 7115,
      "wdḥ": 7116,
      "Haar": 7117,
      "𓉻𓂝𓄿𓏛": 7118,
      "getrennt": 7119,
      "𓈖𓐩𓈖": 7120,
      "851865": 7121,
      "etzung": 7122,
      "Zauberreiche": 7123,
      "850039": 7124,
      "Zimmermann": 7125,
      "ꞽntk": 7126,
      "704225": 7127,
      "885044": 7128,
      "𓆓𓋴𓂦": 7129,
      "852514": 7130,
      "142180": 7131,
      "agazins": 7132,
      "Tjenti": 7133,
      "Residenz": 7134,
      "450442": 7135,
      "Krugm": 7136,
      "oberägypt": 7137,
      "139390": 7138,
      "450536": 7139,
      "𓈙𓂋𓏏𓂉": 7140,
      "Fremdländer": 7141,
      "𓇓𓏏𓈖𓂓𓈖": 7142,
      "jubeln": 7143,
      "Oberarm": 7144,
      "𓉘𓅃𓎂𓂔𓉜": 7145,
      "𓏏𓍔𓄿𓈙": 7146,
      "882494": 7147,
      "𓍋𓈋𓃀": 7148,
      "Nechenem": 7149,
      "Anbeten": 7150,
      "Nubier": 7151,
      "wollen": 7152,
      "162950": 7153,
      "33410": 7154,
      "𓈙𓋴𓌞": 7155,
      "Sykom": 7156,
      "𓋴𓆓𓏏𓊮": 7157,
      "130010": 7158,
      "Hunger": 7159,
      "gesondert": 7160,
      "𓅓𓂋𓂝𓋮": 7161,
      "Durst": 7162,
      "poss": 7163,
      "167900": 7164,
      "162430": 7165,
      "171640": 7166,
      "Halbm": 7167,
      "M33B": 7168,
      "Sothis": 7169,
      "𓅈𓏏𓏭𓀜𓀀": 7170,
      "126320": 7171,
      "fremdsprachigen": 7172,
      "215": 7173,
      "23430": 7174,
      "45750": 7175,
      "52360": 7176,
      "51690": 7177,
      "757": 7178,
      "982": 7179,
      "953": 7180,
      "Ans": 7181,
      "Amt": 7182,
      "Amme": 7183,
      "Bꜣs": 7184,
      "Bitte": 7185,
      "Dem": 7186,
      "Doch": 7187,
      "D405": 7188,
      "Fül": 7189,
      "Gunst": 7190,
      "G192": 7191,
      "Licht": 7192,
      "Luft": 7193,
      "Nie": 7194,
      "Osten": 7195,
      "Ren": 7196,
      "Redj": 7197,
      "Richte": 7198,
      "Seiten": 7199,
      "Tau": 7200,
      "Will": 7201,
      "Wꜣḥ": 7202,
      "Zwei": 7203,
      "Z24": 7204,
      "afen": 7205,
      "bṯ": 7206,
      "brei": 7207,
      "bꜥꜥ": 7208,
      "brochen": 7209,
      "dgm": 7210,
      "fein": 7211,
      "fet": 7212,
      "fand": 7213,
      "fall": 7214,
      "het": 7215,
      "iv": 7216,
      "iß": 7217,
      "jn": 7218,
      "nꜥ": 7219,
      "obt": 7220,
      "rus": 7221,
      "ssn": 7222,
      "sḏd": 7223,
      "sḥtm": 7224,
      "th": 7225,
      "wg": 7226,
      "wPL": 7227,
      "wꜣḫ": 7228,
      "zy": 7229,
      "ꜣšr": 7230,
      "ꜥẖ": 7231,
      "ꜥḫm": 7232,
      "𓁶𓊪𓏏": 7233,
      "𓁹𓂓𓍺": 7234,
      "𓂋𓆵": 7235,
      "𓂓𓆑𓍺": 7236,
      "𓂝𓈎𓄿": 7237,
      "𓂻𓂻": 7238,
      "𓃞𓎸": 7239,
      "𓄋𓏏𓏤": 7240,
      "𓄑𓂧𓏏": 7241,
      "𓄟𓏏": 7242,
      "𓄿𓈎": 7243,
      "𓄿𓋴": 7244,
      "𓅚𓅚": 7245,
      "𓅮𓏏": 7246,
      "𓅱𓂻": 7247,
      "𓅱𓃀": 7248,
      "𓅱𓏥": 7249,
      "𓅱𓂧𓈖": 7250,
      "𓅱𓃀𓈖": 7251,
      "𓅾𓀁": 7252,
      "𓆰𓏥": 7253,
      "𓇋𓂋𓏏": 7254,
      "𓇋𓊪𓅱": 7255,
      "𓇍𓇋𓏏": 7256,
      "𓈐𓏥": 7257,
      "𓈖𓈞": 7258,
      "𓈖𓌱": 7259,
      "𓈖𓎡": 7260,
      "𓈝𓅓𓏏𓂻": 7261,
      "𓊗𓏭": 7262,
      "𓊹𓉗𓏏𓉐": 7263,
      "𓋴𓂓": 7264,
      "𓋴𓎝": 7265,
      "𓋹𓊖": 7266,
      "𓌂𓉲": 7267,
      "𓌂𓏤": 7268,
      "𓌉𓏏": 7269,
      "𓌐𓄂": 7270,
      "𓌕𓏌": 7271,
      "𓌻𓂋𓅱": 7272,
      "𓍘𓏏": 7273,
      "𓍢𓂝": 7274,
      "𓍲𓈖𓏏": 7275,
      "𓍿𓏏𓅱": 7276,
      "𓎗𓏲𓏛": 7277,
      "𓎛𓊮": 7278,
      "𓏊𓏤": 7279,
      "𓏎𓏎": 7280,
      "𓏲𓊌𓏥": 7281,
      "𓐛𓏤": 7282,
      "enes": 7283,
      "ḥnt": 7284,
      "ḫwꞽ": 7285,
      "ḫfꜥ": 7286,
      "ḏsw": 7287,
      "deih": 7288,
      "amet": 7289,
      "90120": 7290,
      "7044": 7291,
      "70420": 7292,
      "307": 7293,
      "eite": 7294,
      "ordn": 7295,
      "8530": 7296,
      "8523": 7297,
      "85130": 7298,
      "8589": 7299,
      "eser": 7300,
      "anich": 7301,
      "ꞽrꞽ": 7302,
      "öger": 7303,
      "114840": 7304,
      "wtṯ": 7305,
      "nbn": 7306,
      "127840": 7307,
      "168": 7308,
      "1643": 7309,
      "168970": 7310,
      "158990": 7311,
      "tete": 7312,
      "Ḥmꜣ": 7313,
      "Ḥnw": 7314,
      "132": 7315,
      "1320": 7316,
      "136700": 7317,
      "131460": 7318,
      "1729": 7319,
      "1776": 7320,
      "171270": 7321,
      "43300": 7322,
      "286": 7323,
      "snq": 7324,
      "ḥms": 7325,
      "scht": 7326,
      "schei": 7327,
      "wrm": 7328,
      "mꜣs": 7329,
      "mꜣꞽr": 7330,
      "1430": 7331,
      "450702": 7332,
      "zugehör": 7333,
      "ꞽbi̯": 7334,
      "𓈖𓏏𓆑": 7335,
      "𓈖𓏏𓎢": 7336,
      "182900": 7337,
      "Schr": 7338,
      "Schlagen": 7339,
      "850137": 7340,
      "850695": 7341,
      "𓇓𓏏𓏙𓊵": 7342,
      "aufleben": 7343,
      "swḥ": 7344,
      "ḥww": 7345,
      "44890": 7346,
      "25760": 7347,
      "srs": 7348,
      "𓃹𓈖𓈖𓏏": 7349,
      "𓇋𓋴𓏏": 7350,
      "Verst": 7351,
      "Verein": 7352,
      "Verhalten": 7353,
      "Königsopfer": 7354,
      "bꜣs": 7355,
      "msdm": 7356,
      "ꞽti̯": 7357,
      "Erb": 7358,
      "331": 7359,
      "4510": 7360,
      "pyrus": 7361,
      "vortrefflich": 7362,
      "150440": 7363,
      "170270": 7364,
      "pflegte": 7365,
      "Opfers": 7366,
      "reckt": 7367,
      "Vornehme": 7368,
      "hꜣy": 7369,
      "Kab": 7370,
      "2230": 7371,
      "mnꜥ": 7372,
      "äger": 7373,
      "heb": 7374,
      "Auges": 7375,
      "777": 7376,
      "8600": 7377,
      "8610": 7378,
      "8657": 7379,
      "Stat": 7380,
      "942": 7381,
      "𓆓𓂧𓊽": 7382,
      "Neferet": 7383,
      "𓁷𓂋𓏭": 7384,
      "geln": 7385,
      "sꜣq": 7386,
      "8950": 7387,
      "119650": 7388,
      "tigkeit": 7389,
      "leichen": 7390,
      "zpi̯": 7391,
      "Sohnes": 7392,
      "168850": 7393,
      "pds": 7394,
      "ḥsq": 7395,
      "rḫs": 7396,
      "sowie": 7397,
      "242": 7398,
      "2480": 7399,
      "Chui": 7400,
      "mḥi̯": 7401,
      "gesund": 7402,
      "pꜣu̯": 7403,
      "𓏠𓈖𓏛": 7404,
      "853216": 7405,
      "𓋴𓏏𓄝": 7406,
      "kaf": 7407,
      "Bek": 7408,
      "500032": 7409,
      "500061": 7410,
      "ätten": 7411,
      "5480": 7412,
      "geschieht": 7413,
      "450018": 7414,
      "Gehil": 7415,
      "neferet": 7416,
      "knüpft": 7417,
      "𓋴𓌉𓊹𓍛": 7418,
      "23830": 7419,
      "713481": 7420,
      "ohlen": 7421,
      "stell": 7422,
      "darauf": 7423,
      "𓋴𓂧𓄿": 7424,
      "glicher": 7425,
      "𓋴𓃀𓎢": 7426,
      "Kosen": 7427,
      "wärts": 7428,
      "𓌻𓂋𓎛𓏏": 7429,
      "einzigen": 7430,
      "Ṯꜣ": 7431,
      "𓉻𓂝𓏛": 7432,
      "Gaues": 7433,
      "wiederholt": 7434,
      "𓂝𓏤𓅱𓏭": 7435,
      "ewaut": 7436,
      "84050": 7437,
      "ꜥnꜥr": 7438,
      "97860": 7439,
      "weggenommen": 7440,
      "annten": 7441,
      "setze": 7442,
      "ganz": 7443,
      "855795": 7444,
      "123280": 7445,
      "Henut": 7446,
      "Nebu": 7447,
      "68170": 7448,
      "Hapi": 7449,
      "141560": 7450,
      "𓂋𓂧𓌗𓏛": 7451,
      "sqbb": 7452,
      "ärke": 7453,
      "64550": 7454,
      "Wesen": 7455,
      "Würden": 7456,
      "vereint": 7457,
      "Nasenlö": 7458,
      "𓎛𓎿𓊃𓊃𓏏": 7459,
      "Tempels": 7460,
      "𓈉𓈉𓏏": 7461,
      "ꞽꜣrr": 7462,
      "nḫbḫb": 7463,
      "ḏndr": 7464,
      "darfst": 7465,
      "Laß": 7466,
      "wider": 7467,
      "𓈖𓆓𓐩𓈖": 7468,
      "Schädels": 7469,
      "Gefolgsleute": 7470,
      "Wüsten": 7471,
      "gner": 7472,
      "𓁶𓊪𓏭": 7473,
      "Respe": 7474,
      "kühl": 7475,
      "71721": 7476,
      "friedlich": 7477,
      "𓋴𓇮𓊪": 7478,
      "ausgestattet": 7479,
      "Kanal": 7480,
      "Zähne": 7481,
      "𓎼𓃀𓂣": 7482,
      "Geistern": 7483,
      "𓐎𓏏𓀜𓐍𓂋": 7484,
      "𓈖𓄓𓏏𓎼": 7485,
      "Hirte": 7486,
      "𓂝𓃹𓈖𓀜": 7487,
      "186110": 7488,
      "𓅨𓂋𓂋𓏏𓋒": 7489,
      "133780": 7490,
      "Tjetu": 7491,
      "Schützer": 7492,
      "P5B": 7493,
      "Thinitischen": 7494,
      "Zepter": 7495,
      "Zurück": 7496,
      "Gazelle": 7497,
      "166900": 7498,
      "vernichtet": 7499,
      "Steinbocks": 7500,
      "unvergänglicher": 7501,
      "Milch": 7502,
      "𓂧𓄿𓏏𓇽": 7503,
      "𓏲𓃀𓈖𓏌𓏲𓂐": 7504,
      "Freude": 7505,
      "𓃞𓎸𓇍𓈖": 7506,
      "!.(": 7507,
      "'$": 7508,
      "-/": 7509,
      "21340": 7510,
      "24370": 7511,
      "48280": 7512,
      "51600": 7513,
      "77310": 7514,
      "A40": 7515,
      "Anw": 7516,
      "A7A": 7517,
      "Beine": 7518,
      "Dd": 7519,
      "Dr": 7520,
      "Dich": 7521,
      "D96": 7522,
      "D118": 7523,
      "D35": 7524,
      "Djede": 7525,
      "Doppel": 7526,
      "F29": 7527,
      "H̱r": 7528,
      "Hep": 7529,
      "Ir": 7530,
      "It": 7531,
      "Iti": 7532,
      "I119": 7533,
      "Kü": 7534,
      "Lock": 7535,
      "M8": 7536,
      "Meh": 7537,
      "Munde": 7538,
      "Masse": 7539,
      "Nit": 7540,
      "Ohr": 7541,
      "Ori": 7542,
      "O32A": 7543,
      "Pfei": 7544,
      "Rk": 7545,
      "Rn": 7546,
      "Rechtfertig": 7547,
      "Sḫ": 7548,
      "Sal": 7549,
      "Sefetj": 7550,
      "Tre": 7551,
      "T140": 7552,
      "Tewaut": 7553,
      "Wä": 7554,
      "Wange": 7555,
      "Woh": 7556,
      "abe": 7557,
      "bank": 7558,
      "db": 7559,
      "dnꞽ": 7560,
      "dlich": 7561,
      "ede": 7562,
      "gnn": 7563,
      "gute": 7564,
      "glän": 7565,
      "hung": 7566,
      "kon": 7567,
      "mi̯": 7568,
      "mtꞽ": 7569,
      "maat": 7570,
      "nör": 7571,
      "ndꞽ": 7572,
      "nitten": 7573,
      "offen": 7574,
      "pun": 7575,
      "pdu": 7576,
      "pack": 7577,
      "qet": 7578,
      "sḥ": 7579,
      "sol": 7580,
      "sung": 7581,
      "smꜥ": 7582,
      "zei": 7583,
      "zü": 7584,
      "ztꞽ": 7585,
      "zmn": 7586,
      "Ꜣkr": 7587,
      "ꞽst": 7588,
      "ꞽdi̯": 7589,
      "𓀀𓀀": 7590,
      "𓀁𓀀": 7591,
      "𓀙𓀀𓏥": 7592,
      "𓁹𓁹𓏏": 7593,
      "𓂝𓂋𓏏": 7594,
      "𓂻𓐍𓂋": 7595,
      "𓃛𓂋": 7596,
      "𓄋𓇳": 7597,
      "𓄤𓏏": 7598,
      "𓄫𓏏": 7599,
      "𓅓𓉐𓉐": 7600,
      "𓅠𓈖": 7601,
      "𓅨𓇙": 7602,
      "𓅭𓃀": 7603,
      "𓅿𓏥": 7604,
      "𓆎𓅓": 7605,
      "𓇋𓐍𓂋": 7606,
      "𓇏𓇏": 7607,
      "𓇼𓇿𓇿": 7608,
      "𓈀𓈇𓏤": 7609,
      "𓈖𓈖𓏏": 7610,
      "𓈖𓂝𓅱": 7611,
      "𓈖𓎸𓅓": 7612,
      "𓉘𓍋𓋴": 7613,
      "𓉱𓊹": 7614,
      "𓊪𓇑𓇑": 7615,
      "𓊽𓂧𓏏": 7616,
      "𓋀𓏏𓈉": 7617,
      "𓋴𓅡": 7618,
      "𓋴𓐍𓂋": 7619,
      "𓋴𓏠𓈖": 7620,
      "𓋴𓈞𓅓": 7621,
      "𓋴𓇥𓂋": 7622,
      "𓋴𓌳𓄿": 7623,
      "𓋴𓂝𓎛": 7624,
      "𓋴𓊵𓏏𓊪𓅱": 7625,
      "𓋹𓍑": 7626,
      "𓌮𓇿": 7627,
      "𓍒𓅱": 7628,
      "𓍯𓈐": 7629,
      "𓍹𓋴": 7630,
      "𓎛𓊵𓏏𓊪": 7631,
      "𓎛𓅓𓂝": 7632,
      "𓎛𓋴𓃀": 7633,
      "𓎛𓁷𓂋𓏏": 7634,
      "𓎟𓄪𓏤": 7635,
      "𓎡𓇋𓇋": 7636,
      "𓎸𓏏": 7637,
      "𓏅𓍘": 7638,
      "𓏏𓁷": 7639,
      "𓏏𓂝": 7640,
      "𓏏𓏛": 7641,
      "𓏏𓐍𓃀": 7642,
      "𓏐𓏖": 7643,
      "𓏲𓀜": 7644,
      "𓏲𓅆": 7645,
      "𓏶𓅱": 7646,
      "𓐍𓂜𓅓": 7647,
      "erkenne": 7648,
      "ḥzꜣ": 7649,
      "1040": 7650,
      "REL": 7651,
      "400151": 7652,
      "1000": 7653,
      "ntk": 7654,
      "iegen": 7655,
      "ieft": 7656,
      "einge": 7657,
      "701": 7658,
      "7060": 7659,
      "70828": 7660,
      "gestellt": 7661,
      "gegessen": 7662,
      "110480": 7663,
      "406": 7664,
      "8573": 7665,
      "85160": 7666,
      "851672": 7667,
      "85149": 7668,
      "šsr": 7669,
      "öte": 7670,
      "augans": 7671,
      "111600": 7672,
      "118590": 7673,
      "400054": 7674,
      "ichen": 7675,
      "üb": 7676,
      "üte": 7677,
      "üben": 7678,
      "ṯpḥ": 7679,
      "1280": 7680,
      "1266": 7681,
      "1299": 7682,
      "121200": 7683,
      "121270": 7684,
      "128910": 7685,
      "163310": 7686,
      "ähn": 7687,
      "ädig": 7688,
      "frische": 7689,
      "132830": 7690,
      "emm": 7691,
      "1700": 7692,
      "1757": 7693,
      "175750": 7694,
      "176350": 7695,
      "171980": 7696,
      "usern": 7697,
      "tert": 7698,
      "435": 7699,
      "4360": 7700,
      "289": 7701,
      "scharf": 7702,
      "zꜣṯ": 7703,
      "ḥꜣt": 7704,
      "1459": 7705,
      "ḥtpꞽ": 7706,
      "nfrucht": 7707,
      "45074": 7708,
      "450741": 7709,
      "450125": 7710,
      "621": 7711,
      "62610": 7712,
      "leer": 7713,
      "leuch": 7714,
      "277": 7715,
      "850291": 7716,
      "𓇓𓏏𓌎": 7717,
      "verl": 7718,
      "rol": 7719,
      "ḥwꞽ": 7720,
      "44460": 7721,
      "2540": 7722,
      "Neum": 7723,
      "Verren": 7724,
      "nws": 7725,
      "Unkenntnis": 7726,
      "571": 7727,
      "5760": 7728,
      "Erster": 7729,
      "befried": 7730,
      "neu": 7731,
      "4590": 7732,
      "6990": 7733,
      "6930": 7734,
      "haf": 7735,
      "weret": 7736,
      "grund": 7737,
      "661": 7738,
      "66460": 7739,
      "seneb": 7740,
      "𓂋𓈖𓋴𓏭": 7741,
      "ummer": 7742,
      "sprüche": 7743,
      "reis": 7744,
      "Sopdu": 7745,
      "Anlege": 7746,
      "mtr": 7747,
      "urt": 7748,
      "ural": 7749,
      "Sto": 7750,
      "Stüt": 7751,
      "Stärke": 7752,
      "𓊵𓏏𓈖": 7753,
      "160350": 7754,
      "gelieb": 7755,
      "sꜣi̯": 7756,
      "Dua": 7757,
      "herausg": 7758,
      "851549": 7759,
      "waschen": 7760,
      "3970": 7761,
      "Spie": 7762,
      "𓊹𓊹𓊹𓅡": 7763,
      "𓏠𓈖𓂧𓏏": 7764,
      "𓏠𓈖𓏌𓏌𓏌": 7765,
      "𓇋𓏏𓂋𓏏": 7766,
      "𓇋𓏏𓇋𓏏": 7767,
      "8532": 7768,
      "entstanden": 7769,
      "sṯp": 7770,
      "𓍹𓇳𓄤𓁹𓂓𓍺": 7771,
      "Ḫn": 7772,
      "opol": 7773,
      "kaes": 7774,
      "99940": 7775,
      "99790": 7776,
      "zwischen": 7777,
      "96460": 7778,
      "Graugans": 7779,
      "mert": 7780,
      "Hekenu": 7781,
      "durchziehen": 7782,
      "27050": 7783,
      "geschaffen": 7784,
      "lieben": 7785,
      "ꞽḥꞽ": 7786,
      "450020": 7787,
      "𓂝𓏏𓄹": 7788,
      "7116": 7789,
      "Ḥtpꞽ": 7790,
      "Hetepi": 7791,
      "Herzens": 7792,
      "All": 7793,
      "ausgeb": 7794,
      "66740": 7795,
      "𓂋𓏙𓏏": 7796,
      "𓈎𓄿𓀠": 7797,
      "𓈎𓄿𓋴": 7798,
      "älte": 7799,
      "Chnumhotep": 7800,
      "116430": 7801,
      "Herrinnen": 7802,
      "𓉐𓉻𓌕𓏌": 7803,
      "𓂧𓅱𓊖": 7804,
      "schlägt": 7805,
      "suchen": 7806,
      "𓌻𓂋𓀁": 7807,
      "𓅱𓂝𓃀": 7808,
      "450533": 7809,
      "Vorlesepriesters": 7810,
      "Kampf": 7811,
      "Atfet": 7812,
      "𓏏𓆑𓈖𓏏": 7813,
      "Lieferung": 7814,
      "𓇋𓁹𓅱": 7815,
      "Semdet": 7816,
      "882050": 7817,
      "𓎛𓁷𓂋𓈐": 7818,
      "schwach": 7819,
      "Geschwür": 7820,
      "85567": 7821,
      "123590": 7822,
      "guten": 7823,
      "wirkung": 7824,
      "𓈖𓆱𓐍𓏏𓇋𓇋": 7825,
      "Einzigen": 7826,
      "𓏤𓏤𓏤𓏤𓏤𓏤𓏤𓏤": 7827,
      "erkennst": 7828,
      "𓌳𓄿𓇋𓂋𓌗": 7829,
      "𓁷𓁶𓉼": 7830,
      "51980": 7831,
      "𓏃𓏏𓈙𓏤": 7832,
      "besser": 7833,
      "852294": 7834,
      "850712": 7835,
      "Ältester": 7836,
      "Zauberkr": 7837,
      "𓊨𓊨𓊨": 7838,
      "69320": 7839,
      "süß": 7840,
      "𓊹𓋨𓇼𓇿𓇿": 7841,
      "gehöriger": 7842,
      "𓈎𓃀𓃀": 7843,
      "iebtheit": 7844,
      "450573": 7845,
      "𓇋𓏏𓆑𓀭": 7846,
      "Hemaka": 7847,
      "𓐄𓐄𓐄𓐄": 7848,
      "Emmer": 7849,
      "Kapellen": 7850,
      "Körp": 7851,
      "𓉘𓆢𓊂": 7852,
      "173220": 7853,
      "𓋀𓅂𓀭": 7854,
      "Lebensmittel": 7855,
      "bꜥḥi̯": 7856,
      "116760": 7857,
      "116770": 7858,
      "135360": 7859,
      "𓌃𓅓𓂧": 7860,
      "Antilope": 7861,
      "können": 7862,
      "könnte": 7863,
      "gierig": 7864,
      "Christusdornes": 7865,
      "Christusdornfrucht": 7866,
      "54650": 7867,
      "Stra": 7868,
      "euren": 7869,
      "freund": 7870,
      "450604": 7871,
      "882527": 7872,
      "hinabsteigen": 7873,
      "𓇋𓂻𓅱𓈖": 7874,
      "𓎛𓈎𓏏𓏊": 7875,
      "Körner": 7876,
      "𓎼𓂋𓍅𓀁": 7877,
      "Aa5A": 7878,
      "600472": 7879,
      "𓆓𓆑𓆓𓆑𓆓𓆑": 7880,
      "Steifheit": 7881,
      "97760": 7882,
      "Hof": 7883,
      "𓂧𓊪𓏏𓊛": 7884,
      "54330": 7885,
      "Häusern": 7886,
      "Papyrus": 7887,
      "𓄋𓈐𓏏𓏥": 7888,
      "𓐫𓂧𓈒": 7889,
      "existieren": 7890,
      "Elef": 7891,
      "Getreides": 7892,
      "𓏲𓂧𓏴": 7893,
      "Schenkel": 7894,
      "Größ": 7895,
      "𓂋𓎡𓎛𓊮": 7896,
      "𓇋𓌳𓄪𓐍𓅱𓐍𓂋𓊹𓀭": 7897,
      "klaffenden": 7898,
      "46280": 7899,
      "polen": 7900,
      "ḫsbḏ": 7901,
      "drückt": 7902,
      "Steuerruder": 7903,
      "außerdem": 7904,
      "Dorf": 7905,
      "Hände": 7906,
      "Wider": 7907,
      "𓌃𓂧𓏲𓀁": 7908,
      "𓄿𓏏𓏯𓇳": 7909,
      "Heiligtum": 7910,
      "𓐪𓂧𓏌𓏛": 7911,
      "Ritual": 7912,
      "𓈖𓅘𓎛𓎛": 7913,
      "𓎝𓎛𓏛": 7914,
      "169650": 7915,
      "Amenem": 7916,
      "𓐍𓈖𓌰𓅓𓋴": 7917,
      "Liebling": 7918,
      "Halbmonatsfest": 7919,
      "ꜥẖm": 7920,
      "704454": 7921,
      "177640": 7922,
      "D35A": 7923,
      "Djedef": 7924,
      "F29C": 7925,
      "Orion": 7926,
      "Pfeiler": 7927,
      "Rkḥ": 7928,
      "Rechtfertigung": 7929,
      "𓋹𓍑𓋴": 7930,
      "708283": 7931,
      "851491": 7932,
      "129930": 7933,
      "175740": 7934,
      "Neumond": 7935,
      "𓂋𓈖𓋴𓏭𓀀": 7936,
      "288": 7937,
      "4A": 7938,
      "487": 7939,
      "42360": 7940,
      "53300": 7941,
      "62900": 7942,
      "62980": 7943,
      "63970": 7944,
      "866": 7945,
      "?;": 7946,
      "Am": 7947,
      "Bastet": 7948,
      "Dp": 7949,
      "Dör": 7950,
      "D84": 7951,
      "Ex": 7952,
      "Fe": 7953,
      "Fal": 7954,
      "Falle": 7955,
      "Gä": 7956,
      "Häl": 7957,
      "Hilf": 7958,
      "II": 7959,
      "Ip": 7960,
      "Ms": 7961,
      "M12": 7962,
      "Mḏd": 7963,
      "M18": 7964,
      "Mnṯ": 7965,
      "Magazins": 7966,
      "N50": 7967,
      "Nḏ": 7968,
      "Nur": 7969,
      "Nil": 7970,
      "O51": 7971,
      "Ph": 7972,
      "Sech": 7973,
      "S115": 7974,
      "Tier": 7975,
      "Umk": 7976,
      "Urä": 7977,
      "V97": 7978,
      "Wn": 7979,
      "W60": 7980,
      "ai": 7981,
      "aß": 7982,
      "bö": 7983,
      "bzw": 7984,
      "dns": 7985,
      "dlicher": 7986,
      "fft": 7987,
      "fett": 7988,
      "fell": 7989,
      "hb": 7990,
      "halte": 7991,
      "iges": 7992,
      "knm": 7993,
      "kunde": 7994,
      "ksi̯": 7995,
      "kehren": 7996,
      "licht": 7997,
      "mḫꜣ": 7998,
      "mꞽni̯": 7999,
      "mšr": 8000,
      "na": 8001,
      "nꜥi̯": 8002,
      "nꞽnꞽ": 8003,
      "ons": 8004,
      "packt": 8005,
      "rr": 8006,
      "sst": 8007,
      "sam": 8008,
      "ssen": 8009,
      "sḥri̯": 8010,
      "sverwalter": 8011,
      "sondern": 8012,
      "tro": 8013,
      "twn": 8014,
      "wzš": 8015,
      "zk": 8016,
      "ßens": 8017,
      "ꜣꞽs": 8018,
      "ꜥšm": 8019,
      "Ꞽzꞽ": 8020,
      "Ꞽpꞽ": 8021,
      "ꞽk": 8022,
      "ꞽpꞽ": 8023,
      "𓀔𓀀": 8024,
      "𓀭𓏥": 8025,
      "𓁶𓁶": 8026,
      "𓂚𓀜": 8027,
      "𓂝𓍯𓄿": 8028,
      "𓂧𓈙𓂋": 8029,
      "𓂻𓏥": 8030,
      "𓃀𓈖𓏏": 8031,
      "𓃀𓇋𓈖": 8032,
      "𓃀𓄤𓆑𓂋": 8033,
      "𓃒𓃒": 8034,
      "𓃢𓊵": 8035,
      "𓃢𓊵𓏏𓊪": 8036,
      "𓄑𓀁": 8037,
      "𓄔𓏤": 8038,
      "𓄔𓏥": 8039,
      "𓄡𓂋𓂧": 8040,
      "𓄤𓃞𓊵": 8041,
      "𓄿𓂧": 8042,
      "𓅃𓅆": 8043,
      "𓅓𓊮": 8044,
      "𓅓𓏲": 8045,
      "𓅡𓎢": 8046,
      "𓅪𓈖": 8047,
      "𓅱𓄋𓊪": 8048,
      "𓆑𓅆": 8049,
      "𓆓𓏏𓏤": 8050,
      "𓆓𓂝𓂋": 8051,
      "𓆓𓃀𓂝": 8052,
      "𓆭𓄣": 8053,
      "𓆰𓆰": 8054,
      "𓆱𓏏𓏤": 8055,
      "𓆼𓄿𓏏": 8056,
      "𓇋𓏎𓈖𓈖": 8057,
      "𓇍𓇋𓇋𓏏𓅪𓏥": 8058,
      "𓇏𓏏": 8059,
      "𓈋𓅱𓏏": 8060,
      "𓈖𓌰𓅓": 8061,
      "𓉔𓊪": 8062,
      "𓉘𓈍": 8063,
      "𓉘𓅨𓏏": 8064,
      "𓉮𓉯": 8065,
      "𓊃𓊪𓏏": 8066,
      "𓊸𓅡": 8067,
      "𓋩𓋩": 8068,
      "𓋭𓋭": 8069,
      "𓋴𓈎": 8070,
      "𓋴𓋹𓈖𓐍": 8071,
      "𓌡𓏏𓏏": 8072,
      "𓍱𓎱": 8073,
      "𓍹𓇋𓊃𓊃𓇋": 8074,
      "𓍿𓎛": 8075,
      "𓎀𓊃": 8076,
      "𓎁𓈖": 8077,
      "𓎂𓄿": 8078,
      "𓎛𓌳": 8079,
      "𓎛𓂋𓏏": 8080,
      "𓎛𓊪𓏏": 8081,
      "𓎛𓄿𓏏": 8082,
      "𓎠𓉗": 8083,
      "𓎡𓎡": 8084,
      "𓎡𓆑𓏏𓌪": 8085,
      "𓎢𓆑𓏏𓌪": 8086,
      "𓎿𓊃": 8087,
      "𓏅𓈖𓍘": 8088,
      "𓏏𓀁": 8089,
      "𓏏𓁐": 8090,
      "𓏏𓂻": 8091,
      "𓏏𓊪": 8092,
      "𓏏𓉔𓅓": 8093,
      "𓏝𓈖": 8094,
      "𓏶𓀁": 8095,
      "𓏶𓅓𓂜": 8096,
      "𓐍𓂻": 8097,
      "𓐣𓌃𓏝": 8098,
      "erreichen": 8099,
      "stir": 8100,
      "enkt": 8101,
      "sge": 8102,
      "ḥq": 8103,
      "104940": 8104,
      "prie": 8105,
      "ḫwd": 8106,
      "chern": 8107,
      "chuf": 8108,
      "ḏḥ": 8109,
      "ḏnḥ": 8110,
      "4008": 8111,
      "40030": 8112,
      "400520": 8113,
      "400157": 8114,
      "400127": 8115,
      "400193": 8116,
      "100160": 8117,
      "iech": 8118,
      "60520": 8119,
      "einf": 8120,
      "einget": 8121,
      "7043": 8122,
      "7056": 8123,
      "70644": 8124,
      "geg": 8125,
      "gesprochen": 8126,
      "gedeih": 8127,
      "gepackt": 8128,
      "orben": 8129,
      "orchen": 8130,
      "8547": 8131,
      "aub": 8132,
      "austr": 8133,
      "117": 8134,
      "112300": 8135,
      "üm": 8136,
      "ümer": 8137,
      "8818": 8138,
      "platz": 8139,
      "nbꜣ": 8140,
      "ṯb": 8141,
      "ṯnt": 8142,
      "ṯtꞽ": 8143,
      "ṯnn": 8144,
      "ṯtf": 8145,
      "129120": 8146,
      "164": 8147,
      "164510": 8148,
      "1533": 8149,
      "159470": 8150,
      "äter": 8151,
      "kꜣi̯": 8152,
      "nse": 8153,
      "freu": 8154,
      "Ḥḏ": 8155,
      "1310": 8156,
      "emet": 8157,
      "17A": 8158,
      "173680": 8159,
      "ꞽnꜥ": 8160,
      "ꞽnḥ": 8161,
      "43820": 8162,
      "43420": 8163,
      "ität": 8164,
      "schle": 8165,
      "schwer": 8166,
      "schlagen": 8167,
      "aten": 8168,
      "zꜣw": 8169,
      "zꜣꜣ": 8170,
      "mꜣq": 8171,
      "1470": 8172,
      "141600": 8173,
      "500407": 8174,
      "450749": 8175,
      "450131": 8176,
      "450173": 8177,
      "6270": 8178,
      "zugewiesen": 8179,
      "ḏdk": 8180,
      "ausstat": 8181,
      "400004": 8182,
      "47420": 8183,
      "181140": 8184,
      "Schur": 8185,
      "eitigen": 8186,
      "achti": 8187,
      "85023": 8188,
      "850571": 8189,
      "𓇓𓏏𓀆": 8190,
      "aufgrund": 8191,
      "rote": 8192,
      "swḏꜣ": 8193,
      "199": 8194,
      "ḥwꜣ": 8195,
      "251": 8196,
      "25360": 8197,
      "25750": 8198,
      "srd": 8199,
      "srq": 8200,
      "srwḫ": 8201,
      "Nedj": 8202,
      "Versch": 8203,
      "Verwaltung": 8204,
      "nwꜣwꜣ": 8205,
      "Königsbek": 8206,
      "4610": 8207,
      "46930": 8208,
      "𓂋𓏏𓈒𓏥": 8209,
      "bevor": 8210,
      "33290": 8211,
      "33960": 8212,
      "150450": 8213,
      "17086": 8214,
      "170480": 8215,
      "69310": 8216,
      "gibst": 8217,
      "hab": 8218,
      "185980": 8219,
      "Opfergaben": 8220,
      "griff": 8221,
      "hꜣṯs": 8222,
      "550033": 8223,
      "550022": 8224,
      "550021": 8225,
      "𓂋𓈖𓆶": 8226,
      "Kasten": 8227,
      "8720": 8228,
      "878525": 8229,
      "gehei": 8230,
      "22460": 8231,
      "umschl": 8232,
      "spruch": 8233,
      "abgesondert": 8234,
      "hebt": 8235,
      "𓇋𓈖𓊪": 8236,
      "Auch": 8237,
      "Außens": 8238,
      "86300": 8239,
      "Stimme": 8240,
      "iere": 8241,
      "𓆓𓂧𓏏": 8242,
      "𓊵𓏏𓊪𓈖": 8243,
      "herr": 8244,
      "heres": 8245,
      "𓍹𓇳𓈖": 8246,
      "walt": 8247,
      "119540": 8248,
      "21990": 8249,
      "21940": 8250,
      "sšp": 8251,
      "leicht": 8252,
      "leidest": 8253,
      "zpꜣ": 8254,
      "brechen": 8255,
      "bringe": 8256,
      "Reden": 8257,
      "lässt": 8258,
      "𓅨𓂋𓈙": 8259,
      "mḥꜥ": 8260,
      "ṯꜣi̯": 8261,
      "nhi̯": 8262,
      "853211": 8263,
      "29610": 8264,
      "7570": 8265,
      "𓋴𓏏𓊪": 8266,
      "entkommen": 8267,
      "entzün": 8268,
      "sorgt": 8269,
      "180620": 8270,
      "ḫni̯": 8271,
      "opft": 8272,
      "ängen": 8273,
      "99870": 8274,
      "500089": 8275,
      "meru": 8276,
      "127780": 8277,
      "𓇓𓏏𓈖𓅭": 8278,
      "Lebe": 8279,
      "opfert": 8280,
      "lers": 8281,
      "450645": 8282,
      "𓄣𓏤𓀀": 8283,
      "geschwollen": 8284,
      "Gehorchen": 8285,
      "4830": 8286,
      "70060": 8287,
      "𓂝𓏏𓉐": 8288,
      "ützlich": 8289,
      "ḥꜥḏꜣ": 8290,
      "ḥꜥpꞽ": 8291,
      "Schlag": 8292,
      "Gebiet": 8293,
      "sspd": 8294,
      "710470": 8295,
      "710942": 8296,
      "Nekropolen": 8297,
      "𓌳𓁹𓈖": 8298,
      "125060": 8299,
      "𓈖𓉔𓏏": 8300,
      "zerbrochen": 8301,
      "𓋴𓎡𓇼": 8302,
      "darin": 8303,
      "36170": 8304,
      "𓎛𓃀𓉲𓎱": 8305,
      "116300": 8306,
      "𓋴𓃀𓈖": 8307,
      "44020": 8308,
      "450234": 8309,
      "𓇋𓂝𓎺": 8310,
      "𓊪𓏏𓎛𓊃𓎡𓂋": 8311,
      "Liebe": 8312,
      "wäss": 8313,
      "𓋴𓌂𓐍": 8314,
      "𓋴𓂋𓏲": 8315,
      "𓌢𓈖𓀀": 8316,
      "450562": 8317,
      "𓇋𓊪𓇋": 8318,
      "Ṯnt": 8319,
      "Ṯtꞽ": 8320,
      "855519": 8321,
      "855553": 8322,
      "Aker": 8323,
      "Zustand": 8324,
      "Zuwend": 8325,
      "Augenblick": 8326,
      "705292": 8327,
      "pḏpḏ": 8328,
      "𓏏𓆑𓏌𓏏": 8329,
      "159830": 8330,
      "𓂋𓐍𓏛𓈖": 8331,
      "mds": 8332,
      "steigst": 8333,
      "Init": 8334,
      "fahrt": 8335,
      "weggegangen": 8336,
      "schützend": 8337,
      "Mannschaft": 8338,
      "Mineral": 8339,
      "𓎛𓁷𓂋𓐍𓅱𓆑": 8340,
      "𓁷𓂋𓋴𓈙𓏏𓍔𓄿𓈖": 8341,
      "kfi̯": 8342,
      "𓂋𓂞𓈖": 8343,
      "Plural": 8344,
      "𓈖𓆱𓐍𓏏𓀜": 8345,
      "erkannt": 8346,
      "Ꞽrꞽ": 8347,
      "856299": 8348,
      "Harachte": 8349,
      "Harchuf": 8350,
      "muss": 8351,
      "851810": 8352,
      "850717": 8353,
      "𓍯𓏏𓈐": 8354,
      "𓇋𓊃𓇋": 8355,
      "statt": 8356,
      "550004": 8357,
      "𓊹𓋨𓊹𓊹𓊹𓅡": 8358,
      "qnqn": 8359,
      "450578": 8360,
      "sion": 8361,
      "𓇋𓏏𓆑𓀀": 8362,
      "𓇋𓐩𓆓𓏛": 8363,
      "Kupfer": 8364,
      "𓇼𓄿𓀢": 8365,
      "127020": 8366,
      "verschluckt": 8367,
      "Sobekhotep": 8368,
      "herausgezogen": 8369,
      "gnädig": 8370,
      "884759": 8371,
      "𓂧𓂋𓀜": 8372,
      "450441": 8373,
      "trefflicher": 8374,
      "882506": 8375,
      "113020": 8376,
      "𓊃𓅭𓄿": 8377,
      "schwarz": 8378,
      "Füßen": 8379,
      "𓄭𓂋𓀁": 8380,
      "𓌳𓐚𓏏": 8381,
      "400577": 8382,
      "befohlen": 8383,
      "Furchtbarkeit": 8384,
      "Köpfe": 8385,
      "𓉔𓏏𓇋": 8386,
      "𓎢𓇋𓇋𓀀": 8387,
      "706996": 8388,
      "200004": 8389,
      "200007": 8390,
      "703106": 8391,
      "𓈖𓄓𓏏𓎽": 8392,
      "Steifigkeit": 8393,
      "Sterne": 8394,
      "Wahrlich": 8395,
      "dürft": 8396,
      "𓃹𓈖𓉿𓂝": 8397,
      "Erscheinen": 8398,
      "prüfe": 8399,
      "infolgedessen": 8400,
      "Nähe": 8401,
      "äuchern": 8402,
      "182760": 8403,
      "Schlachtbank": 8404,
      "Beliebtheit": 8405,
      "𓂋𓅓𓍿": 8406,
      "850601": 8407,
      "aufgeweicht": 8408,
      "𓇋𓇩𓊃𓉐": 8409,
      "54460": 8410,
      "tawi": 8411,
      "𓋴𓄜𓃀": 8412,
      "175650": 8413,
      "𓍹𓇳𓃃𓅱𓍺𓊹𓍛": 8414,
      "𓈎𓂋𓋴𓌠𓊭𓏏": 8415,
      "kämpfen": 8416,
      "𓆳𓏏𓌐": 8417,
      "𓈖𓏌𓏌𓏌𓅱": 8418,
      "𓂝𓃂𓅱": 8419,
      "𓇑𓃀𓁷𓁶": 8420,
      "𓇦𓂋𓏏𓂩": 8421,
      "400432": 8422,
      "705022": 8423,
      "Schlüsselb": 8424,
      "Sehetepu": 8425,
      "Abedu": 8426,
      "Habgier": 8427,
      "danach": 8428,
      "libyschen": 8429,
      "sbedürft": 8430,
      "Festduftöl": 8431,
      "𓇷𓏏𓊹𓊹𓊹": 8432,
      "Herbeibringen": 8433,
      "abgeschnitten": 8434,
      "Geschwul": 8435,
      "𓉘𓋞𓏏𓉜": 8436,
      "Krugmagazin": 8437,
      "𓏏𓍔𓄿𓈙𓏴": 8438,
      "Fülle": 8439,
      "Willkommen": 8440,
      "𓇍𓇋𓏏𓂻": 8441,
      "858952": 8442,
      "Vereiniger": 8443,
      "Kosename": 8444,
      "Nasenlöchern": 8445,
      "Respekt": 8446,
      "Lockerung": 8447,
      "M8E": 8448,
      "züglich": 8449,
      "𓅭𓃀𓄣": 8450,
      "126600": 8451,
      "145960": 8452,
      "Verrenkung": 8453,
      "𓍹𓇳𓄤𓁹𓂓𓍺𓊹𓍛": 8454,
      "opolit": 8455,
      "855676": 8456,
      "𓏤𓏤𓏤𓏤𓏤𓏤𓏤𓏤𓏤𓏏": 8457,
      "freundlich": 8458,
      "Elefantine": 8459,
      "Gänse": 8460,
      "Hilfsbedürft": 8461,
      "M12B": 8462,
      "O51B": 8463,
      "𓃀𓇋𓈖𓅪": 8464,
      "𓉘𓅨𓏏𓉜": 8465,
      "𓍹𓇋𓊃𓊃𓇋𓍺": 8466,
      "𓏏𓉔𓅓𓂾": 8467,
      "priesen": 8468,
      "eingetieft": 8469,
      "Schurzes": 8470,
      "Königsbekannte": 8471,
      "170861": 8472,
      "entzündet": 8473,
      "\")": 8474,
      "\").": 8475,
      "-,": 8476,
      "31200": 8477,
      "7130": 8478,
      "77480": 8479,
      "77490": 8480,
      "72540": 8481,
      "81340": 8482,
      "86260": 8483,
      "81740": 8484,
      "95000": 8485,
      "91630": 8486,
      "92390": 8487,
      "Asch": 8488,
      "Abw": 8489,
      "Alt": 8490,
      "Ass": 8491,
      "Blä": 8492,
      "Ballen": 8493,
      "Bitt": 8494,
      "D46": 8495,
      "Dien": 8496,
      "Dessen": 8497,
      "Gl": 8498,
      "Ged": 8499,
      "Gute": 8500,
      "Glät": 8501,
      "Gabe": 8502,
      "HG": 8503,
      "Int": 8504,
      "Imen": 8505,
      "Iren": 8506,
      "Izi": 8507,
      "Iamet": 8508,
      "Jahr": 8509,
      "Ken": 8510,
      "Kot": 8511,
      "Kommen": 8512,
      "Kindern": 8513,
      "Lib": 8514,
      "LHG": 8515,
      "Medj": 8516,
      "Myr": 8517,
      "M134": 8518,
      "Nꜥw": 8519,
      "Näh": 8520,
      "O19": 8521,
      "O353": 8522,
      "Pu": 8523,
      "Pḥ": 8524,
      "Rḏi̯": 8525,
      "Rest": 8526,
      "Ruf": 8527,
      "Sich": 8528,
      "Sum": 8529,
      "Sand": 8530,
      "T28": 8531,
      "Taus": 8532,
      "Uter": 8533,
      "Win": 8534,
      "Wnw": 8535,
      "Wpꞽ": 8536,
      "Ztꞽ": 8537,
      "Zunge": 8538,
      "beiten": 8539,
      "dde": 8540,
      "dliche": 8541,
      "fw": 8542,
      "fäh": 8543,
      "fährt": 8544,
      "gꞽ": 8545,
      "häl": 8546,
      "icken": 8547,
      "jmr": 8548,
      "ku": 8549,
      "ket": 8550,
      "kwꞽ": 8551,
      "ktw": 8552,
      "mḥn": 8553,
      "mut": 8554,
      "mkw": 8555,
      "männ": 8556,
      "nei": 8557,
      "nkn": 8558,
      "ofru": 8559,
      "ps": 8560,
      "qnb": 8561,
      "ry": 8562,
      "rḏ": 8563,
      "rund": 8564,
      "rrꞽ": 8565,
      "sḥꜣ": 8566,
      "sbn": 8567,
      "snṯ": 8568,
      "smittel": 8569,
      "szf": 8570,
      "sversamm": 8571,
      "tms": 8572,
      "tkk": 8573,
      "wj": 8574,
      "wꞽn": 8575,
      "wandelt": 8576,
      "zeh": 8577,
      "zmꞽn": 8578,
      "ßgans": 8579,
      "ꜣꞽ": 8580,
      "ꜥg": 8581,
      "Ꞽb": 8582,
      "Ꞽp": 8583,
      "𓀀𓏪": 8584,
      "𓀁𓏥": 8585,
      "𓂘𓏌": 8586,
      "𓂝𓈖𓏏": 8587,
      "𓂝𓅓𓈖": 8588,
      "𓂞𓏏": 8589,
      "𓂢𓂢": 8590,
      "𓂧𓄿": 8591,
      "𓂧𓇮": 8592,
      "𓂧𓈙": 8593,
      "𓂧𓊖": 8594,
      "𓃃𓇼": 8595,
      "𓄖𓏲𓏭": 8596,
      "𓄡𓂋": 8597,
      "𓄡𓊃": 8598,
      "𓄤𓂋𓅱": 8599,
      "𓄲𓏏": 8600,
      "𓅓𓂞": 8601,
      "𓅓𓇋𓇋": 8602,
      "𓅓𓏏𓏏": 8603,
      "𓅝𓏏𓏭": 8604,
      "𓅡𓊂": 8605,
      "𓅯𓂻": 8606,
      "𓅱𓇋": 8607,
      "𓅱𓈓": 8608,
      "𓅷𓏏𓏤": 8609,
      "𓆈𓄿": 8610,
      "𓆊𓀜𓀀": 8611,
      "𓆑𓀻": 8612,
      "𓆑𓇋": 8613,
      "𓆓𓏏𓈖": 8614,
      "𓆞𓄿": 8615,
      "𓆭𓅓": 8616,
      "𓆳𓄋𓇳": 8617,
      "𓇋𓈝": 8618,
      "𓇋𓍘": 8619,
      "𓇋𓎛": 8620,
      "𓇋𓊪𓏏": 8621,
      "𓇋𓊃𓈖": 8622,
      "𓇓𓆤": 8623,
      "𓇶𓏌": 8624,
      "𓇾𓏤": 8625,
      "𓈉𓏏": 8626,
      "𓈖𓇥𓂋": 8627,
      "𓈘𓈘": 8628,
      "𓈙𓆑𓏏": 8629,
      "𓉔𓅪": 8630,
      "𓉔𓇋𓅱": 8631,
      "𓊐𓊪𓈖": 8632,
      "𓊪𓈙": 8633,
      "𓊹𓄤": 8634,
      "𓋌𓊹𓍛": 8635,
      "𓋴𓄿": 8636,
      "𓋴𓊮": 8637,
      "𓋴𓋹": 8638,
      "𓋴𓌫": 8639,
      "𓋴𓈎𓂋": 8640,
      "𓋴𓆣𓂋": 8641,
      "𓋴𓆱𓏏": 8642,
      "𓋾𓈎": 8643,
      "𓌂𓋯": 8644,
      "𓌉𓅱": 8645,
      "𓌘𓋴": 8646,
      "𓍌𓅓𓂋": 8647,
      "𓍯𓈙": 8648,
      "𓍯𓎝": 8649,
      "𓎆𓏥": 8650,
      "𓎔𓏛": 8651,
      "𓎛𓂺": 8652,
      "𓎛𓅓": 8653,
      "𓎛𓊃": 8654,
      "𓎛𓏌𓏏": 8655,
      "𓎰︂": 8656,
      "𓎽𓂋": 8657,
      "𓏇𓏏": 8658,
      "𓏋𓏥": 8659,
      "𓏏𓅨": 8660,
      "𓏏𓐍": 8661,
      "𓏏𓎢𓈖": 8662,
      "𓏙𓏙": 8663,
      "𓏭𓅱": 8664,
      "𓐍𓂧": 8665,
      "erh": 8666,
      "erin": 8667,
      "eres": 8668,
      "erfreut": 8669,
      "stet": 8670,
      "strecken": 8671,
      "sgleichen": 8672,
      "ḥtꞽ": 8673,
      "ḥzꞽ": 8674,
      "ḥꞽp": 8675,
      "ḥꞽḥꞽ": 8676,
      "1019": 8677,
      "102710": 8678,
      "107920": 8679,
      "108900": 8680,
      "104890": 8681,
      "pro": 8682,
      "ḫsd": 8683,
      "inmit": 8684,
      "50700": 8685,
      "50320": 8686,
      "400110": 8687,
      "400170": 8688,
      "400143": 8689,
      "400149": 8690,
      "400227": 8691,
      "400701": 8692,
      "deren": 8693,
      "60780": 8694,
      "eingetreten": 8695,
      "7014": 8696,
      "7045": 8697,
      "70220": 8698,
      "7048": 8699,
      "30A": 8700,
      "gebnis": 8701,
      "geopfert": 8702,
      "110540": 8703,
      "110661": 8704,
      "undes": 8705,
      "202": 8706,
      "8539": 8707,
      "8592": 8708,
      "angesehen": 8709,
      "ꞽrt": 8710,
      "aufr": 8711,
      "400076": 8712,
      "übr": 8713,
      "8800": 8714,
      "881255": 8715,
      "55220": 8716,
      "55640": 8717,
      "ṯm": 8718,
      "isten": 8719,
      "121": 8720,
      "1273": 8721,
      "1276": 8722,
      "168510": 8723,
      "154080": 8724,
      "80510": 8725,
      "igte": 8726,
      "igend": 8727,
      "Ḥq": 8728,
      "emi": 8729,
      "elten": 8730,
      "ẖpꜣ": 8731,
      "mrꞽ": 8732,
      "schaffen": 8733,
      "attung": 8734,
      "141690": 8735,
      "500142": 8736,
      "297": 8737,
      "45025": 8738,
      "450141": 8739,
      "6250": 8740,
      "62680": 8741,
      "zul": 8742,
      "zuvor": 8743,
      "342": 8744,
      "34180": 8745,
      "596": 8746,
      "5980": 8747,
      "arden": 8748,
      "ḫꜣwꞽ": 8749,
      "6710": 8750,
      "67170": 8751,
      "𓈖𓏏𓋕": 8752,
      "deinetwegen": 8753,
      "2750": 8754,
      "eits": 8755,
      "acher": 8756,
      "850152": 8757,
      "𓇋𓇋𓈗": 8758,
      "aufsteigen": 8759,
      "wirken": 8760,
      "verbr": 8761,
      "vertr": 8762,
      "verjüngt": 8763,
      "verurs": 8764,
      "rock": 8765,
      "26180": 8766,
      "26380": 8767,
      "26151": 8768,
      "swn": 8769,
      "swš": 8770,
      "198": 8771,
      "107800": 8772,
      "44830": 8773,
      "2560": 8774,
      "231": 8775,
      "64369": 8776,
      "𓇋𓋴𓎢": 8777,
      "pnꜥ": 8778,
      "nmnm": 8779,
      "46B": 8780,
      "uti": 8781,
      "Erdm": 8782,
      "Ergebnis": 8783,
      "bew": 8784,
      "begeben": 8785,
      "bekn": 8786,
      "𓐍𓏏𓊮": 8787,
      "tisch": 8788,
      "tion": 8789,
      "45670": 8790,
      "72480": 8791,
      "694": 8792,
      "6940": 8793,
      "pflegt": 8794,
      "𓇋𓂋𓅱": 8795,
      "Vordert": 8796,
      "73560": 8797,
      "87620": 8798,
      "224": 8799,
      "𓅓𓂋𓇓𓏏𓏞": 8800,
      "563": 8801,
      "𓊪𓏏𓎛𓈖": 8802,
      "𓊪𓏏𓂋𓆵": 8803,
      "Sobekn": 8804,
      "Aufr": 8805,
      "Stand": 8806,
      "94400": 8807,
      "9430": 8808,
      "wnš": 8809,
      "Gegner": 8810,
      "sꜣw": 8811,
      "𓍹𓇳𓈍": 8812,
      "qrr": 8813,
      "tigen": 8814,
      "gereicht": 8815,
      "trennt": 8816,
      "illen": 8817,
      "Speicher": 8818,
      "76880": 8819,
      "Šzm": 8820,
      "webe": 8821,
      "ḫprr": 8822,
      "85355": 8823,
      "754": 8824,
      "unterägypt": 8825,
      "worfen": 8826,
      "entgegen": 8827,
      "𓉔𓄿𓂻": 8828,
      "Ḫm": 8829,
      "Ḫw": 8830,
      "Ḫꜣs": 8831,
      "oparden": 8832,
      "38130": 8833,
      "sagten": 8834,
      "änge": 8835,
      "99960": 8836,
      "53640": 8837,
      "Grä": 8838,
      "Grund": 8839,
      "Graf": 8840,
      "𓇓𓏏𓈖𓅆": 8841,
      "93540": 8842,
      "Leoparden": 8843,
      "ünst": 8844,
      "ündel": 8845,
      "durchstoßen": 8846,
      "83680": 8847,
      "𓌸𓂋𓂋𓏏": 8848,
      "𓌸𓂋𓂋𓅱": 8849,
      "blutet": 8850,
      "ꞽzn": 8851,
      "fertigt": 8852,
      "450633": 8853,
      "5470": 8854,
      "𓆓𓏏𓐚": 8855,
      "400960": 8856,
      "400933": 8857,
      "𓊨𓏏𓂓": 8858,
      "𓊨𓏏𓏯𓅆": 8859,
      "450043": 8860,
      "450044": 8861,
      "𓍹𓏏𓏏𓇋𓍺𓊪𓏏𓎛": 8862,
      "schöne": 8863,
      "šꜣm": 8864,
      "Geruch": 8865,
      "Geburt": 8866,
      "wurden": 8867,
      "Abgabe": 8868,
      "Abgaben": 8869,
      "Gelob": 8870,
      "𓊃𓏏𓁐": 8871,
      "𓇋𓏶𓅓": 8872,
      "Alter": 8873,
      "seien": 8874,
      "𓇋𓄿𓃭": 8875,
      "äll": 8876,
      "Jungtieres": 8877,
      "𓎛𓃀𓉲": 8878,
      "𓐍𓈖𓂧": 8879,
      "𓋴𓃀𓐍": 8880,
      "𓈖𓆓𓇛𓅓": 8881,
      "schenk": 8882,
      "154790": 8883,
      "führ": 8884,
      "suche": 8885,
      "𓌻𓂋𓇋𓇋𓏏": 8886,
      "veranl": 8887,
      "𓄔𓅓𓅱": 8888,
      "𓄔𓅓𓈖": 8889,
      "𓎛𓏏𓍃": 8890,
      "𓐍𓊪𓈙": 8891,
      "!\",": 8892,
      "Zuhören": 8893,
      "Augenschm": 8894,
      "𓏏𓆑𓋴": 8895,
      "120070": 8896,
      "zurückweichen": 8897,
      "Djati": 8898,
      "rwd": 8899,
      "178070": 8900,
      "41980": 8901,
      "𓈖𓄓𓇓𓅱": 8902,
      "158740": 8903,
      "schütze": 8904,
      "39010": 8905,
      "Ehrwürdige": 8906,
      "setz": 8907,
      "erschaffen": 8908,
      "8799": 8909,
      "gewichen": 8910,
      "Höhe": 8911,
      "𓂓𓂓𓂓𓋴": 8912,
      "854285": 8913,
      "Snofru": 8914,
      "𓂋𓂞𓏏": 8915,
      "183120": 8916,
      "155030": 8917,
      "Nachdem": 8918,
      "verband": 8919,
      "851429": 8920,
      "𓂋𓂧𓂾𓂾": 8921,
      "𓈞𓏏𓄰": 8922,
      "𓏌𓎡𓀀": 8923,
      "600033": 8924,
      "Würdigen": 8925,
      "851182": 8926,
      "Fürsten": 8927,
      "Tjeti": 8928,
      "Tjaz": 8929,
      "135090": 8930,
      "größte": 8931,
      "𓅓𓂸𓏤": 8932,
      "heiligt": 8933,
      "Verklärter": 8934,
      "Rudde": 8935,
      "Feuerbe": 8936,
      "177260": 8937,
      "Iripat": 8938,
      "𓍿𓏏𓇋": 8939,
      "704148": 8940,
      "174240": 8941,
      "𓌳𓐙𓂝𓊤𓏲𓀁": 8942,
      "Inneren": 8943,
      "gestiegen": 8944,
      "𓇼𓄿𓇳": 8945,
      "wachsen": 8946,
      "zmjn": 8947,
      "𓄊𓋴𓂋𓏏": 8948,
      "𓈒𓈒𓈒𓈒": 8949,
      "𓋹𓈖𓐍𓅱": 8950,
      "𓈏𓈏𓈏𓏏": 8951,
      "116790": 8952,
      "135100": 8953,
      "verschlungen": 8954,
      "kaues": 8955,
      "𓄋𓊪𓏴": 8956,
      "𓊽𓊽𓅱𓊖": 8957,
      "𓂧𓂋𓂡": 8958,
      "𓋹𓋹𓋹": 8959,
      "Untergehender": 8960,
      "Siegelbewahr": 8961,
      "entfernt": 8962,
      "Stell": 8963,
      "𓊖𓊖𓊖𓏏": 8964,
      "𓍢𓍢𓍢": 8965,
      "139340": 8966,
      "450532": 8967,
      "𓆄𓏲𓏲": 8968,
      "𓈖𓎟𓃀𓏏": 8969,
      "𓊃𓅭𓄿𓏲": 8970,
      "schwarze": 8971,
      "gleite": 8972,
      "𓎛𓎡𓏌": 8973,
      "𓄋𓊪𓏏𓏝": 8974,
      "𓅱𓈙𓃀𓏴𓀁": 8975,
      "Chaba": 8976,
      "früher": 8977,
      "Schmück": 8978,
      "Oberarzt": 8979,
      "Wahrheit": 8980,
      "𓍯𓄿𓏏𓈐": 8981,
      "ergreife": 8982,
      "706722": 8983,
      "600375": 8984,
      "Bösen": 8985,
      "Häuser": 8986,
      "𓏏𓇓𓅭𓈖𓄡𓏏𓆑": 8987,
      "Löwen": 8988,
      "169210": 8989,
      "169280": 8990,
      "133340": 8991,
      "182700": 8992,
      "𓏏𓂋𓆵𓇳": 8993,
      "𓉔𓂋𓅱𓇳": 8994,
      "abwehren": 8995,
      "A100B": 8996,
      "Bedarf": 8997,
      "ꞽꜣḫi̯": 8998,
      "179320": 8999,
      "𓅱𓏏𓏏𓆘": 9000,
      "Binsengefilde": 9001,
      "𓋴𓂋𓅱𓀙𓀀𓏥": 9002,
      "𓍒𓄿𓏏𓇋": 9003,
      "850897": 9004,
      "Frauentitel": 9005,
      "126020": 9006,
      "177710": 9007,
      "𓋴𓂋𓆑𓊮": 9008,
      "75590": 9009,
      "Tetis": 9010,
      "𓐙𓂝𓊤︂": 9011,
      "550441": 9012,
      "𓇋𓂧𓀔𓅱": 9013,
      "𓇋𓐍𓅓𓂜𓅱": 9014,
      "Höre": 9015,
      "Ratsversamm": 9016,
      "Wildstier": 9017,
      "858081": 9018,
      "147220": 9019,
      "Schweigen": 9020,
      "gespalten": 9021,
      "Früchte": 9022,
      "98240": 9023,
      "𓂝𓈎𓄿𓂭𓂭𓏛": 9024,
      "𓋴𓂧𓄿𓅥": 9025,
      "𓂋𓂧𓌗𓏛𓊽𓂧𓏏": 9026,
      "𓉘𓍋𓋴𓄡𓊂": 9027,
      "𓋴𓅡𓎰︂": 9028,
      "Stoff": 9029,
      "Amenemhet": 9030,
      "M187": 9031,
      "𓆓𓂝𓂋𓌙": 9032,
      "𓉘𓈍𓅡𓊂": 9033,
      "𓊸𓅡𓏱": 9034,
      "𓋴𓈎𓐓": 9035,
      "stirbt": 9036,
      "706442": 9037,
      "Außenseite": 9038,
      "Gebietsverwalter": 9039,
      "Vereinigerin": 9040,
      "Bläßgans": 9041,
      "Bittstel": 9042,
      "Myrr": 9043,
      "Sumpf": 9044,
      "Uterus": 9045,
      "𓏏𓎢𓈖𓂻": 9046,
      "101930": 9047,
      "ḫsdḏ": 9048,
      "inmitten": 9049,
      "übrig": 9050,
      "Sobeknacht": 9051,
      "Augenschminke": 9052,
      "Ruddedet": 9053,
      "Siegelbewahrer": 9054,
      "Ratsversammlung": 9055,
      "𓂋𓂧𓌗𓏛𓊽𓂧𓏏𓁐": 9056,
      "!.": 9057,
      "22360": 9058,
      "326": 9059,
      "35980": 9060,
      "45760": 9061,
      "67960": 9062,
      "787": 9063,
      "8A": 9064,
      "825": 9065,
      "872": 9066,
      "8854": 9067,
      "Aso": 9068,
      "Amu": 9069,
      "Apis": 9070,
      "Chast": 9071,
      "D85": 9072,
      "Dau": 9073,
      "D103": 9074,
      "Dew": 9075,
      "D242": 9076,
      "D251": 9077,
      "Feh": 9078,
      "Fische": 9079,
      "Hun": 9080,
      "H17": 9081,
      "Hon": 9082,
      "Ipi": 9083,
      "Jens": 9084,
      "Jasen": 9085,
      "Ky": 9086,
      "Käm": 9087,
      "Kummer": 9088,
      "Lag": 9089,
      "Lippen": 9090,
      "M40": 9091,
      "Mon": 9092,
      "Mzḥ": 9093,
      "Mont": 9094,
      "Mächtig": 9095,
      "Mauer": 9096,
      "Meiß": 9097,
      "Nh": 9098,
      "Nn": 9099,
      "Nor": 9100,
      "Nbw": 9101,
      "N118": 9102,
      "N106": 9103,
      "Peh": 9104,
      "Qa": 9105,
      "Rä": 9106,
      "Ros": 9107,
      "Reicht": 9108,
      "Räuchern": 9109,
      "Sꜥnḫ": 9110,
      "Ten": 9111,
      "Tan": 9112,
      "Tadj": 9113,
      "T19A": 9114,
      "U23": 9115,
      "Vö": 9116,
      "Wnn": 9117,
      "Wepi": 9118,
      "Wurm": 9119,
      "Zw": 9120,
      "Zerst": 9121,
      "Ziegel": 9122,
      "bu": 9123,
      "bqs": 9124,
      "bild": 9125,
      "betr": 9126,
      "di": 9127,
      "dmꜣ": 9128,
      "dienen": 9129,
      "fnṯ": 9130,
      "furcht": 9131,
      "gau": 9132,
      "gott": 9133,
      "gypt": 9134,
      "glichen": 9135,
      "ging": 9136,
      "hnn": 9137,
      "hlen": 9138,
      "hauch": 9139,
      "hüte": 9140,
      "jh": 9141,
      "kb": 9142,
      "kor": 9143,
      "knw": 9144,
      "mns": 9145,
      "mel": 9146,
      "mḫnt": 9147,
      "mals": 9148,
      "mꜥḥꜣ": 9149,
      "nwꞽ": 9150,
      "npꜣ": 9151,
      "norm": 9152,
      "nützlich": 9153,
      "otet": 9154,
      "rq": 9155,
      "rš": 9156,
      "ret": 9157,
      "roten": 9158,
      "sc": 9159,
      "sns": 9160,
      "sicht": 9161,
      "sḥn": 9162,
      "sech": 9163,
      "smꜣꜥ": 9164,
      "sꜥḥꜥ": 9165,
      "spḥ": 9166,
      "tkꜣ": 9167,
      "tḫt": 9168,
      "ust": 9169,
      "volk": 9170,
      "wḫr": 9171,
      "weit": 9172,
      "zeich": 9173,
      "zöger": 9174,
      "ꜣr": 9175,
      "ꜣmꞽ": 9176,
      "ꜥmꜥ": 9177,
      "Ꞽṯw": 9178,
      "ꞽh": 9179,
      "ꞽsw": 9180,
      "ꞽṯw": 9181,
      "ꞽhm": 9182,
      "𓀀𓏤": 9183,
      "𓀔𓀀𓁐𓏥": 9184,
      "𓁷𓍑": 9185,
      "𓂊𓏏𓏤": 9186,
      "𓂋𓅱𓏏": 9187,
      "𓂋𓇦𓂋": 9188,
      "𓂓𓄿": 9189,
      "𓂝𓊢": 9190,
      "𓂝𓂝𓅱": 9191,
      "𓂡𓈖": 9192,
      "𓂧𓀁": 9193,
      "𓂧𓅪": 9194,
      "𓂾𓂻": 9195,
      "𓃢𓏠": 9196,
      "𓃥𓋴𓌉𓏞": 9197,
      "𓄄𓏲𓏛𓏥": 9198,
      "𓄏𓃀": 9199,
      "𓄏𓄏": 9200,
      "𓄓𓉐": 9201,
      "𓄛𓏤": 9202,
      "𓄟𓅱𓏏": 9203,
      "𓄤𓄤": 9204,
      "𓄥𓄿": 9205,
      "𓄿𓎽": 9206,
      "𓄿𓎡𓂋": 9207,
      "𓄿𓎼𓃀": 9208,
      "𓅂𓏃": 9209,
      "𓅃𓄑𓂧𓏏": 9210,
      "𓅜𓈖": 9211,
      "𓅜𓏤": 9212,
      "𓅬𓏥": 9213,
      "𓅭𓇳": 9214,
      "𓅱𓊃": 9215,
      "𓅱𓐍": 9216,
      "𓅱𓐍𓆼𓄿": 9217,
      "𓆑𓂧𓏏": 9218,
      "𓆓𓅓": 9219,
      "𓆭𓆭": 9220,
      "𓆳𓇳": 9221,
      "𓇋𓀞": 9222,
      "𓇋𓂻": 9223,
      "𓇋𓍿𓅱": 9224,
      "𓇋𓁹𓏏": 9225,
      "𓇋𓌻𓂋": 9226,
      "𓇓𓏞": 9227,
      "𓇓𓈖𓏏": 9228,
      "𓇭𓇭": 9229,
      "𓇾𓈇": 9230,
      "𓈄𓈄": 9231,
      "𓈖𓅘": 9232,
      "𓈖𓎛𓋴": 9233,
      "𓉔𓂋𓏲": 9234,
      "𓊃𓌳": 9235,
      "𓊃𓍿": 9236,
      "𓊃𓈉𓏏": 9237,
      "𓊋𓊋": 9238,
      "𓊕𓊖": 9239,
      "𓊗𓏻": 9240,
      "𓊡𓏲": 9241,
      "𓊪𓄲𓂋": 9242,
      "𓊹𓉞": 9243,
      "𓋎𓌸": 9244,
      "𓋴𓋳": 9245,
      "𓋴𓐩": 9246,
      "𓋴𓐪": 9247,
      "𓋴𓏏𓏏": 9248,
      "𓋴𓎛𓂝": 9249,
      "𓌀𓌀": 9250,
      "𓌃𓅱": 9251,
      "𓌒𓌒": 9252,
      "𓌓𓌓": 9253,
      "𓌡𓏲": 9254,
      "𓌡𓂝𓏤": 9255,
      "𓌢𓂉": 9256,
      "𓌢𓈖𓏌𓅱": 9257,
      "𓌳𓂝": 9258,
      "𓌳𓅃": 9259,
      "𓌸𓋹𓊖": 9260,
      "𓍒𓏏": 9261,
      "𓍕𓏏𓈖": 9262,
      "𓍛𓏌𓏏": 9263,
      "𓍬𓍬": 9264,
      "𓍺𓊹𓍛": 9265,
      "𓍿𓂋𓊪": 9266,
      "𓍿𓈖𓏏𓏏": 9267,
      "𓎁𓏏𓏏": 9268,
      "𓎛𓎝": 9269,
      "𓎛𓈞𓅓": 9270,
      "𓎟𓂓": 9271,
      "𓎟𓇿": 9272,
      "𓎢𓏲𓀀": 9273,
      "𓎢𓄿𓀁": 9274,
      "𓎽𓎽": 9275,
      "𓏅𓏏𓏏": 9276,
      "𓏇𓏏𓂋": 9277,
      "𓏌𓌨𓌪": 9278,
      "𓏏𓀀": 9279,
      "𓏏𓅐": 9280,
      "𓏏𓍯": 9281,
      "𓏏𓊿𓏏": 9282,
      "𓏐𓏒": 9283,
      "𓏙𓊵𓏏": 9284,
      "𓏲𓍺": 9285,
      "𓏲𓏥": 9286,
      "𓏴𓂻": 9287,
      "𓏶𓄣": 9288,
      "𓏶𓏏": 9289,
      "𓏶𓅓𓏏": 9290,
      "𓏹𓏹": 9291,
      "eri": 9292,
      "erwä": 9293,
      "erhaft": 9294,
      "erheben": 9295,
      "erfor": 9296,
      "stüt": 9297,
      "ḥknw": 9298,
      "1059": 9299,
      "1053": 9300,
      "105480": 9301,
      "ḫḫ": 9302,
      "ḫsr": 9303,
      "chiv": 9304,
      "400467": 9305,
      "ammt": 9306,
      "ntr": 9307,
      "eintritt": 9308,
      "7020": 9309,
      "7088": 9310,
      "7027": 9311,
      "7053": 9312,
      "701539": 9313,
      "110860": 9314,
      "40930": 9315,
      "20430": 9316,
      "šy": 9317,
      "šnt": 9318,
      "šww": 9319,
      "angt": 9320,
      "auen": 9321,
      "aubt": 9322,
      "1175": 9323,
      "1152": 9324,
      "400024": 9325,
      "400063": 9326,
      "ꞽmꜣ": 9327,
      "ꞽmꞽ": 9328,
      "ügen": 9329,
      "ümm": 9330,
      "88100": 9331,
      "8832": 9332,
      "5540": 9333,
      "55420": 9334,
      "tꞽꜣ": 9335,
      "ire": 9336,
      "iri": 9337,
      "irk": 9338,
      "ṯf": 9339,
      "ṯnw": 9340,
      "12A": 9341,
      "166": 9342,
      "1650": 9343,
      "äum": 9344,
      "ärm": 9345,
      "ähren": 9346,
      "fressen": 9347,
      "Ḥz": 9348,
      "132710": 9349,
      "131160": 9350,
      "ptḫ": 9351,
      "emmt": 9352,
      "179": 9353,
      "1791": 9354,
      "178560": 9355,
      "ẖzi̯": 9356,
      "43910": 9357,
      "287": 9358,
      "eht": 9359,
      "sches": 9360,
      "schep": 9361,
      "schlä": 9362,
      "schmuck": 9363,
      "att": 9364,
      "79970": 9365,
      "142440": 9366,
      "146610": 9367,
      "148720": 9368,
      "147570": 9369,
      "450406": 9370,
      "62420": 9371,
      "348": 9372,
      "34790": 9373,
      "34540": 9374,
      "594": 9375,
      "5950": 9376,
      "arak": 9377,
      "bereiten": 9378,
      "lebst": 9379,
      "ꞽbhꜣ": 9380,
      "47300": 9381,
      "𓈖𓏏𓏲": 9382,
      "181650": 9383,
      "8504": 9384,
      "85020": 9385,
      "𓇋𓇋𓏲": 9386,
      "aufens": 9387,
      "aufgehen": 9388,
      "aufgebrochen": 9389,
      "aufgeschwollen": 9390,
      "wirbel": 9391,
      "verwaltung": 9392,
      "swḏ": 9393,
      "1920": 9394,
      "107190": 9395,
      "23100": 9396,
      "23520": 9397,
      "𓇋𓋴𓂧𓃀": 9398,
      "Versieh": 9399,
      "wꜥf": 9400,
      "hrp": 9401,
      "4660": 9402,
      "hatten": 9403,
      "liches": 9404,
      "echtigkeit": 9405,
      "befeh": 9406,
      "bewohner": 9407,
      "ftt": 9408,
      "ꞽꜣzn": 9409,
      "ꞽꜣkb": 9410,
      "nedj": 9411,
      "edjer": 9412,
      "vorüber": 9413,
      "mꞽz": 9414,
      "6980": 9415,
      "werk": 9416,
      "sḫp": 9417,
      "Opfergefilde": 9418,
      "Opferbedarf": 9419,
      "(?):": 9420,
      "hꜣꜣ": 9421,
      "6680": 9422,
      "66150": 9423,
      "113560": 9424,
      "𓂋𓈖𓎟𓆑": 9425,
      "737": 9426,
      "𓅱𓏏𓂺": 9427,
      "zẖꜣw": 9428,
      "Bring": 9429,
      "8629": 9430,
      "866990": 9431,
      "Stätten": 9432,
      "94180": 9433,
      "ierig": 9434,
      "bnf": 9435,
      "Geben": 9436,
      "gelassen": 9437,
      "gelobt": 9438,
      "sꜣwi̯": 9439,
      "qrf": 9440,
      "mwmw": 9441,
      "sfn": 9442,
      "2180": 9443,
      "gerötet": 9444,
      "breit": 9445,
      "600211": 9446,
      "Rekr": 9447,
      "trä": 9448,
      "sodass": 9449,
      "sofort": 9450,
      "Spende": 9451,
      "skn": 9452,
      "skr": 9453,
      "flammt": 9454,
      "76190": 9455,
      "pꜣṯ": 9456,
      "𓏠𓈖𓂓": 9457,
      "Mrr": 9458,
      "weder": 9459,
      "nhꞽ": 9460,
      "853621": 9461,
      "401187": 9462,
      "75070": 9463,
      "gtheit": 9464,
      "Archiv": 9465,
      "entsch": 9466,
      "entsteht": 9467,
      "ḏꜣꞽs": 9468,
      "𓉔𓄿𓄿": 9469,
      "𓉔𓄿𓏲𓏛𓏥": 9470,
      "krö": 9471,
      "kriech": 9472,
      "ḫnp": 9473,
      "sṯi̯": 9474,
      "Ḫpr": 9475,
      "Ḫnm": 9476,
      "𓏏𓈖𓇋": 9477,
      "𓄿𓏏𓏛": 9478,
      "zwš": 9479,
      "Versorgtheit": 9480,
      "Heben": 9481,
      "Lege": 9482,
      "sdḫ": 9483,
      "gebären": 9484,
      "Versorgung": 9485,
      "8320": 9486,
      "ḥbnbn": 9487,
      "𓌸𓂋𓈙": 9488,
      "𓌸𓂋𓂋𓈖𓎟𓆑": 9489,
      "66280": 9490,
      "mꜥnḏ": 9491,
      "angetan": 9492,
      "auchung": 9493,
      "54290": 9494,
      "54210": 9495,
      "ischer": 9496,
      "𓊨𓏏𓅆": 9497,
      "𓃀𓏏𓊌": 9498,
      "450038": 9499,
      "Kranich": 9500,
      "48130": 9501,
      "48260": 9502,
      "geführt": 9503,
      "gefäll": 9504,
      "𓂝𓏏𓄯𓄯": 9505,
      "spei": 9506,
      "𓂧𓏏𓇼": 9507,
      "7115": 9508,
      "711257": 9509,
      "852044": 9510,
      "106240": 9511,
      "neferu": 9512,
      "knotet": 9513,
      "𓈙𓏏𓊖": 9514,
      "𓋴𓌉𓏃𓏏𓈙": 9515,
      "ꜥḏn": 9516,
      "Denkm": 9517,
      "wurdest": 9518,
      "jenigen": 9519,
      "7135": 9520,
      "Aller": 9521,
      "Werde": 9522,
      "bestimmt": 9523,
      "𓅨𓂋𓏏𓎛𓂓𓂓𓂓": 9524,
      "seid": 9525,
      "125040": 9526,
      "𓇋𓄿𓊃𓈖": 9527,
      "Mendes": 9528,
      "Menkai": 9529,
      "daran": 9530,
      "Jungtieren": 9531,
      "𓐍𓈖𓅯": 9532,
      "Wasch": 9533,
      "𓉐𓉻𓇓𓏏𓁶𓌨": 9534,
      "371": 9535,
      "37400": 9536,
      "155510": 9537,
      "dauerhaft": 9538,
      "𓈎𓂝𓎛": 9539,
      "143130": 9540,
      "450249": 9541,
      "𓊪𓏏𓎛𓊵𓏏𓊪": 9542,
      "𓁶𓏤𓐎𓏛": 9543,
      "erteilen": 9544,
      "Darbringen": 9545,
      "fnd": 9546,
      "allem": 9547,
      "84130": 9548,
      "𓊃𓈖𓂝𓂝": 9549,
      "vorstehers": 9550,
      "136590": 9551,
      "kmm": 9552,
      "𓇋𓊪𓏛": 9553,
      "𓎛𓂝𓊪": 9554,
      "𓐍𓊪𓊪𓏏𓂻": 9555,
      "Ṯḥn": 9556,
      "855533": 9557,
      "Horizonts": 9558,
      "Horizontes": 9559,
      "fdf": 9560,
      "fdq": 9561,
      "rudern": 9562,
      "𓐍𓐍𓐍𓅱": 9563,
      "Flamm": 9564,
      "swꜣḥ": 9565,
      "𓇳𓏤𓎟": 9566,
      "täglichen": 9567,
      "machte": 9568,
      "anderer": 9569,
      "𓅜𓐍𓏏𓈀": 9570,
      "zufriedenstellen": 9571,
      "bekannt": 9572,
      "ꜣwg": 9573,
      "𓇋𓂧𓃀": 9574,
      "𓈙𓈖𓍲": 9575,
      "400613": 9576,
      "Geschm": 9577,
      "ꜥši̯": 9578,
      "𓎛𓆰𓈖𓏏": 9579,
      "85566": 9580,
      "882329": 9581,
      "Bote": 9582,
      "Begräbn": 9583,
      "𓂋𓂞𓇋𓇋": 9584,
      "Beseitigen": 9585,
      "703132": 9586,
      "Nachwelt": 9587,
      "Wirkung": 9588,
      "zieht": 9589,
      "schiff": 9590,
      "𓈐𓈐𓈐𓏏": 9591,
      "𓇉𓄿𓁶": 9592,
      "𓄂𓏏𓄣𓄣𓄣": 9593,
      "Überfluß": 9594,
      "𓁷𓁶𓉻": 9595,
      "sꞽꜣṯ": 9596,
      "beseit": 9597,
      "gekehrt": 9598,
      "Schwanz": 9599,
      "850716": 9600,
      "𓃀𓅡𓄿𓎛𓂺": 9601,
      "strom": 9602,
      "200013": 9603,
      "Ruder": 9604,
      "Rudj": 9605,
      "𓈖𓏌𓅱𓉐": 9606,
      "Stiere": 9607,
      "südlichen": 9608,
      "850020": 9609,
      "siehst": 9610,
      "𓂝𓈙𓅓": 9611,
      "𓈎𓃀𓎛": 9612,
      "Halskr": 9613,
      "Produ": 9614,
      "Prozes": 9615,
      "häuf": 9616,
      "vollkommener": 9617,
      "US9T28": 9618,
      "VAR": 9619,
      "Vollender": 9620,
      "zittert": 9621,
      "145080": 9622,
      "königliche": 9623,
      "ꞽšst": 9624,
      "ꞽšš": 9625,
      "Tage": 9626,
      "wache": 9627,
      "wachen": 9628,
      "𓈖𓂋𓅐": 9629,
      "𓏠𓈖𓏏𓏛": 9630,
      "𓌸𓂋𓈘𓅱": 9631,
      "Peri": 9632,
      "Christusdorn": 9633,
      "54680": 9634,
      "Felder": 9635,
      "stücke": 9636,
      "Brüdern": 9637,
      "Stränge": 9638,
      "Siegels": 9639,
      "eurem": 9640,
      "Ältesten": 9641,
      "71720": 9642,
      "𓅜𓏏𓇿": 9643,
      "𓋴𓈙𓂧": 9644,
      "85188": 9645,
      "antwortete": 9646,
      "Zählen": 9647,
      "Ꞽꜣzn": 9648,
      "163020": 9649,
      "𓍯𓎼𓂠𓏌𓏌𓏌": 9650,
      "702666": 9651,
      "ließest": 9652,
      "Öffne": 9653,
      "𓆑𓈖𓂧": 9654,
      "Vogelfett": 9655,
      "882497": 9656,
      "Erschein": 9657,
      "54320": 9658,
      "Topf": 9659,
      "𓎛𓂓𓄿𓀁": 9660,
      "ḥṯṯ": 9661,
      "153940": 9662,
      "fülle": 9663,
      "Vollkommenheit": 9664,
      "Bildh": 9665,
      "Gemetz": 9666,
      "zähle": 9667,
      "𓂧𓄑𓏏": 9668,
      "𓇍𓇋𓂻": 9669,
      "äuchert": 9670,
      "850391": 9671,
      "𓇓𓏏𓐬𓌡𓏏𓏏": 9672,
      "Iuef": 9673,
      "ndfdf": 9674,
      "𓉔𓂋𓅱𓇳𓏤": 9675,
      "710749": 9676,
      "A100A": 9677,
      "bleiben": 9678,
      "𓋴𓍯𓄿𓈐": 9679,
      "165450": 9680,
      "179330": 9681,
      "Schepses": 9682,
      "Itju": 9683,
      "Sonnenvolk": 9684,
      "garten": 9685,
      "𓅨𓅨𓅨": 9686,
      "𓍯𓆓𓇅": 9687,
      "854931": 9688,
      "nsbi̯": 9689,
      "Leidens": 9690,
      "𓋴𓌂𓅓𓐍": 9691,
      "Hautge": 9692,
      "nqw": 9693,
      "ꞽptf": 9694,
      "Rechit": 9695,
      "Unwissen": 9696,
      "𓂝𓆑𓈖𓏏": 9697,
      "𓌨𓂋𓏏𓏛𓏥": 9698,
      "704753": 9699,
      "nhdhd": 9700,
      "𓎛𓆰𓈖𓏌𓏲𓄹𓏥": 9701,
      "Besitzer": 9702,
      "32240": 9703,
      "Abend": 9704,
      "Jeder": 9705,
      "𓅱𓍑𓄿𓂻": 9706,
      "𓋴𓇋𓂝𓊎": 9707,
      "𓎟𓌳𓐍𓄪": 9708,
      "703923": 9709,
      "alerweise": 9710,
      "142780": 9711,
      "Vertreiben": 9712,
      "550337": 9713,
      "Göttin": 9714,
      "Befindlichen": 9715,
      "95340": 9716,
      "breite": 9717,
      "thi̯": 9718,
      "𓅮𓏏𓏖": 9719,
      "𓈖𓈞𓅓𓂝": 9720,
      "ḏswi̯": 9721,
      "164310": 9722,
      "Erbfür": 9723,
      "865700": 9724,
      "Henutsen": 9725,
      "konnte": 9726,
      "punkt": 9727,
      "packst": 9728,
      "𓍹𓋴𓄤𓂋𓅱": 9729,
      "𓎛𓁷𓂋𓏏𓈐": 9730,
      "450748": 9731,
      "befriedigend": 9732,
      "𓇋𓏏𓂋𓏏𓉮𓉯": 9733,
      "𓈎𓄿𓋴𓍢": 9734,
      "älteste": 9735,
      "Straße": 9736,
      "𓏲𓂧𓏴𓐍𓂋": 9737,
      "Uräus": 9738,
      "𓎛𓌳𓂓": 9739,
      "gedeihen": 9740,
      "austreten": 9741,
      "habgierig": 9742,
      "geheimen": 9743,
      "𓋴𓏏𓊪𓍉": 9744,
      "Zuwendungen": 9745,
      "psḏi̯": 9746,
      "𓂧𓈙𓅟": 9747,
      "𓂧𓊖𓅱": 9748,
      "𓇶𓏌𓂐": 9749,
      "𓇾𓏤𓈇": 9750,
      "𓍌𓅓𓂋𓉴": 9751,
      "verursacht": 9752,
      "Leopardenfell": 9753,
      "𓊃𓅭𓄿𓏲𓀸": 9754,
      "Schmücker": 9755,
      "Asosi": 9756,
      "Dewen": 9757,
      "Honig": 9758,
      "Jenseits": 9759,
      "N118A": 9760,
      "Räucher": 9761,
      "Tenne": 9762,
      "Tadjeser": 9763,
      "U23B": 9764,
      "Wepiu": 9765,
      "npꜣpꜣ": 9766,
      "normalerweise": 9767,
      "snsn": 9768,
      "tḫtḫ": 9769,
      "erforschen": 9770,
      "117520": 9771,
      "115230": 9772,
      "Flamme": 9773,
      "𓍹𓋴𓄤𓂋𓅱𓍺": 9774,
      "1100": 9775,
      "1800": 9776,
      "217": 9777,
      "223": 9778,
      "28830": 9779,
      "26220": 9780,
      "31140": 9781,
      "31130": 9782,
      "529": 9783,
      "52220": 9784,
      "633": 9785,
      "64830": 9786,
      "7C": 9787,
      "7125": 9788,
      "76210": 9789,
      "885": 9790,
      "84980": 9791,
      "86270": 9792,
      "914": 9793,
      "92850": 9794,
      "98560": 9795,
      "Abt": 9796,
      "Aka": 9797,
      "Bist": 9798,
      "But": 9799,
      "Bett": 9800,
      "Blät": 9801,
      "Dwn": 9802,
      "D93": 9803,
      "D115": 9804,
      "Dauer": 9805,
      "Dunk": 9806,
      "Ehr": 9807,
      "E145": 9808,
      "E16A": 9809,
      "F139": 9810,
      "Feigen": 9811,
      "Fessel": 9812,
      "Gar": 9813,
      "Gaben": 9814,
      "Hy": 9815,
      "Het": 9816,
      "Ju": 9817,
      "Jha": 9818,
      "Mw": 9819,
      "M109": 9820,
      "Memp": 9821,
      "Mundes": 9822,
      "Nḫ": 9823,
      "N24": 9824,
      "Nah": 9825,
      "Nḥb": 9826,
      "Norm": 9827,
      "O314": 9828,
      "P60": 9829,
      "Rei": 9830,
      "San": 9831,
      "Sel": 9832,
      "Sat": 9833,
      "Sti": 9834,
      "Sehen": 9835,
      "Teil": 9836,
      "Teich": 9837,
      "U19A": 9838,
      "V110": 9839,
      "Wa": 9840,
      "Wun": 9841,
      "War": 9842,
      "Wah": 9843,
      "W68": 9844,
      "Zemti": 9845,
      "ade": 9846,
      "dien": 9847,
      "dige": 9848,
      "dgꜣ": 9849,
      "fi̯": 9850,
      "fdi̯": 9851,
      "falle": 9852,
      "gte": 9853,
      "gigen": 9854,
      "hül": 9855,
      "jw": 9856,
      "kinder": 9857,
      "kennst": 9858,
      "lett": 9859,
      "litz": 9860,
      "mb": 9861,
      "mes": 9862,
      "meines": 9863,
      "mnṯ": 9864,
      "nꞽw": 9865,
[...]
