{"<pad>":0,"<s>":1,"</s>":2,"<unk>":3,"[HIERO]":4,"[TRANS]":5,"[LEMMA]":6,"[GLOSS]":7,"[DE]":8,"[MASC]":9,"[FEM]":10,"\n":11,"\r":12,"!":13,"\"":14,"$":15,"'":16,"(":17,")":18,"+":19,",":20,"-":21,".":22,"/":23,"0":24,"1":25,"2":26,"3":27,"4":28,"5":29,"6":30,"7":31,"8":32,"9":33,":":34,";":35,"<":36,"=":37,">":38,"?":39,"A":40,"B":41,"C":42,"D":43,"E":44,"F":45,"G":46,"H":47,"I":48,"J":49,"K":50,"L":51,"M":52,"N":53,"O":54,"P":55,"Q":56,"R":57,"S":58,"T":59,"U":60,"V":61,"W":62,"X":63,"Y":64,"Z":65,"[":66,"\\":67,"]":68,"a":69,"b":70,"c":71,"d":72,"e":73,"f":74,"g":75,"h":76,"i":77,"j":78,"k":79,"l":80,"m":81,"n":82,"o":83,"p":84,"q":85,"r":86,"s":87,"t":88,"u":89,"v":90,"w":91,"x":92,"y":93,"z":94,"|":95,"~":96,"Ä":97,"Ö":98,"Ü":99,"ß":100,"ä":101,"ö":102,"ü":103,"ı":104,"Š":105,"š":106,"ʾ":107,"̯":108,"̱":109,"͗":110,"Ḏ":111,"ḏ":112,"Ḥ":113,"ḥ":114,"Ḫ":115,"ḫ":116,"Ṯ":117,"ṯ":118,"ṱ":119,"ẖ":120,"–":121,"‘":122,"‚":123,"“":124,"„":125,"▁":126,"❡":127,"⟦":128,"⟧":129,"〈":130,"〉":131,"Ꜣ":132,"ꜣ":133,"Ꜥ":134,"ꜥ":135,"Ꞽ":136,"ꞽ":137,"︀":138,"︂":139,"𓀀":140,"𓀁":141,"𓀃":142,"𓀄":143,"𓀆":144,"𓀉":145,"𓀊":146,"𓀋":147,"𓀌":148,"𓀍":149,"𓀎":150,"𓀏":151,"𓀐":152,"𓀑":153,"𓀒":154,"𓀓":155,"𓀔":156,"𓀕":157,"𓀖":158,"𓀗":159,"𓀘":160,"𓀙":161,"𓀚":162,"𓀜":163,"𓀝":164,"𓀞":165,"𓀟":166,"𓀠":167,"𓀡":168,"𓀢":169,"𓀤":170,"𓀦":171,"𓀧":172,"𓀨":173,"𓀩":174,"𓀪":175,"𓀭":176,"𓀯":177,"𓀰":178,"𓀲":179,"𓀵":180,"𓀸":181,"𓀹":182,"𓀺":183,"𓀻":184,"𓀼":185,"𓀽":186,"𓀾":187,"𓁀":188,"𓁅":189,"𓁌":190,"𓁐":191,"𓁑":192,"𓁒":193,"𓁓":194,"𓁔":195,"𓁟":196,"𓁠":197,"𓁢":198,"𓁣":199,"𓁤":200,"𓁥":201,"𓁦":202,"𓁨":203,"𓁶":204,"𓁷":205,"𓁸":206,"𓁹":207,"𓁺":208,"𓁻":209,"𓁼":210,"𓁽":211,"𓁿":212,"𓂀":213,"𓂂":214,"𓂃":215,"𓂆":216,"𓂉":217,"𓂊":218,"𓂋":219,"𓂎":220,"𓂏":221,"𓂐":222,"𓂑":223,"𓂒":224,"𓂓":225,"𓂔":226,"𓂕":227,"𓂖":228,"𓂘":229,"𓂙":230,"𓂚":231,"𓂛":232,"𓂜":233,"𓂝":234,"𓂞":235,"𓂟":236,"𓂠":237,"𓂡":238,"𓂢":239,"𓂣":240,"𓂤":241,"𓂥":242,"𓂦":243,"𓂧":244,"𓂨":245,"𓂩":246,"𓂬":247,"𓂭":248,"𓂷":249,"𓂸":250,"𓂺":251,"𓂻":252,"𓂽":253,"𓂾":254,"𓂿":255,"𓃀":256,"𓃂":257,"𓃃":258,"𓃄":259,"𓃅":260,"𓃒":261,"𓃓":262,"𓃔":263,"𓃘":264,"𓃙":265,"𓃚":266,"𓃛":267,"𓃜":268,"𓃝":269,"𓃞":270,"𓃟":271,"𓃠":272,"𓃡":273,"𓃢":274,"𓃣":275,"𓃥":276,"𓃧":277,"𓃨":278,"𓃩":279,"𓃫":280,"𓃬":281,"𓃭":282,"𓃯":283,"𓃰":284,"𓃱":285,"𓃲":286,"𓃵":287,"𓃶":288,"𓃷":289,"𓃸":290,"𓃹":291,"𓃽":292,"𓃾":293,"𓃿":294,"𓄀":295,"𓄁":296,"𓄂":297,"𓄃":298,"𓄄":299,"𓄅":300,"𓄆":301,"𓄇":302,"𓄈":303,"𓄉":304,"𓄊":305,"𓄋":306,"𓄏":307,"𓄐":308,"𓄑":309,"𓄒":310,"𓄓":311,"𓄔":312,"𓄕":313,"𓄖":314,"𓄗":315,"𓄘":316,"𓄙":317,"𓄚":318,"𓄛":319,"𓄜":320,"𓄝":321,"𓄞":322,"𓄟":323,"𓄠":324,"𓄡":325,"𓄢":326,"𓄣":327,"𓄤":328,"𓄥":329,"𓄦":330,"𓄧":331,"𓄪":332,"𓄫":333,"𓄬":334,"𓄭":335,"𓄯":336,"𓄰":337,"𓄱":338,"𓄲":339,"𓄴":340,"𓄶":341,"𓄹":342,"𓄼":343,"𓄽":344,"𓄿":345,"𓅀":346,"𓅁":347,"𓅂":348,"𓅃":349,"𓅄":350,"𓅅":351,"𓅆":352,"𓅇":353,"𓅈":354,"𓅉":355,"𓅌":356,"𓅎":357,"𓅏":358,"𓅐":359,"𓅑":360,"𓅒":361,"𓅓":362,"𓅔":363,"𓅘":364,"𓅙":365,"𓅚":366,"𓅛":367,"𓅜":368,"𓅝":369,"𓅞":370,"𓅟":371,"𓅠":372,"𓅡":373,"𓅢":374,"𓅣":375,"𓅤":376,"𓅥":377,"𓅧":378,"𓅨":379,"𓅩":380,"𓅪":381,"𓅬":382,"𓅭":383,"𓅮":384,"𓅯":385,"𓅰":386,"𓅱":387,"𓅷":388,"𓅸":389,"𓅹":390,"𓅺":391,"𓅻":392,"𓅼":393,"𓅾":394,"𓅿":395,"𓆀":396,"𓆁":397,"𓆃":398,"𓆄":399,"𓆅":400,"𓆇":401,"𓆈":402,"𓆊":403,"𓆋":404,"𓆌":405,"𓆍":406,"𓆎":407,"𓆏":408,"𓆐":409,"𓆑":410,"𓆓":411,"𓆗":412,"𓆘":413,"𓆙":414,"𓆚":415,"𓆛":416,"𓆜":417,"𓆝":418,"𓆞":419,"𓆟":420,"𓆠":421,"𓆢":422,"𓆣":423,"𓆤":424,"𓆨":425,"𓆩":426,"𓆫":427,"𓆭":428,"𓆮":429,"𓆰":430,"𓆱":431,"𓆳":432,"𓆴":433,"𓆵":434,"𓆶":435,"𓆷":436,"𓆸":437,"𓆻":438,"𓆼":439,"𓇅":440,"𓇆":441,"𓇇":442,"𓇉":443,"𓇋":444,"𓇍":445,"𓇎":446,"𓇏":447,"𓇐":448,"𓇑":449,"𓇒":450,"𓇓":451,"𓇔":452,"𓇖":453,"𓇗":454,"𓇘":455,"𓇙":456,"𓇛":457,"𓇜":458,"𓇝":459,"𓇟":460,"𓇠":461,"𓇡":462,"𓇣":463,"𓇤":464,"𓇥":465,"𓇦":466,"𓇧":467,"𓇨":468,"𓇩":469,"𓇫":470,"𓇬":471,"𓇭":472,"𓇮":473,"𓇯":474,"𓇰":475,"𓇱":476,"𓇲":477,"𓇳":478,"𓇴":479,"𓇶":480,"𓇷":481,"𓇸":482,"𓇹":483,"𓇺":484,"𓇻":485,"𓇼":486,"𓇽":487,"𓇾":488,"𓇿":489,"𓈀":490,"𓈁":491,"𓈃":492,"𓈄":493,"𓈅":494,"𓈆":495,"𓈇":496,"𓈈":497,"𓈉":498,"𓈋":499,"𓈌":500,"𓈍":501,"𓈎":502,"𓈏":503,"𓈐":504,"𓈑":505,"𓈒":506,"𓈓":507,"𓈔":508,"𓈖":509,"𓈗":510,"𓈘":511,"𓈙":512,"𓈚":513,"𓈛":514,"𓈜":515,"𓈝":516,"𓈞":517,"𓈟":518,"𓈢":519,"𓉇":520,"𓉐":521,"𓉒":522,"𓉓":523,"𓉔":524,"𓉕":525,"𓉗":526,"𓉘":527,"𓉜":528,"𓉞":529,"𓉟":530,"𓉠":531,"𓉡":532,"𓉥":533,"𓉦":534,"𓉧":535,"𓉩":536,"𓉪":537,"𓉫":538,"𓉬":539,"𓉭":540,"𓉮":541,"𓉯":542,"𓉱":543,"𓉲":544,"𓉴":545,"𓉵":546,"𓉶":547,"𓉷":548,"𓉸":549,"𓉹":550,"𓉺":551,"𓉻":552,"𓉼":553,"𓉿":554,"𓊀":555,"𓊂":556,"𓊃":557,"𓊄":558,"𓊅":559,"𓊊":560,"𓊋":561,"𓊌":562,"𓊍":563,"𓊎":564,"𓊏":565,"𓊐":566,"𓊑":567,"𓊒":568,"𓊓":569,"𓊔":570,"𓊕":571,"𓊖":572,"𓊗":573,"𓊙":574,"𓊚":575,"𓊛":576,"𓊜":577,"𓊞":578,"𓊠":579,"𓊡":580,"𓊢":581,"𓊤":582,"𓊦":583,"𓊧":584,"𓊨":585,"𓊩":586,"𓊪":587,"𓊫":588,"𓊬":589,"𓊭":590,"𓊮":591,"𓊯":592,"𓊰":593,"𓊲":594,"𓊵":595,"𓊶":596,"𓊷":597,"𓊸":598,"𓊹":599,"𓊺":600,"𓊻":601,"𓊼":602,"𓊽":603,"𓊾":604,"𓊿":605,"𓋀":606,"𓋁":607,"𓋄":608,"𓋅":609,"𓋇":610,"𓋈":611,"𓋉":612,"𓋊":613,"𓋋":614,"𓋌":615,"𓋎":616,"𓋏":617,"𓋑":618,"𓋒":619,"𓋔":620,"𓋕":621,"𓋚":622,"𓋝":623,"𓋞":624,"𓋣":625,"𓋥":626,"𓋦":627,"𓋨":628,"𓋩":629,"𓋪":630,"𓋫":631,"𓋬":632,"𓋭":633,"𓋮":634,"𓋯":635,"𓋲":636,"𓋳":637,"𓋴":638,"𓋵":639,"𓋷":640,"𓋸":641,"𓋹":642,"𓋼":643,"𓋾":644,"𓋿":645,"𓌀":646,"𓌂":647,"𓌃":648,"𓌄":649,"𓌅":650,"𓌇":651,"𓌈":652,"𓌉":653,"𓌋":654,"𓌌":655,"𓌎":656,"𓌐":657,"𓌒":658,"𓌓":659,"𓌔":660,"𓌕":661,"𓌖":662,"𓌗":663,"𓌘":664,"𓌙":665,"𓌚":666,"𓌞":667,"𓌟":668,"𓌠":669,"𓌡":670,"𓌢":671,"𓌤":672,"𓌥":673,"𓌦":674,"𓌧":675,"𓌨":676,"𓌩":677,"𓌪":678,"𓌫":679,"𓌬":680,"𓌮":681,"𓌰":682,"𓌱":683,"𓌳":684,"𓌴":685,"𓌶":686,"𓌷":687,"𓌸":688,"𓌻":689,"𓌼":690,"𓌽":691,"𓌾":692,"𓍁":693,"𓍂":694,"𓍃":695,"𓍄":696,"𓍅":697,"𓍆":698,"𓍇":699,"𓍈":700,"𓍉":701,"𓍊":702,"𓍋":703,"𓍌":704,"𓍍":705,"𓍎":706,"𓍏":707,"𓍐":708,"𓍑":709,"𓍒":710,"𓍓":711,"𓍔":712,"𓍕":713,"𓍖":714,"𓍘":715,"𓍙":716,"𓍚":717,"𓍛":718,"𓍜":719,"𓍞":720,"𓍟":721,"𓍠":722,"𓍡":723,"𓍢":724,"𓍬":725,"𓍯":726,"𓍰":727,"𓍱":728,"𓍲":729,"𓍳":730,"𓍵":731,"𓍶":732,"𓍸":733,"𓍹":734,"𓍺":735,"𓍻":736,"𓍼":737,"𓍿":738,"𓎀":739,"𓎁":740,"𓎂":741,"𓎃":742,"𓎄":743,"𓎅":744,"𓎆":745,"𓎓":746,"𓎔":747,"𓎕":748,"𓎖":749,"𓎗":750,"𓎘":751,"𓎙":752,"𓎚":753,"𓎛":754,"𓎝":755,"𓎟":756,"𓎠":757,"𓎡":758,"𓎢":759,"𓎣":760,"𓎤":761,"𓎦":762,"𓎧":763,"𓎨":764,"𓎩":765,"𓎫":766,"𓎯":767,"𓎰":768,"𓎱":769,"𓎳":770,"𓎴":771,"𓎵":772,"𓎶":773,"𓎷":774,"𓎸":775,"𓎺":776,"𓎻":777,"𓎼":778,"𓎽":779,"𓎾":780,"𓎿":781,"𓏁":782,"𓏂":783,"𓏃":784,"𓏅":785,"𓏇":786,"𓏈":787,"𓏉":788,"𓏊":789,"𓏋":790,"𓏌":791,"𓏎":792,"𓏏":793,"𓏐":794,"𓏑":795,"𓏒":796,"𓏓":797,"𓏕":798,"𓏖":799,"𓏘":800,"𓏙":801,"𓏛":802,"𓏜":803,"𓏝":804,"𓏞":805,"𓏟":806,"𓏠":807,"𓏡":808,"𓏢":809,"𓏣":810,"𓏤":811,"𓏥":812,"𓏨":813,"𓏩":814,"𓏪":815,"𓏫":816,"𓏬":817,"𓏭":818,"𓏮":819,"𓏯":820,"𓏰":821,"𓏱":822,"𓏲":823,"𓏳":824,"𓏴":825,"𓏵":826,"𓏶":827,"𓏸":828,"𓏹":829,"𓏻":830,"𓏼":831,"𓏽":832,"𓐃":833,"𓐄":834,"𓐅":835,"𓐆":836,"𓐇":837,"𓐍":838,"𓐎":839,"𓐏":840,"𓐐":841,"𓐑":842,"𓐒":843,"𓐓":844,"𓐖":845,"𓐗":846,"𓐘":847,"𓐙":848,"𓐚":849,"𓐛":850,"𓐜":851,"𓐝":852,"𓐞":853,"𓐟":854,"𓐠":855,"𓐡":856,"𓐢":857,"𓐣":858,"𓐥":859,"𓐦":860,"𓐧":861,"𓐨":862,"𓐩":863,"𓐪":864,"𓐫":865,"𓐬":866,"𓐭":867,"𓐮":868,"\r\n":869,"▁[":870,"0|":871,"▁1":872,"er":873,"S]":874,"00":875,".m":876,"▁d":877,".t":878,"st":879,"▁N":880,"en":881,"sg":882,"RO":883,"▁P":884,".w":885,"pr":886,"▁V":887,"in":888,"RA":889,"A]":890,"DE":891,"EM":892,"ERO":893,"GL":894,"HI":895,"LEM":896,"MA]":897,"NS]":898,"OS":899,"TRA":900,"▁[DE":901,"▁[GL":902,"▁[HI":903,"▁[LEM":904,"▁[TRA":905,"ERO]":906,"OSS]":907,"▁[DE]":908,"▁[GLOSS]":909,"▁[HIERO]":910,"▁[LEMMA]":911,"▁[TRANS]":912,"▁=":913,"ch":914,":st":915,"▁4":916,"▁N.m":917,"▁-":918,"▁V\\":919,"0|=":920,"▁n":921,":stpr":922,"RE":923,"▁PRE":924,"▁PREP":925,"sg.m":926,"▁s":927,"i̯":928,"es":929,"m.":930,"▁8":931,"▁m":932,".\r\n":933,"▁ꞽ":934,"▁400":935,"01":936,".ꞽ":937,"▁(":938,"▁w":939,"▁D":940,"ein":941,"-n":942,"ta":943,".f":944,"ac":945,"▁ḥ":946,"▁100":947,"act":948,"▁T":949,"an":950,"▁-3":951,"ie":952,"0|ꞽ":953,"▁V\\ta":954,"▁7":955,"00|":956,"g>":957,"N\r\n":958,"▁V\\tam.":959,"▁2":960,"un":961,"▁der":962,"ei":963,"▁𓈖":964,"▁V\\tam.act":965,"ge":966,"as":967,"▁101":968,"or":969,"55":970,"▁N.f":971,"▁𓆑":972,"▁𓇋":973,"2sg.m":974,"▁9":975,"▁-3sg.m":976,"▁=f":977,"0|=f":978,"▁1005":979,".sg":980,"▁i":981,"▁H":982,"em":983,"▁10050|=f":984,"▁S":985,"60|":986,"▁A":987,"10|":988,"r.w":989,"▁=k":990,"▁-2sg.m":991,"10|=":992,"▁10110|=":993,"▁10110|=k":994,"▁6":995,"▁𓅓":996,"▁𓋴":997,"IT":998,"▁TIT":999,"▁TITL":1000,"au":1001,"▁4000":1002,"90|":1003,"ich":1004,"▁85":1005,"YL":1006,"▁RO":1007,"▁ROYL":1008,"|m":1009,"40|":1010,"pl":1011,"ER":1012,"▁PER":1013,"▁PERS":1014,"ꞽ)":1015,"und":1016,"▁r":1017,"▁z":1018,"20|":1019,"IV":1020,"▁DIV":1021,"▁des":1022,"▁G":1023,"▁𓎡":1024,"sw":1025,"ir":1026,"te":1027,"▁5":1028,"1|":1029,"ṯr":1030,"kꜣ":1031,".t\r\n":1032,"|n":1033,"▁K":1034,"ter":1035,"tp":1036,"50|":1037,"30|":1038,"▁ḫ":1039,"/g>":1040,"<g>":1041,"</g>":1042,"▁𓂋":1043,"w\r\n":1044,"ig":1045,"ad":1046,"▁b":1047,"19":1048,"07":1049,"(.ꞽ":1050,".t-":1051,".tꞽ":1052,"▁ROYLN":1053,"us":1054,"▁PERSN\r\n":1055,"▁h":1056,"▁ist":1057,"▁PREP:stpr":1058,"▁p":1059,"▁12":1060,"fr":1061,"swt":1062,"▁N.m:stpr":1063,"el":1064,"▁g":1065,"70|":1066,"(.ꞽ)":1067,"▁v":1068,".m.sg":1069,"▁V\\tam.act:stpr":1070,"-m":1071,"▁E":1072,"pt":1073,"al":1074,"▁sein":1075,"-ꜥ":1076,"80|":1077,"▁DIVN":1078,"02":1079,"et":1080,"CL":1081,"TCL":1082,":m.":1083,"15":1084,"▁3":1085,"▁W":1086,"-ḥ":1087,"adj":1088,"4|":1089,"▁M":1090,"fer":1091,"PL":1092,"▁ḏ":1093,"-r":1094,".PL":1095,"eh":1096,"▁O":1097,"it":1098,"-adj":1099,"-adjz":1100,"▁die":1101,".n":1102,"▁𓍹":1103,"▁ge":1104,"t,":1105,"▁dem":1106,"gen":1107,"▁ꜥ":1108,"43":1109,"▁B":1110,".w\r\n":1111,"▁11":1112,"82":1113,"on":1114,"▁und":1115,"62":1116,"im":1117,"-ḫ":1118,"is":1119,"▁45":1120,"nꞽ":1121,"55|n":1122,"▁PTCL":1123,"▁400055|n":1124,":m.sg":1125,"03":1126,"▁17":1127,"▁𓊪":1128,":pl":1129,"▁N.m\r\n":1130,"▁ein":1131,"den":1132,"-nswt":1133,"Ḥr.w":1134,"▁PREP-adjz":1135,"ꞽ\r\n":1136,"98":1137,"-ꞽ":1138,"at":1139,"p.":1140,"▁Hor":1141,"-w":1142,"nḫ":1143,"88":1144,"mꜣ":1145,"6|":1146,"▁das":1147,"▁er":1148,"0|ꞽr":1149,"ptc":1150,"ön":1151,"ptcp.":1152,"-an":1153,"▁ꞽr":1154,"▁18":1155,"▁Horus":1156,"nt":1157,"sn":1158,"-kꜣ":1159,"▁AD":1160,"ḥr":1161,"(ꞽ)":1162,"▁V\\r":1163,"▁𓇓":1164,"-ant":1165,"▁au":1166,"ten":1167,"der":1168,":stc":1169,"67":1170,"▁t":1171,"am":1172,"▁in":1173,"▁an":1174,"ḏi̯":1175,"w.t":1176,"▁V\\ptcp.":1177,"ar":1178,"▁13":1179,"▁ih":1180,"ꜣ\r\n":1181,"-nṯr":1182,"▁ḥr":1183,"▁du":1184,"nꞽs":1185,"ꜥw":1186,"▁zu":1187,"önig":1188,"le":1189,"▁f":1190,"ro":1191,"▁𓅃":1192,"00|n":1193,"ass":1194,"▁den":1195,"▁König":1196,"ber":1197,"29":1198,"▁40000":1199,"=f":1200,"▁I":1201,"13":1202,"7|m":1203,"▁ḥr.w":1204,"09":1205,"▁PREP-adjz:m.sg":1206,"▁15":1207,"▁N.m:pl":1208,"ꜣ.t":1209,"▁𓁷":1210,"wi̯":1211,"Un":1212,"ür":1213,"▁V\\im":1214,"ꜣ.w":1215,"𓊹𓊹":1216,"ben":1217,"m.ꞽ":1218,"16":1219,"w)":1220,"47":1221,"▁𓎢":1222,"▁400007|m":1223,"▁798":1224,"00|n.ꞽ":1225,"▁79800|n.ꞽ":1226,"▁dein":1227,"▁𓎛":1228,"ẖr":1229,"icht":1230,"▁V\\ptcp.act":1231,"▁š":1232,"▁V\\imp":1233,"▁V\\imp.sg":1234,"8|":1235,"▁L":1236,"ꜣb":1237,"(.w":1238,"▁𓐍":1239,"ach":1240,"s\r\n":1241,"▁V\\tam.act-ant":1242,"-s":1243,"sg.f":1244,"▁F":1245,"n\r\n":1246,"ed":1247,"-rʾ":1248,"2|":1249,"49":1250,"▁59":1251,"▁-3sg.m\r\n":1252,"▁Der":1253,"𓇋𓇋":1254,"ḫr":1255,"▁55":1256,"▁(ꞽ)":1257,"(.w)":1258,"▁DIVN\r\n":1259,"inf":1260,"05":1261,"!\r\n":1262,"om":1263,"▁𓆑\r\n":1264,"▁Un":1265,"▁10050|=f\r\n":1266,"▁=f\r\n":1267,".t)":1268,"est":1269,"▁882":1270,"▁V\\inf":1271,"▁16":1272,"▁28":1273,"60|n":1274,"sꞽ":1275,"▁𓆓":1276,"▁nb":1277,"▁ADJ":1278,"ef":1279,"075":1280,"ol":1281,"▁ROYLN\r\n":1282,"▁k":1283,"ung":1284,"▁wir":1285,"94":1286,"▁919":1287,"▁von":1288,"▁ꞽm":1289,"17":1290,"r\r\n":1291,"(.t)":1292,"?)":1293,"▁R":1294,"▁𓍿":1295,"▁ꞽn":1296,"sch":1297,"-z":1298,"ster":1299,"▁𓇓𓏏":1300,"ḏd":1301,"es-":1302,"▁Her":1303,"𓃹𓈖":1304,"pass":1305,"▁dir":1306,"1|W":1307,"▁N.f:stpr":1308,"▁643":1309,"▁Sch":1310,"5|":1311,"-nb":1312,"▁V\\res-":1313,"▁𓉘":1314,".y":1315,"▁V\\ptcp.act.m.sg":1316,"|r":1317,"74":1318,"▁Ein":1319,"▁788":1320,"▁14":1321,"30|=":1322,"▁𓁹":1323,":\r\n":1324,"pfer":1325,"34|":1326,"▁Ne":1327,"en,":1328,"▁𓎟":1329,"▁ḥtp":1330,"▁auf":1331,"ḫ.t":1332,"ḥm":1333,"eit":1334,"de":1335,"▁Ver":1336,"▁Königs":1337,"hr":1338,"▁nicht":1339,"▁800":1340,"lich":1341,"ib":1342,"▁N.f\r\n":1343,"04":1344,"▁400034|":1345,"▁400034|Ḥr.w":1346,"▁N.m:stc":1347,"1sg":1348,"𓂋𓏏":1349,"|ꞽ":1350,"du":1351,"▁ṯ":1352,"t.\r\n":1353,"ti":1354,"𓊂\r\n":1355,"▁1075":1356,"ech":1357,"n.w":1358,"▁für":1359,"3sg.m":1360,"66":1361,"▁wird":1362,"▁PERSN":1363,"▁ꞽw":1364,"▁𓏏":1365,"▁<g>":1366,"90|n":1367,"ms":1368,":f":1369,"r.t":1370,"27":1371,"▁nfr":1372,"▁𓂜":1373,"PN\r\n":1374,"00|r":1375,"en.\r\n":1376,"ot":1377,"(w)":1378,"eher":1379,"ies":1380,"▁-1sg":1381,"▁10030|=":1382,"▁𓊃":1383,"roß":1384,"b\r\n":1385,"▁n(.ꞽ)":1386,"-ḫr":1387,"nm":1388,"▁hat":1389,"▁Er":1390,"87":1391,"py":1392,"sꞽr":1393,"110|":1394,"end":1395,"77":1396,"ör":1397,"𓇋𓋴":1398,"050|":1399,"▁dich":1400,"▁(und":1401,"ind":1402,"mr":1403,"hn":1404,"▁$":1405,"mꜣḫ":1406,"▁TO":1407,"▁-2sg.m\r\n":1408,"▁=k\r\n":1409,"▁4003":1410,"▁10110|=k\r\n":1411,"06":1412,"▁pr":1413,"▁mr":1414,"▁mit":1415,"mn":1416,"▁nṯr":1417,"▁-3sg.f":1418,"▁Herr":1419,"-md":1420,"-ḫt":1421,"ḥꜥ":1422,"-pr":1423,"▁1009":1424,"omm":1425,"▁10090|=":1426,"44":1427,"𓇋𓋴𓍺":1428,"šm":1429,"08":1430,"▁500":1431,"▁𓍹𓃹𓈖":1432,"▁𓍹𓃹𓈖𓇋𓋴𓍺":1433,"ḫꜣ":1434,"001|W":1435,"▁Unas":1436,"▁800001|W":1437,"▁800001|Wnꞽs":1438,"▁wnꞽs":1439,"ab":1440,"▁𓀀":1441,"▁𓉐":1442,"nn":1443,"▁dem.m.sg":1444,".ꞽ-":1445,"ann":1446,"▁(d":1447,"tꞽ":1448,"▁bei":1449,"▁𓂝":1450,"and":1451,"▁Opfer":1452,"▁kꜣ":1453,"iester":1454,"ft":1455,"-ꜥꜣ":1456,"▁185":1457,"sr":1458,"m.ꞽ-rʾ":1459,"▁PRO":1460,"▁ꜣ":1461,"tꜣ":1462,"ut":1463,"▁ver":1464,"▁ḥm":1465,"ist":1466,":f.sg":1467,"85":1468,"-mdw\r\n":1469,"▁𓇋𓅓":1470,"040|":1471,"iris":1472,"810|":1473,"▁𓇋𓂋":1474,"▁113":1475,"▁Vor":1476,"▁𓈖𓏏":1477,"14":1478,"𓈖𓏏":1479,"e,":1480,"▁V\\tam.act-ant:stpr":1481,"▁𓊵":1482,"▁al":1483,"ag":1484,"73":1485,"▁dies":1486,"▁25":1487,"pw":1488,"0|ꞽn":1489,"$-":1490,"p.w":1491,"920|":1492,"aus":1493,"▁gib":1494,"12":1495,"ck":1496,"imm":1497,"▁5500":1498,"pf":1499,"▁sie":1500,"▁Got":1501,"▁𓋴𓈖":1502,"ꜥb":1503,"Rꜥw":1504,"nḏ":1505,"▁𓊨":1506,"wr":1507,"11":1508,"▁es":1509,"▁816":1510,"▁10030|=ꞽ":1511,"▁ḫꜣ":1512,"▁q":1513,"▁mꜣ":1514,"▁=ꞽ":1515,"64":1516,"𓅱𓏏":1517,"72":1518,"siris":1519,"30|ꞽ":1520,"rei":1521,"i̯.n":1522,"▁ihn":1523,"▁wer":1524,"▁Osiris":1525,"um":1526,"ur":1527,"esch":1528,"tm":1529,"än":1530,"mꞽ":1531,"▁𓆼":1532,"▁88":1533,"▁Ka":1534,"äg":1535,"steher":1536,"▁V\\rel":1537,"▁st":1538,"𓅱\r\n":1539,"▁494":1540,"28":1541,"zꜣ":1542,"60|nṯr":1543,"sḏ":1544,"▁10":1545,"▁An":1546,"▁119":1547,"▁113110|":1548,"▁zꜣ":1549,"w.t-":1550,"eine":1551,"nꜥ":1552,"▁78890|n":1553,"wꜣ":1554,"och":1555,"mꜣḫ.w":1556,"ḥꜣ\r\n":1557,"DU":1558,"ier":1559,"▁C":1560,"ep":1561,"𓐍𓏏":1562,"▁ḏd":1563,"wt":1564,"aß":1565,"▁ḥtp-":1566,"öge":1567,"▁sch":1568,"▁95":1569,"-b":1570,"00|=":1571,"3|":1572,"▁ẖr":1573,"oll":1574,"eb":1575,"▁𓅱":1576,"▁Das":1577,"00|ḥ":1578,":du":1579,"enn":1580,"A</g>":1581,"▁𓁷𓏤":1582,"▁702":1583,"re":1584,"𓏏𓏏":1585,"i̯.t":1586,"nt.ꞽ":1587,"ḫm":1588,"▁So":1589,"▁Opfer,":1590,"▁𓅨":1591,"▁𓊹":1592,"▁V\\res-3sg.m":1593,"ẖꜣ.w":1594,"𓈖\r\n":1595,"6050|":1596,"Nfr":1597,"0|ꞽri̯":1598,"d)":1599,"▁Au":1600,"▁Nefer":1601,"▁Z":1602,"▁ḫr":1603,"▁TOPN\r\n":1604,"▁Die":1605,"<g>D":1606,"oten":1607,"▁8515":1608,"PN":1609,"uch":1610,"▁𓅭":1611,"▁𓎡\r\n":1612,".DU":1613,"p.t":1614,"𓏏𓏤":1615,"▁=sn":1616,"▁ADV":1617,"▁l":1618,".f.sg":1619,"adv":1620,"▁seinem":1621,"25":1622,"00|ṯ":1623,"▁113110|ḫꜣ":1624,"m(.ꞽ)":1625,"-nfr":1626,"▁40015":1627,"▁ist,":1628,"efin":1629,"|m-ḫt":1630,"▁pw":1631,"39":1632,"t\r\n":1633,"▁185810|":1634,"▁185810|ḏd":1635,"▁𓂓":1636,"▁vor":1637,"▁𓆓𓂧":1638,"advz":1639,"▁401":1640,"▁162":1641,"▁902":1642,"24":1643,"▁𓉔":1644,"𓏏\r\n":1645,"▁90260|nṯr":1646,"550|ꞽri̯":1647,"ed)":1648,"▁28550|ꞽri̯":1649,"▁(undefin":1650,"▁(undefined)":1651,"(?)":1652,"ver":1653,"ḥtp":1654,"▁rn":1655,"▁𓂧":1656,"𓏏𓊪":1657,"▁=2sg.m":1658,"▁-3pl":1659,"▁26":1660,"▁Ch":1661,"▁(w":1662,".tꞽ\r\n":1663,"nb":1664,"01|r":1665,"00|Ḥr.w":1666,"▁91901|r":1667,"▁V\\tam.pass":1668,"6|m-ḫt":1669,"nw":1670,"▁10100|=":1671,"▁400156|m-ḫt":1672,"▁10100|=sn":1673,"▁𓄤":1674,"▁\"":1675,"▁=s":1676,"wal":1677,"ꜥnḫ":1678,"13|":1679,"▁(ꞽ)m(.ꞽ)":1680,"741|":1681,"▁𓍹𓇳":1682,"▁Gott":1683,"▁Du":1684,"▁𓊨𓁹":1685,"▁59920|":1686,"▁107500|Ḥr.w":1687,"▁59920|p":1688,"90|ḥr":1689,"▁aus":1690,"▁59741|":1691,"▁spr":1692,"▁𓅓𓂋":1693,"a\r\n":1694,"▁𓂋𓈖":1695,"▁Vorsteher":1696,").\r\n":1697,"▁ꜥnḫ":1698,"oder":1699,"▁400090|ḥr":1700,"34":1701,"▁10090|=s":1702,"ꜣi̯":1703,"𓇋\r\n":1704,"ꜣḫ":1705,"33":1706,"sen":1707,"ört":1708,"45":1709,"▁ta":1710,"ḥḏ":1711,"▁𓋹":1712,"),":1713,"s.t":1714,"▁j":1715,"▁wr":1716,"-Rꜥw":1717,"-rꜥw":1718,"komm":1719,"tig":1720,"ꜥw\r\n":1721,"▁Toten":1722,"-ẖ":1723,"▁𓃀":1724,"ꞽ.t":1725,"▁ḥtp-ḏi̯":1726,"i.\r\n":1727,"▁(w)":1728,"walter":1729,"ꜣ)":1730,"▁ꞽ:":1731,"ypt":1732,"9|":1733,"▁(D":1734,"ast":1735,"+(":1736,"𓊪𓊪":1737,"▁967":1738,"00|rḏi̯":1739,"ꜣḏ":1740,"▁96700|rḏi̯":1741,"über":1742,"ägypt":1743,"n.t":1744,"▁als":1745,"2|m":1746,"▁sich":1747,"▁groß":1748,"𓊖\r\n":1749,"▁1749":1750,"eith":1751,"▁947":1752,"▁69":1753,"bꜣ":1754,"▁174900|ṯ":1755,"mt":1756,"▁le":1757,"|ꞽw":1758,"nq":1759,"▁ihr":1760,"echen":1761,"▁Sohn":1762,"21":1763,"▁-2":1764,"▁219":1765,"usend":1766,"amit":1767,"▁81660|n":1768,"▁(ꞽ)m(.ꞽ)-rʾ":1769,"𓇋𓇋𓍺":1770,"gel":1771,"epi":1772,"960|":1773,"ze":1774,"gr":1775,"010|":1776,"20|pr":1777,"▁seine":1778,"▁tausend":1779,"ḥ.w":1780,"▁125":1781,"▁1688":1782,"▁N.f:pl":1783,"15|ꞽw":1784,"▁4501":1785,"▁851515|ꞽw":1786,"wḏ":1787,"öt":1788,"▁tp":1789,"▁daß":1790,"20|r":1791,"▁Wor":1792,"292|m":1793,"Ppy":1794,"▁𓍹𓊪𓊪":1795,"▁𓁷𓂋":1796,"▁500292|m":1797,"▁𓍹𓊪𓊪𓇋𓇋𓍺":1798,"𓐍𓂋":1799,"▁59741|pw":1800,"i-":1801,"-ꞽb\r\n":1802,"▁sind":1803,"-ḏ":1804,"di̯":1805,"𓏥\r\n":1806,"▁im":1807,"▁ẖ":1808,"▁𓌸":1809,"13|Ppy":1810,"▁ppy":1811,"▁400313|Ppy":1812,"▁𓈙":1813,"▁Pepi":1814,"▁ihm":1815,"▁(ꞽ)r":1816,"ub":1817,"▁Groß":1818,"riester":1819,"ff":1820,"▁Ober":1821,"pd":1822,"▁damit":1823,"0|ꞽr.ꞽ":1824,"30|ꞽwi̯":1825,"▁21930|ꞽwi̯":1826,"(ꜣ)":1827,"s,":1828,"▁(?)":1829,"▁1255":1830,"▁𓌳":1831,"10|zꜣ":1832,"=ꞽ)":1833,".PL\r\n":1834,"▁N.m:pl:stpr":1835,"ḫ.t-nswt":1836,"▁125510|zꜣ":1837,"▁bist":1838,".t-ḫr":1839,"Ꞽn":1840,"35":1841,"ḥꜣ":1842,"0|ꞽm.ꞽ":1843,"▁𓇋𓈖":1844,"▁V\r\n":1845,"▁gibt":1846,"mꜥ":1847,"▁geh":1848,"62|m":1849,"▁64362|m":1850,"oder:":1851,".:":1852,"▁167":1853,"ögen":1854,".pl":1855,"▁ḏ(":1856,"▁186050|":1857,"▁186050|ḏd":1858,"tr":1859,"▁𓏙":1860,"▁Worte":1861,"▁𓈎":1862,"sf":1863,"▁=ṯ":1864,"▁N.f:stc":1865,"▁ADJ:m.sg":1866,"▁V~":1867,"▁wie":1868,"▁ḏ(d)":1869,"90|sw":1870,"tep":1871,"(=ꞽ)":1872,"23":1873,"26":1874,"▁J":1875,"örtl":1876,"▁Göt":1877,"▁sprechen":1878,"nswt":1879,"▁1294":1880,"men":1881,"ob":1882,"▁𓐍𓂋":1883,"▁ADJ:f.sg":1884,"▁dem.m.sg\r\n":1885,"69":1886,"▁𓋴\r\n":1887,"▁=3sg.m":1888,"▁186050|ḏd-mdw\r\n":1889,"▁ḏ(d)-mdw\r\n":1890,"▁129490|sw":1891,"ieb":1892,"örtl.:":1893,"ent":1894,"▁Verwalter":1895,"▁ꞽb":1896,"▁644":1897,"▁Götter":1898,"kar":1899,"▁un":1900,"▁sn":1901,"(ꞽ).t":1902,"870|":1903,"▁ḫnt":1904,"𓊹𓊹𓊹":1905,"priester":1906,"04|":1907,"▁Neith":1908,"▁was":1909,"▁seiner":1910,"acht":1911,"il":1912,"▁werden":1913,"-ꜥnḫ":1914,"▁(wörtl.:":1915,".h":1916,"ün":1917,"▁über":1918,"0|ꞽm":1919,"▁71":1920,"▁𓁶":1921,"-wr":1922,"▁V\\rel.m.sg":1923,"dem":1924,"𓐍𓅱":1925,".h.":1926,"NT":1927,"𓏠𓈖":1928,"▁INT":1929,"▁INTJ":1930,"PTCL":1931,"▁𓇳":1932,"▁=PTCL":1933,"▁24":1934,"-ꞽḫ.t-nswt":1935,"▁deine":1936,"▁174900|ṯw":1937,"-š":1938,"41":1939,"𓏛𓏥":1940,"▁𓇋𓅱":1941,"▁mꜣꜥ":1942,"740|":1943,"=ꞽ":1944,"▁sw":1945,"▁V\\tam.act-":1946,"▁𓊪𓏏":1947,"-ꞽ)":1948,"75":1949,"ḥ\r\n":1950,"-nṯr\r\n":1951,"▁beiden":1952,"▁23":1953,"▁her":1954,"040|nswt":1955,"▁88040|nswt":1956,"▁ꞽy":1957,"▁Unter":1958,"▁sprechen:\r\n":1959,"▁PROPN\r\n":1960,"er,":1961,"▁385":1962,"mögen":1963,"▁𓂋𓂝":1964,"▁88229":1965,"lei":1966,"▁Sp":1967,"▁(d.h.":1968,"eu":1969,"▁𓌨":1970,"𓂓𓍺":1971,"▁853":1972,"=f\r\n":1973,"▁Königsver":1974,"▁𓈖𓏏𓋌":1975,"▁81660|nb":1976,"▁Königsvermögen":1977,"-ḥtp":1978,"▁Mer":1979,"▁702960|":1980,"▁702960|N":1981,"63":1982,"sv":1983,"zp":1984,"e.\r\n":1985,"▁N.m:du":1986,"▁(oder:":1987,"-P":1988,"Mr":1989,"90|w":1990,":m.pl":1991,"ꜥḥꜥ":1992,"es,":1993,"65":1994,"7|":1995,"▁Ar":1996,"▁-3sg.f\r\n":1997,"▁𓇋𓌳":1998,"▁600":1999,"61|W":2000,"▁V\\advz":2001,"eil":2002,"▁49461|W":2003,"▁𓍹𓇳𓄤":2004,"▁=3":2005,"▁=s\r\n":2006,"60|W":2007,"22":2008,"dw":2009,"▁609":2010,"▁ꞽri̯":2011,"▁10090|=s\r\n":2012,"▁49461|Wsꞽr":2013,"etep":2014,"▁27":2015,"▁tꜣ":2016,"20|pri̯":2017,"ubis":2018,":)":2019,"pi̯":2020,"▁60920|pri̯":2021,"▁nswt":2022,"▁ich":2023,"-wꜥ":2024,"▁49460|W":2025,"▁(ꞽ)r(.ꞽ":2026,"ḫt":2027,"▁rḏi̯":2028,"tet":2029,"▁Anubis":2030,"-nfr\r\n":2031,"op":2032,"▁4502":2033,"▁PTCL:stpr":2034,"qr":2035,"▁𓉐𓂋":2036,"▁𓉔𓄿":2037,"nq.t":2038,"18":2039,"omän":2040,"sr(.w)":2041,"▁(w)sr(.w)":2042,"hꜣ":2043,"ḫnt.ꞽ":2044,"▁𓌃":2045,"▁Sie":2046,"▁ꜥḥꜥ":2047,"▁sag":2048,"▁707":2049,"Nfr-kꜣ":2050,"▁855":2051,"-zḥ":2052,"▁𓍹𓇳𓄤𓂓𓍺":2053,"em.":2054,"org":2055,"▁seinen":2056,"-ḥr":2057,"|ꞽm.ꞽ-rʾ":2058,"▁Neferkar":2059,"▁𓇍":2060,"▁soll":2061,"▁V\\ptcp.pass":2062,"-k":2063,"▁𓄿":2064,"▁𓍿𓅱":2065,"▁n(ꞽ).t":2066,"▁ṯw":2067,"61":2068,"B</g>":2069,"qꜣ":2070,"▁𓏌":2071,"𓈖𓂝":2072,"-sš":2073,"ms.w":2074,"▁unter":2075,"ien":2076,"▁ꞽt":2077,"▁Ah":2078,"30|Nfr-kꜣ":2079,"▁𓇓𓏏𓂋":2080,"▁nfr-kꜣ":2081,"▁400330|Nfr-kꜣ":2082,"reiber":2083,"▁162870|":2084,"▁702960|Nꞽ.t":2085,"▁162870|kꜣ":2086,"▁𓅜":2087,"▁40001":2088,"▁Lei":2089,"jer":2090,"000|":2091,"▁möge":2092,"0|ꞽb":2093,"▁𓊵𓏏𓊪":2094,"rʾ":2095,"rḏi̯":2096,"sorg":2097,"▁ms":2098,"▁ꜥḥꜣ\r\n":2099,"6|Ꜥ":2100,"𓊹𓊹𓊹𓊹":2101,"br":2102,".ꞽ-m":2103,"▁PROPN":2104,"mꜣḫ.w-ḫr":2105,"-ꞽ)ḫ":2106,"▁Aha\r\n":2107,"42":2108,"ät":2109,"-zꜣ":2110,"▁882296|Ꜥ":2111,"▁882296|Ꜥḥꜣ\r\n":2112,"11|":2113,"wn":2114,"ꞽꜣ":2115,"ꞽ.tꞽ":2116,"ehr":2117,"Ꞽnp.w":2118,"ahr":2119,".ꞽ\r\n":2120,"▁ist.\r\n":2121,"▁Möge":2122,"▁5503":2123,"▁Auf":2124,"m-":2125,"▁𓅨𓂋":2126,"20":2127,"𓊢𓂝":2128,"▁nḏ":2129,"▁dieser":2130,"ꜥ.t":2131,"6230|":2132,"▁𓊪𓈖":2133,"𓂚𓊂\r\n":2134,"geh":2135,"|nfr":2136,"▁𓉘𓂚𓊂\r\n":2137,"00|rn":2138,"\"\r\n":2139,"po":2140,"▁pn":2141,"▁1277":2142,"▁4506":2143,"ern":2144,"▁dem.":2145,"▁N-adjz":2146,"isch":2147,"▁𓃢":2148,"▁𓃹𓈖":2149,"▁𓇋𓋴":2150,"▁𓅓𓂝":2151,"▁TITL\r\n":2152,"▁hꜣ":2153,"▁Br":2154,"▁𓇋𓌳𓄪":2155,"ang":2156,"6|N":2157,"▁𓐍𓏏":2158,"▁Versorg":2159,"sb":2160,".wt":2161,"ben.\r\n":2162,"▁94700|rn":2163,"omäne":2164,"▁𓏎":2165,"90|ḥm":2166,"30|ꜥnḫ":2167,"▁𓎢\r\n":2168,"rch":2169,"ss":2170,"▁𓊪𓏲":2171,"▁88227":2172,"-wꜥ.tꞽ":2173,"\r\r\n":2174,"71":2175,";\r\n":2176,"ück":2177,"▁2329":2178,"▁38530|ꜥnḫ":2179,"81":2180,"Sch":2181,"tw":2182,"tʾ":2183,"▁𓊪𓅱":2184,"130|ꞽm.ꞽ":2185,"▁25130|ꞽm.ꞽ":2186,"einen":2187,"00|s":2188,"1|ꞽ":2189,"echt":2190,"▁werde":2191,"-ꞽ)ḫ(.t)":2192,"len":2193,"▁'":2194,"▁273":2195,"▁rʾ":2196,"20|s":2197,"-ḫrw":2198,"▁Nam":2199,"▁587":2200,"▁deinen":2201,"▁TOPN":2202,"▁V\\rel.f.sg":2203,"vor":2204,"▁𓊹𓊹𓊹":2205,"▁59920|pn":2206,"ägypten":2207,"▁𓄣":2208,"▁𓏇":2209,"▁972":2210,"▁𓊵𓏙":2211,"▁mꞽ":2212,"▁852":2213,"▁Neferkare":2214,"▁nn":2215,"orden":2216,"auf":2217,"▁gibt,":2218,"▁Gottes":2219,"▁27360|":2220,"Kꜣ":2221,"eben":2222,"550|":2223,"▁677":2224,"unde":2225,"▁(und)":2226,"immel":2227,"|ꜣ":2228,"▁sḏ":2229,"▁925":2230,"▁Haus":2231,"-ḥḏ":2232,"kommen":2233,"78":2234,"s)":2235,"▁Herz":2236,"▁ꜣḫ":2237,"▁𓇓𓏏𓂋𓐍":2238,"𓏏𓈖":2239,"▁tʾ":2240,"(w)t":2241,"a-":2242,"ḥw":2243,"ꜥr":2244,"▁662":2245,"fertig":2246,"▁eine":2247,"▁N.m:pl\r\n":2248,"▁𓆓𓌃":2249,"▁ꞽm(.ꞽ)":2250,"▁(Domäne":2251,"äch":2252,"▁ha":2253,"4320|":2254,"mr-wꜥ.tꞽ":2255,"-bꞽ.tꞽ":2256,"▁deinem":2257,"▁nfr-kꜣ-rꜥw":2258,"▁400330|Nfr-kꜣ-Rꜥw":2259,"-ꞽ)ḫ(.t)-nswt":2260,"▁V\\tam-":2261,"▁𓇋𓏲":2262,"▁Sein":2263,"r.w\r\n":2264,".yt":2265,"38|":2266,"89":2267,"▁𓏅":2268,"▁rꜥw":2269,"-mr":2270,"-ḥm":2271,"wi̯=f":2272,"▁V\\res-3":2273,"tm.w":2274,"opfer":2275,"är":2276,"▁war":2277,"te,":2278,"▁59740|":2279,"▁großen":2280,"ipf":2281,"▁Priester":2282,"10|m":2283,"-zꜣ=f":2284,"ni̯":2285,"▁𓄟":2286,"▁107":2287,"ge,":2288,".t-ḫrw":2289,"▁23290|ꞽb":2290,"ipfv":2291,"hp":2292,"𓈖𓐍":2293,"𓏏𓉐":2294,"▁8502":2295,"(ꞽ)\r\n":2296,"▁𓆓𓌃\r\n":2297,"▁V\\tam-pass":2298,"ꜣḥ":2299,"0|=ṯ":2300,"ter,":2301,"50|nb":2302,"-ꞽb":2303,"▁durch":2304,"▁𓍿𓈖":2305,"bn":2306,"ew":2307,"▁Himmel":2308,"▁4505":2309,"eg":2310,"𓄿𓏏":2311,"𓏤\r\n":2312,"▁ḥnꜥ":2313,"angen":2314,"eich":2315,"10|ḥr":2316,"alast":2317,"▁pri̯":2318,"060|":2319,"bb":2320,"▁𓄂":2321,"▁PREP-adjz:f.sg":2322,"hin":2323,"ṯꜣ":2324,"▁ḥꜣ":2325,"10|tʾ":2326,"40|hꜣ":2327,"lichen":2328,"▁107510|ḥr":2329,"-pr-ꜥꜣ":2330,"▁55002":2331,"mt.ꞽ-m":2332,"mt.ꞽ-m-zꜣ=f":2333,"▁Geh":2334,"ꜣb.t":2335,"870|ꞽn":2336,"▁26870|ꞽn":2337,"▁26870|ꞽni̯":2338,"lü":2339,"ler":2340,"▁Tet":2341,"|nb":2342,"mn.tꞽ":2343,"▁97240|hꜣ":2344,"bn.w":2345,"▁103":2346,".t-Ḥr.w":2347,"▁34320|":2348,"▁175":2349,"▁𓎛𓈖𓂝":2350,"▁78873":2351,"▁gibt:\r\n":2352,"▁34320|ꜥ":2353,"▁78873|n":2354,"mer":2355,"mi̯":2356,"u.\r\n":2357,"zw":2358,"ꜣꜥ":2359,"</g>\r\n":2360,"nm.w\r\n":2361,"▁59920|pn\r\n":2362,"▁Totenpriester":2363,"▁Königsvermögens":2364,"𓈖𓏌":2365,"▁pn\r\n":2366,"▁gr":2367,"▁64364":2368,"▁64364|m":2369,".act":2370,"hal":2371,"s.\r\n":2372,"▁um":2373,"ꞽ.t\r\n":2374,"80|mꞽ":2375,"etz":2376,"4340|":2377,"▁𓊪𓈖\r\n":2378,"00|ḥnꜥ":2379,"▁67780|mꞽ":2380,"-tꜣ":2381,"38":2382,"pw\r\n":2383,"ꜣ-ꜥ":2384,"40|m":2385,"▁Gr":2386,"tel":2387,"▁𓌸𓂋":2388,"▁49460|Wsꞽr":2389,"-H":2390,"egen":2391,"𓇋𓍺":2392,"▁99":2393,"▁St":2394,"▁Sei":2395,"▁ADV\r\n":2396,"▁𓌨𓂋":2397,"▁V\\ptcp.pass.m.sg":2398,"u̯":2399,"0|ꞽw":2400,"▁Es":2401,"mꜣꜥ":2402,"▁168810|tʾ":2403,"ek":2404,"t)":2405,"▁Q":2406,"echtfertig":2407,"-N":2408,"4550|":2409,"▁𓇉":2410,"▁4009":2411,"ḥ.w\r\n":2412,"▁Bro":2413,"▁komm":2414,"seher":2415,"ḫnt":2416,"▁266":2417,"-mḏ":2418,"▁3075":2419,"▁30750|ꞽ":2420,"▁𓐙":2421,"▁nimm":2422,"▁zum":2423,"ꜥꜣ":2424,"▁Palast":2425,"▁32":2426,"▁Horusau":2427,"-zẖꜣ.w":2428,"▁𓇓𓏏𓈖":2429,"▁81650|nb":2430,"▁so":2431,"es)":2432,"▁Seine":2433,"10|w":2434,"▁Gef":2435,"wi̯=f-w":2436,"54":2437,"üt":2438,"𓆑\r\n":2439,"70|mꜣ":2440,"56|":2441,"80|ꞽ":2442,"Rꜥw\r\n":2443,"ige":2444,"𓊹𓍛":2445,"en\r\n":2446,"ing":2447,"▁n.t":2448,"▁wꜥb":2449,"▁1103":2450,"▁V\\res-2sg.m":2451,"▁400015|":2452,"ri̯":2453,"ḏw":2454,"▁𓇾":2455,"▁nach":2456,"es.\r\n":2457,"▁ꞽnp.w":2458,"-nb=f":2459,".ꞽ-tp":2460,"efer":2461,"i\r\n":2462,"𓂋𓅱":2463,"▁𓍹𓏏𓏏":2464,"▁4500":2465,"▁Anubis,":2466,"▁𓍹𓏏𓏏𓇋𓍺":2467,"\\advz":2468,"si̯":2469,"zi̯":2470,"▁𓏠𓈖":2471,"erechtfertig":2472,"▁PREP\\advz":2473,"▁ꞽꜣ":2474,"▁𓇋𓏏":2475,"-kꜣ\r\n":2476,"▁𓇓𓅱":2477,"▁Ich":2478,"66|m":2479,"640|ꞽm":2480,"▁V\\rel.m.sg-ant":2481,"▁24640|ꞽm":2482,"Kꜣ=ꞽ":2483,".c":2484,"m.t":2485,"𓊪𓏏":2486,".ꞽ-ḥ":2487,"▁8507":2488,"0|ꞽr.t-Ḥr.w":2489,"▁Fr":2490,"▁2841":2491,"740|ꞽr.ꞽ":2492,"▁-1sg\r\n":2493,"▁10030|=ꞽ\r\n":2494,"▁95740|ꞽr.ꞽ":2495,"▁28410|ꞽr.t-Ḥr.w":2496,"▁95740|ꞽr.ꞽ-ꞽḫ.t-nswt":2497,"dist":2498,"▁𓌢":2499,"𓇋𓈖":2500,"▁851":2501,"0</g>":2502,"46":2503,"d.t":2504,"ꞽm.ꞽ-rʾ":2505,"▁ꞽs":2506,".ꞽn":2507,"▁wn":2508,"▁wḏ":2509,"▁hin":2510,"▁geb":2511,"msi̯":2512,"ꜥi̯":2513,"▁=ꞽ\r\n":2514,"-nṯr-ꜥꜣ":2515,"▁2817":2516,"tier":2517,"▁27360|Ꞽnp.w":2518,"▁28170|ꞽr":2519,"Ḥw.t-":2520,"▁Ab":2521,"▁854":2522,"▁𓂋𓏤":2523,"▁schön":2524,"▁Leiter":2525,"ḥb":2526,"▁Sen":2527,"▁Ma":2528,"itze":2529,"0940|":2530,"8|rḏi̯":2531,"▁64366|m":2532,"▁550028|rḏi̯":2533,"300|":2534,"gs":2535,"hor":2536,"ḫpr":2537,"68":2538,"heit":2539,"▁𓍯":2540,"𓂧𓏏":2541,"▁𓌇":2542,"𓏤𓏤":2543,".wꞽ":2544,"šm-nfr\r\n":2545,"▁Unas,":2546,"d\r\n":2547,"auch":2548,"-ḥw.t-":2549,"▁1062":2550,"60|ꞽ":2551,"äß":2552,"ṯi̯":2553,"▁𓏃":2554,"▁1112":2555,"(m":2556,"|ḥr":2557,"Ḥtp":2558,"▁sei":2559,"▁Herrn":2560,"sḥḏ":2561,"tꞽ\r\n":2562,"▁703":2563,"ungen":2564,"▁𓋴𓏏":2565,"<g>O":2566,"32":2567,"▁𓎼":2568,"▁am":2569,"▁Hü":2570,"eth":2571,"▁indem":2572,"▁wirst":2573,"dig":2574,"▁sḥḏ":2575,"▁Taus":2576,"▁Fre":2577,"▁Namen":2578,"▁wur":2579,"30|w":2580,"▁pw\r\n":2581,"▁64410|m":2582,"▁Aufseher":2583,"▁58710|":2584,"▁Teti":2585,"rel":2586,"ṯn":2587,"𓃀𓏏":2588,"sg.c":2589,"▁Hat":2590,".t-pr":2591,"-nṯr-":2592,"▁30750|ꞽḫ.t":2593,"C</g>":2594,".m.pl":2595,"▁ges":2596,"▁Re":2597,"▁𓊪𓏏𓇯":2598,"-ka":2599,"pꜣ":2600,"▁𓌂":2601,"ꜥ.w":2602,"▁N.f:du":2603,"▁Hetep":2604,"-ḫrw\r\n":2605,"20|=ṯ":2606,"ḥ.t":2607,"▁𓄡":2608,"▁10120|=ṯ":2609,"▁Nek":2610,"▁-2sg.f":2611,"▁V\\tam.act-c":2612,"▁N.m:du:stpr":2613,"agen":2614,"▁𓊢𓂝":2615,"▁worden":2616,"▁bꜣ":2617,"▁gege":2618,"▁PREP-adjz:m.pl":2619,"67|":2620,"▁nṯr.PL":2621,"mꜥ.w\r\n":2622,"37":2623,"60|ꞽn":2624,"hl":2625,"keit":2626,"▁155":2627,".t-ꞽ":2628,"▁einer":2629,"▁einen":2630,"▁šs":2631,"▁450656|":2632,"▁66270|mꜣ":2633,"▁Nekro":2634,"▁450656|T":2635,"d.w":2636,"zẖꜣ.w":2637,"𓏌𓏌":2638,"▁105":2639,"▁da":2640,".ꞽ-sš":2641,"▁wꜣḏ":2642,"▁10130|=":2643,"▁-2pl":2644,"(ꜣ)b":2645,"▁Neith,":2646,"-zḥ-nṯr\r\n":2647,"ꜣ-ꜥ\r\n":2648,"sr\r\n":2649,"wei":2650,"𓆑𓂋":2651,"(.w)\r\n":2652,".y\r\n":2653,"▁550034":2654,"▁Spitze":2655,"▁Tausend":2656,"▁550034|nfr":2657,"y\r\n":2658,"𓂧𓈖":2659,"▁40009":2660,"<g>P":2661,"▁seines":2662,"ḫrp":2663,"▁106200|ḥnꜥ":2664,"ki̯":2665,"𓀀\r\n":2666,"▁Gel":2667,"-wr\r\n":2668,"nḫ.t":2669,"▁26660|ꞽn":2670,"šs":2671,"ḫn":2672,"▁U":2673,"▁N\r\n":2674,"▁Ges":2675,"▁𓀀\r\n":2676,"▁ḫrp":2677,"▁66270|mꜣꜣ":2678,"St":2679,"lan":2680,"▁ent":2681,"▁Gut":2682,"eln":2683,"▁ḏi̯":2684,"▁Bier":2685,"ütz":2686,"▁110300|ḥ":2687,"▁𓈞":2688,"▁fr":2689,"▁ḫpr":2690,"70|m":2691,"820|ꞽ":2692,"▁Schreiber":2693,"▁(Domäne).\r\n":2694,"gt":2695,"se":2696,"äl":2697,"𓈖𓈖":2698,"▁Va":2699,"▁724":2700,"▁Geb":2701,"070|":2702,"itz":2703,"▁Totenopfer":2704,"▁leben":2705,"pole":2706,"92":2707,"kr":2708,"uß":2709,"▁o":2710,"30|n":2711,"▁Mund":2712,"-nswt\r\n":2713,"▁Fest":2714,"ḥm.t":2715,"▁Nekropole":2716,"y.t":2717,"60|rʾ":2718,"65|m":2719,"▁92560|rʾ":2720,"=ꞽ\r\n":2721,"▁𓇋𓏶":2722,".tꞽ-ꜥ":2723,"82|m":2724,"eschem":2725,"▁168860|":2726,"▁wurde":2727,"n)":2728,"▁472":2729,"▁705":2730,"▁200":2731,"▁gesch":2732,"▁Wass":2733,"▁V\\ptcp.act.f.sg":2734,"▁64365|m":2735,"▁𓂜𓈖":2736,"▁(ꞽ)r(.ꞽ-ꞽ)ḫ(.t)-nswt":2737,"38|pr":2738,"▁850238|pr":2739,",\r\n":2740,"-h":2741,"𓊵𓏏𓊪":2742,"▁104":2743,"▁400082|m":2744,"02|r":2745,"▁Land":2746,"▁Sohn,":2747,"▁𓌳𓁹":2748,"▁=ṯn":2749,"▁32820|ꞽ":2750,"▁110300|ḥnq.t":2751,"𓂋𓈖":2752,"▁65":2753,"▁678":2754,"▁8503":2755,".t-ḥ":2756,"-ḥr.w":2757,"03|r":2758,"▁zur":2759,"20|rn":2760,"▁Al":2761,"▁ḫnt.ꞽ":2762,"▁hast":2763,"ehen":2764,"49|":2765,"▁91902|r":2766,"▁91903|r":2767,"hrw":2768,"▁Arm":2769,"▁Freund":2770,"|ꜣḫ":2771,"ḏ.t":2772,"▁21":2773,"▁zẖꜣ.w":2774,"74|n":2775,"(=ꞽ)\r\n":2776,"▁𓇋𓌳𓄪𓐍𓅱":2777,"ägyptens\r\n":2778,".ꞽ-sštꜣ":2779,"▁32820|ꞽtꞽ":2780,"bei":2781,"zꞽ":2782,"▁ab":2783,"70|s":2784,"ammen":2785,"2|s":2786,"▁Königs,":2787,"▁1049":2788,"▁𓋹𓈖𓐍":2789,"zn":2790,"▁𓏶":2791,"𓆱𓐍𓏏":2792,"ieden":2793,"10|g":2794,"70|mr":2795,"▁Mann":2796,"▁ttꞽ":2797,"▁kann":2798,"▁78874|n":2799,"▁<g>G":2800,"▁leb":2801,"▁450656|Ttꞽ":2802,"590|":2803,"▁40014":2804,"80|ẖ":2805,"-ꞽr":2806,"▁tr":2807,"▁hat.\r\n":2808,"UX":2809,"ꜥḥ":2810,"▁sḫ":2811,"einig":2812,"▁AUX":2813,"als":2814,"et\r\n":2815,"▁ꜥꜣ":2816,"-ḫnt":2817,"▁Leben":2818,"▁V\\inf\r\n":2819,"▁ḫnt(.ꞽ)":2820,"▁72470|mr":2821,"▁72470|mri̯":2822,"=s\r\n":2823,"nsv":2824,"wnn":2825,"▁𓄔":2826,"▁𓏊":2827,"𓈙𓏏":2828,"▁203":2829,"▁𓇋𓊪":2830,"te.\r\n":2831,"et.\r\n":2832,"▁Wer":2833,"enn)":2834,"▁850238|pr.t-ḫrw":2835,"-S":2836,":sg":2837,"𓅓𓂋":2838,"▁N:sg":2839,"usammen":2840,"6|S":2841,"-ꜥnḫ\r\n":2842,"12|":2843,"▁𓂖":2844,"en)":2845,"0|ꞽmꜣḫ.w":2846,"▁282":2847,"▁667":2848,"<g>M":2849,"▁sollst":2850,"lügel":2851,"260|":2852,"-nefer":2853,"ort":2854,"emti":2855,"▁1571":2856,"▁(des":2857,"▁=3sg.f":2858,"▁V\\tam.act-cnsv":2859,"lv":2860,"▁86":2861,"▁84550|":2862,"▁𓈖𓉔":2863,"▁rḫ":2864,"▁Kai-":2865,"▁V~ipfv":2866,"▁V\\rel.f.sg-ant":2867,"48":2868,"96":2869,"ges":2870,"n.w\r\n":2871,"▁𓉻":2872,"𓂝𓏏":2873,"𓋴\r\n":2874,"▁doch":2875,"st,":2876,"ingen":2877,"▁wsꞽr":2878,"▁Seth":2879,"▁Ach":2880,"90|s":2881,"2|ḥr":2882,"▁Gelieb":2883,"▁84550|nn":2884,"-q":2885,"n.tꞽ":2886,"▁𓂋𓏙":2887,"▁p.t":2888,"80|s":2889,"▁58710|p.t":2890,"▁Wasser":2891,")\r\n":2892,"-p":2893,"020|":2894,"57":2895,"50|ꞽr":2896,"so":2897,"▁e":2898,"▁70":2899,"<g>W":2900,"▁4503":2901,"▁ꞽr(.t)":2902,"-nbw\r\n":2903,"▁ḥm-kꜣ":2904,"8520|":2905,"ffn":2906,"oblv":2907,"-Priester":2908,"▁400015|Rꜥw":2909,"▁400092|ḥr":2910,"▁AUX:stpr":2911,"▁28250|ꞽr":2912,".ḫr":2913,".t.PL":2914,"10|ꜥḥꜥ":2915,"70|n":2916,"▁einem":2917,"𓇋𓇋𓏏":2918,"▁nṯr(.ꞽ)":2919,"▁je":2920,"▁Jung":2921,"halle":2922,"-zẖꜣ.ww":2923,"▁104990|ḥm":2924,"▁V~ipfv.act":2925,"ger":2926,"tḥ":2927,"Öl":2928,"▁713":2929,"09|":2930,"▁𓆓𓏏":2931,"▁𓁹𓏏":2932,"▁90260|nṯr\r\n":2933,"▁94720|rn":2934,"▁V\\tam.act-oblv":2935,"▁10130|=ṯn":2936,"i,":2937,"üß":2938,"ṯ\r\n":2939,"𓆑𓍺":2940,"𓐍𓅓":2941,".w.PL":2942,"▁(Un":2943,"▁Dein":2944,"60|s":2945,"▁Wunde":2946,"▁gegen":2947,"▁beim":2948,"sḏ.t":2949,"▁1256":2950,"-tꜣ-ḏ":2951,"Stẖ":2952,"dung":2953,"ḏr":2954,"eiß":2955,"gef":2956,"▁Hand":2957,"<g>A":2958,"arauf":2959,"4950|":2960,"▁Gott,":2961,"▁Osiris,":2962,"▁40110|ꜥḥꜥ":2963,"▁ꞽyi̯":2964,"jer\r\n":2965,"▁Vater":2966,"▁Jungtier":2967,"ron":2968,"zꜣ.t":2969,"▁man":2970,"▁(E":2971,"-n-nswt":2972,"5|D":2973,"▁ḥm-nṯr":2974,".t-ḫrw\r\n":2975,"▁104990|ḥm-kꜣ":2976,"▁V\\tam.act-oblv:stpr":2977,"10|ꞽ":2978,"200|":2979,"36":2980,"76":2981,"tah":2982,"▁𓋴𓌉":2983,"▁Be":2984,"▁𓊪𓅱\r\n":2985,"▁<g>D":2986,"hnum":2987,"▁Versorgte":2988,"fl":2989,"kl":2990,"zu":2991,"ḫb":2992,"▁𓌻":2993,"▁dn\r\n":2994,"chen":2995,"▁(es)":2996,"▁Den\r\n":2997,"▁ḥꜣ.t":2998,"▁𓋴𓍋":2999,"20|mꞽ":3000,"29|ḥr":3001,"sꞽr\r\n":3002,"▁𓅨𓂋𓏏":3003,"▁N.f:pl:stpr":3004,"▁Großen":3005,"▁882275|D":3006,"▁882275|Dn\r\n":3007,"86":3008,"ken":3009,"ri":3010,"𓁷𓂋":3011,"▁mir":3012,"▁ꞽwi̯":3013,"anl":3014,"▁781":3015,"▁116230|":3016,":f.pl":3017,"▁28250|ꞽr.t":3018,"▁116230|ḫpr":3019,"af":3020,"nr":3021,"n.t\r\n":3022,"▁𓆣":3023,"𓏏𓏭":3024,"▁Nemti":3025,"▁ꞽr.t":3026,"▁64440|m":3027,"▁𓄋":3028,"▁𓇗":3029,"Ꜣb":3030,"▁𓅓𓏏":3031,"|mr":3032,"▁zusammen":3033,"▁best":3034,"▁dass":3035,"0560|":3036,"▁148520|":3037,"▁Herrin":3038,"▁𓄣𓏤":3039,"wi̯=f-wꞽ":3040,"▁148520|Stẖ":3041,"207":3042,"▁147":3043,"▁74950|":3044,"▁𓋴𓌮":3045,"▁1115":3046,"▁eines":3047,"▁𓉘𓂧𓈖":3048,"ägypten,":3049,"▁Bru":3050,"▁74950|msi̯":3051,"▁𓉘𓂧𓈖𓊂\r\n":3052,"-Rꜥw\r\n":3053,"83":3054,"930|":3055,"bꜥ":3056,"opf":3057,"▁𓇬":3058,"𓊤︂":3059,"▁mein":3060,"▁ꞽmꜣḫ.w-ḫr":3061,"▁700":3062,"10|n":3063,"▁es,":3064,"20|rḫ":3065,"les":3066,"t-ꞽḫ.t-nswt":3067,"šn":3068,"▁𓅬":3069,"▁𓍛":3070,"𓍘𓇋":3071,"𓐍𓏛":3072,"▁Deine":3073,"▁ḥw.t-":3074,"▁711":3075,"-rn":3076,"w.t-nbw\r\n":3077,"-nb.tꞽ\r\n":3078,"▁ꜣpd":3079,"▁-3pl\r\n":3080,"▁10100|=sn\r\n":3081,"▁𓏙𓊵":3082,"▁rḏi̯.n":3083,"▁sagte":3084,"|ꜣpd":3085,"▁59740|pw\r\n":3086,"▁107|ꜣpd":3087,"▁1046":3088,"▁400142|s":3089,".\"\r\n":3090,"aft":3091,"▁𓃛":3092,"𓂓\r\n":3093,"enk":3094,"inder":3095,"▁ꞽmꜣḫ.w":3096,"▁709":3097,"▁2509":3098,"▁9575":3099,"0|ꞽr.ꞽt-ꞽḫ.t-nswt":3100,"▁67820|mꞽ":3101,"▁400142|smr-wꜥ.tꞽ":3102,"▁95750|ꞽr.ꞽt-ꞽḫ.t-nswt":3103,"w.t\r\n":3104,"ḫsf":3105,"𓂧𓅱":3106,"erst":3107,"▁dann":3108,"▁ꞽp":3109,"4750|":3110,"▁107529|ḥr":3111,"-ẖ.t\r\n":3112,"010|z":3113,"▁125010|z":3114,"04|r":3115,"▁hervor":3116,"glich":3117,"von":3118,"▁𓅿":3119,"▁𓏞":3120,"▁Seschem":3121,"▁𓋴𓂧":3122,"50|mꜣꜥ":3123,"▁ḫsf":3124,"et-":3125,"-rꜥw\r\n":3126,"atz":3127,"175|":3128,"▁=sn\r\n":3129,"▁lei":3130,"▁V\\res-3sg.f":3131,"▁66750|mꜣꜥ":3132,")t":3133,"-em":3134,"59":3135,"Fest":3136,"he,":3137,"𓄣\r\n":3138,"𓆓\r\n":3139,".t-kꜣ":3140,"▁4504":3141,"ꜣ.t.PL":3142,"4760|":3143,"ꜣb-s":3144,"▁91904|r":3145,"▁Schl":3146,"010|G":3147,"▁167010|G":3148,"▁Brot,":3149,"-)":3150,"mwt":3151,"ses":3152,"𓁐\r\n":3153,"𓅱𓍺":3154,"▁sḫm":3155,"▁ḥnq.t":3156,"▁8508":3157,"40|s":3158,"▁gem":3159,"-ꞽmn.tꞽ":3160,"edj":3161,"$-Sch":3162,"sḏm":3163,"▁ꜥḥꜥ.n":3164,"▁Mögest":3165,"▁203|ꜣḫ":3166,"350|":3167,"p.w\r\n":3168,"uf":3169,"𓅆\r\n":3170,"▁40026":3171,"▁22":3172,"▁zꜣ.t":3173,"-m-ꜥnḫ\r\n":3174,"150|ꞽr":3175,"881|ꞽ":3176,"▁28150|ꞽr":3177,"▁𓍹𓇳𓌸":3178,"+(ꞽ":3179,"▁21881|ꞽ":3180,"▁21881|ꞽw":3181,"bḥ":3182,"ke":3183,"zm":3184,"𓇿\r\n":3185,"▁m(w)t":3186,"▁wenn":3187,"▁Da":3188,"▁8505":3189,"▁8544":3190,"▁Wenn":3191,"▁1814":3192,"𓇋𓇋\r\n":3193,"▁119260|":3194,"▁Verwalterin":3195,"-ḥm.w":3196,"▁25090|ꞽmꜣḫ.w":3197,"▁119260|ḫnt.ꞽ":3198,"gangen":3199,"he":3200,"Ꞽy":3201,"𓀀𓁐":3202,"𓆑𓏏":3203,"er.\r\n":3204,"▁wt":3205,"▁𓇋𓄿":3206,"igen":3207,"▁bin":3208,"19|":3209,"ell":3210,"▁ꞽri̯.t":3211,"▁mri̯":3212,"šmi̯":3213,"▁PRON":3214,"▁V\\res-3sg.m\r\n":3215,"▁𓄤𓆑𓂋":3216,"▁(w)sꞽr":3217,"ꜥḥꜥ.n":3218,"▁𓌳𓁹𓄿":3219,"her":3220,"𓄤\r\n":3221,"▁m-ꜥ":3222,"30|r":3223,"▁Was":3224,"ten,":3225,"▁qr":3226,"▁ḏd.ꞽn":3227,"3940|":3228,"▁𓆓𓂧𓇋𓈖":3229,"▁40111|":3230,"▁𓊢𓂝𓈖":3231,"▁Gesicht":3232,"araufhin":3233,"▁40111|ꜥḥꜥ.n":3234,"61|":3235,"?\r\n":3236,"𓅓𓏏":3237,"𓆤𓏏":3238,"𓈐𓈐":3239,"▁sehr":3240,"01|":3241,".tꞽt":3242,"▁Wei":3243,"▁In":3244,"▁ꞽmn.t":3245,"▁𓉐𓉻":3246,"▁956":3247,"▁ẖr(.ꞽ)":3248,"-ẖnw":3249,"qrs":3250,"ächtig":3251,"▁gegeben":3252,"207</g>":3253,"Nb":3254,"dr":3255,"pel":3256,"öffn":3257,"𓃀\r\n":3258,"𓅓𓎃":3259,"𓇑𓇑":3260,"▁46050|":3261,"▁mn":3262,"▁ꞽm.ꞽ":3263,"▁Dj":3264,"▁903":3265,"60|tp":3266,"▁33":3267,"-anch":3268,"ẖr.ꞽ-ḥ":3269,"▁𓎟𓏏":3270,"▁𓅓𓂋𓉐":3271,"▁Bier,":3272,"-em-z":3273,"šr":3274,"▁𓅠":3275,"55|":3276,"60|m":3277,"▁gew":3278,"ten.\r\n":3279,"▁150560|":3280,"▁ꞽmi̯":3281,"▁𓁹𓅃":3282,"▁kꜣ(=ꞽ)":3283,"▁Große":3284,"▁46050|wnn":3285,"▁150560|sḏm":3286,"16|N":3287,"900|":3288,"hy":3289,"hei":3290,"iz":3291,"▁𓀗":3292,"𓅇𓅓𓎃":3293,"▁nmt.ꞽ-m-zꜣ=f":3294,"▁515":3295,"1|Ḏ":3296,"▁be":3297,"▁𓍹𓅇𓅓𓎃":3298,"▁(ꞽ)ḫ.t":3299,"271|":3300,"▁mr.n":3301,"▁401175|":3302,"▁Meren":3303,"Mr.n":3304,"▁ꞽt(ꞽ)":3305,"a-ef":3306,"𓂋𓈖𓍺":3307,"▁𓍹𓇳𓌸𓂋𓈖𓍺":3308,"▁854416|N":3309,"▁𓍹𓅇𓅓𓎃𓆑𓍺":3310,"▁401175|Mr.n":3311,"▁854416|Nmt.ꞽ-m-zꜣ=f":3312,"mann":3313,"ꜣs":3314,"𓂓𓂓":3315,"▁smr-wꜥ.tꞽ":3316,"10|ḫr":3317,"70|wr":3318,"▁einz":3319,"9850|":3320,"▁ꞽri̯.n":3321,".ꞽ-ḏw":3322,"▁1672":3323,"-ḥḏ\r\n":3324,"-H̱":3325,"▁Nemti-em-z":3326,"▁Nemti-em-za-ef":3327,"▁102":3328,"▁109":3329,"ens":3330,"▁47":3331,"▁(n":3332,"▁704":3333,"ptcp.dist":3334,"▁nb-":3335,"▁𓊃𓀀":3336,"▁jen":3337,"▁V~ptcp.dist":3338,"|nb-":3339,"▁Geflügel":3340,"▁V~ptcp.distr":3341,"'.\r\n":3342,"20|ꞽ":3343,"58|":3344,"▁𓏐":3345,"▁nhp":3346,"▁Tag":3347,"▁Sta":3348,"tern":3349,"etw":3350,"▁4507":3351,"-wꞽꜣ":3352,"▁Lang":3353,"▁𓋴𓈖𓏥":3354,"nḏm":3355,"0|ꞽmi̯":3356,"svoll":3357,"▁(ꞽ)r(.ꞽt":3358,"▁hat,":3359,"▁168860|tꜣ":3360,"10|gmi̯":3361,"▁𓈖𓉔𓊪":3362,"▁167210|gmi̯":3363,"iden":3364,"k\r\n":3365,"lo":3366,"s.w":3367,"𓈇𓏤":3368,"▁108":3369,"m.n":3370,"▁Sach":3371,"▁Ak":3372,"<g>G":3373,"▁pf":3374,"▁1220":3375,"▁Mut":3376,"▁gekomm":3377,"▁451":3378,"▁1421":3379,"▁119590|":3380,"▁jed":3381,"▁𓌃𓆓\r\n":3382,"𓈖𓏌𓏲":3383,"▁Hüter":3384,"▁122080|ẖ":3385,"▁119590|ḫr":3386,"f.t":3387,"sie":3388,"wꜥ":3389,"𓀀𓏥":3390,"▁87":3391,"▁Djer\r\n":3392,"ieder":3393,"60|š":3394,"60|ḥtp":3395,"▁335":3396,"▁ḏr\r\n":3397,"▁ihre":3398,"▁fol":3399,"▁154760|":3400,"▁veranl":3401,"-bꜣḥ":3402,"▁69300|":3403,"▁59740|pw":3404,"▁45190|w":3405,"▁154760|Š":3406,"▁69300|mwt":3407,"epriester":3408,"rw":3409,"z.t":3410,"ḫft":3411,"𓇦𓂋":3412,"𓈒𓏥":3413,"▁N:pl":3414,"▁4005":3415,"▁(P":3416,"▁Th":3417,"▁At":3418,"10|š":3419,"1940|":3420,"▁Wab":3421,"▁Men":3422,"▁1708":3423,"▁𓇓𓏲":3424,"▁88228":3425,"▁ꞽni̯":3426,"▁Vorles":3427,"▁dieses":3428,"urch":3429,"wꜣḏ":3430,"<g>D77":3431,"▁𓊪𓏏𓎛":3432,"10|wdi̯":3433,"-tꜣ-ḏsr\r\n":3434,"▁(Es)":3435,"-rnp.t":3436,"▁51510|wdi̯":3437,"▁mr.n-rꜥw":3438,"▁401175|Mr.n-Rꜥw":3439,"▁Vorlesepriester":3440,"𓈎𓂝":3441,"▁wbn.w":3442,"elt":3443,"▁Horus,":3444,"▁𓁹𓏏𓏤":3445,"▁𓏏𓏲":3446,"▁Erde":3447,"040|m":3448,"2840|":3449,"▁𓈎𓂋":3450,"▁N-adjz:m.sg":3451,"1|Ḏr\r\n":3452,"▁882281|Ḏr\r\n":3453,".(w)t":3454,"030|":3455,"14|":3456,"bk":3457,"dwi̯":3458,"▁em":3459,"𓏌𓏲":3460,"𓏏𓈉":3461,"▁wnn":3462,"iefer":3463,"▁2sg.m":3464,"▁𓇋𓂝":3465,"▁𓋴𓎡":3466,"ḥm-nṯr-":3467,"$-B":3468,"▁Chent":3469,"𓐍𓂋𓊹":3470,"ffen":3471,"▁𓈎𓄿":3472,"6950|":3473,"eute":3474,"▁V\\tam-pass:stpr":3475,"60|ꞽṯi̯":3476,"▁V~ipfv.act:stpr":3477,"▁𓌻𓂋":3478,"▁95620|rḫ":3479,"▁90360|nṯr":3480,"▁33560|ꞽṯi̯":3481,"▁Wab-Priester":3482,"bel":3483,"dn":3484,"fꜣ":3485,"pp":3486,"▁𓈗":3487,"𓏛\r\n":3488,"▁dau":3489,"▁(S":3490,"▁ḫft":3491,"▁129":3492,"etjer":3493,"▁Wür":3494,"▁1701":3495,"▁𓐍𓈖":3496,"▁𓁹𓈖":3497,"▁=2sg.m\r\n":3498,"▁107500|Ḥr.w\r\n":3499,"▁(Denn)":3500,"▁Qa":3501,"▁Horusauge":3502,"▁122080|ẖ.t":3503,"▁45190|wbn.w":3504,"750|":3505,"such":3506,"wr.t":3507,"▁Pat":3508,"▁smr":3509,"▁mich":3510,"▁𓋴𓌂":3511,"nꞽ\r\n":3512,"▁nb.t":3513,"086|S":3514,"▁1196":3515,"▁707086|S":3516,"iener":3517,"▁Horusauge,":3518,"▁Merenre":3519,"(n)":3520,"93":3521,"az":3522,"jest":3523,"tꜣ\r\n":3524,"ḏꞽ":3525,"▁𓂻":3526,"▁𓊿":3527,"▁sꜣ":3528,"▁933":3529,"▁8513":3530,"40|zꞽ":3531,"▁Gerechtfertig":3532,"▁bis":3533,"▁gerechtfertig":3534,"02|":3535,"▁V\\ptcp.act.m.pl":3536,"▁diesem":3537,"▁127740|zꞽ":3538,"▁Gotteshalle":3539,"ḥw.tꞽ":3540,"▁haben":3541,"▁85430|n":3542,"▁Majest":3543,"▁lebensvoll":3544,"▁V\\rel.f.sg-ant:stpr":3545,"izon":3546,"▁85430|nhp":3547,"180|":3548,"ht":3549,"md":3550,"p.t\r\n":3551,"▁/":3552,"▁𓊄":3553,"𓅐𓏏":3554,"𓆑𓅱𓍺":3555,"eimn":3556,"40|w":3557,"30|ḥtp":3558,"▁pꜣ":3559,"-ꜥꜣ\r\n":3560,"-ꜥ-n-nswt":3561,"▁ꞽm\r\n":3562,"▁𓇋𓅓\r\n":3563,"▁stš":3564,"ochen":3565,"▁69040|m":3566,"▁ẖ.t":3567,"▁𓏇𓇋":3568,"▁PREP\\advz\r\n":3569,"▁24640|ꞽm\r\n":3570,"ḥb.t":3571,"▁𓏃𓏏":3572,"▁111230|ḥtp":3573,"(m)":3574,"▁𓋴𓏏𓈙":3575,"▁104690|ḥm":3576,"-H̱nm.w\r\n":3577,"eimnis":3578,"40":3579,"det":3580,"e)":3581,"hen":3582,"kw":3583,"q.t":3584,"sp":3585,"spr":3586,"▁1sg":3587,"▁467":3588,"▁wpi̯":3589,"▁Dann":3590,"all":3591,"▁das,":3592,"▁136230|":3593,"47|":3594,"(.t)\r\n":3595,"▁ꞽnk":3596,"schreiber":3597,"-nb\r\n":3598,"▁ḥtp-ḏꞽ":3599,"▁Che":3600,"tm.w-nṯr":3601,"▁𓄔𓅓":3602,"▁jeder":3603,"<g>D77</g>":3604,"▁136230|sn":3605,"bꞽ":3606,"ex":3607,"kn":3608,"mṯ":3609,"ut.\r\n":3610,"▁𓎗":3611,"𓌡𓏏𓏤":3612,"𓎟𓆑":3613,".t(ꞽ)":3614,"▁444":3615,"▁1006":3616,"▁73940|":3617,"▁𓇋𓁹":3618,"▁Kopf":3619,"07|":3620,"-wḏ":3621,"▁ḥr(.ꞽ)":3622,"940|ꞽn":3623,"aba":3624,"▁Augen":3625,"▁27940|ꞽn":3626,"▁Geheimnis":3627,"▁𓊃𓀀𓏤":3628,"▁69040|mw.t":3629,"▁73940|M":3630,"▁27940|ꞽnk":3631,".rel":3632,"Wꜣḏ":3633,"b)":3634,"gler":3635,"i-n":3636,"▁ꞽm.ꞽ-rʾ":3637,"▁wo":3638,"▁wegen":3639,"▁Daraufhin":3640,"0|ꞽn.w":3641,"▁602":3642,"▁Kr":3643,"▁Kam":3644,"▁br":3645,"frieden":3646,"▁ger":3647,"ḥr)":3648,"ten)":3649,"▁156950|":3650,"4730|":3651,"▁deiner":3652,"ꜣb-":3653,"▁161940|":3654,"▁𓊨𓏏":3655,"118":3656,"▁𓅭𓏏":3657,"+(ḥr)":3658,"▁Ober-":3659,"𓐍𓅱𓆑𓅱𓍺":3660,"000|m":3661,"▁sḏm":3662,".ꞽ-tp-nswt":3663,"ꜣb-sd\r\n":3664,"▁PRON.rel":3665,"▁Majestät":3666,"▁161940|qrs":3667,"Chnum":3668,"tn":3669,"ühr":3670,"ẖꜣ":3671,"𓇋𓏏":3672,"𓇓𓏏":3673,"𓏭\r\n":3674,"▁Toch":3675,"90|ḥ":3676,"▁Kn":3677,"▁124340|":3678,"70|sꞽ":3679,"den,":3680,"attet":3681,"-kꜣ(=ꞽ)\r\n":3682,"▁Rind":3683,"▁𓉘𓊹":3684,"ib.\r\n":3685,"▁104730|":3686,"-ẖnm.w\r\n":3687,"20|rꜥw":3688,"▁ADJ:f.sg\r\n":3689,"▁𓁶𓏤":3690,"▁𓏅𓏏":3691,"10|wnm":3692,"▁nachdem":3693,"klär":3694,"▁Langhor":3695,"▁93320|rꜥw":3696,"▁46710|wnm":3697,"▁124340|ẖr.ꞽ-ḥ":3698,"-sn":3699,"-ꜣḫ":3700,"78|":3701,"fest":3702,"mdw":3703,"qs":3704,"ḏ.w\r\n":3705,"ḫ.t\r\n":3706,"▁𓇶":3707,"▁𓋾":3708,"𓄡𓊂\r\n":3709,"sten":3710,"00|p":3711,"60|z":3712,"40|r":3713,"<g>Q":3714,"2|ꞽ":3715,"▁dir.\r\n":3716,"ti\r\n":3717,"▁𓅱𓂝":3718,"▁1251":3719,"mꜥ.w":3720,"▁157160|š":3721,"▁ꞽr(.t)-ḥr.w":3722,"▁71170|m":3723,"▁2216":3724,"abaster":3725,"▁156950|šs":3726,"Chnum\r\n":3727,"▁157160|šzp":3728,"84":3729,"fte":3730,"u,":3731,"▁𓂞":3732,"▁𓄞":3733,"▁𓎸":3734,"▁sr":3735,"▁mach":3736,"▁wꜥ":3737,"▁weiß":3738,"0|ꞽp":3739,"au,":3740,"▁1207":3741,"▁sein.\r\n":3742,"80|ḥm":3743,"80|wr":3744,"▁ausg":3745,"▁𓅃\r\n":3746,"▁N.m:pl:stc":3747,"▁𓍿𓊃":3748,"schen":3749,"▁ḥm.t":3750,"▁Anch":3751,"▁2615":3752,"▁ihren":3753,"▁81660|nb\r\n":3754,"▁2704":3755,"▁170860|tp":3756,"▁104730|ḥm.t":3757,"haus":3758,"mit":3759,"ul":3760,"zen":3761,"ꜣg":3762,"ꜣm":3763,"𓋹\r\n":3764,"▁nw":3765,"ess":3766,"▁𓇋𓍯":3767,"▁𓋴𓃀":3768,"▁8506":3769,"▁Klei":3770,"80|m":3771,"den.\r\n":3772,"estlichen":3773,"▁dir,":3774,"050|ṯ":3775,"040|Ꞽ":3776,"▁(ꞽ)m(.ꞽ)-rʾ-pr":3777,"▁127770|sꞽ":3778,"▁𓄂𓂝":3779,"▁N.f:du:stpr":3780,"▁(Und)":3781,"tm.w-nṯr-wꞽꜣ":3782,"-pt":3783,"-ḏi̯":3784,"130|":3785,"ak":3786,"age":3787,"▁𓍋":3788,"▁𓍱":3789,"▁n.ꞽ":3790,"▁sp":3791,"tamen":3792,"▁ḥqꜣ":3793,"▁-3sg.c":3794,"ieß":3795,"▁𓂋𓐍𓏛":3796,"iger":3797,"▁Wadj":3798,"ontamen":3799,"▁Horizon":3800,"▁ḥr.w\r\n":3801,"olis":3802,"▁𓍿𓅱𓏏":3803,"▁ṯwt":3804,"andeln":3805,"▁sagt":3806,"▁N-adjz:f.sg":3807,"▁175050|ṯ":3808,"▁Alabaster":3809,"nrind":3810,"▁60220|pr":3811,"▁175050|ṯwt":3812,"-G":3813,"-d":3814,"für":3815,"kr.t":3816,"nen":3817,"ähr":3818,"▁182":3819,"▁Nas":3820,"▁89850|":3821,"▁mdw":3822,"▁(A":3823,"▁(G":3824,"▁Tj":3825,"00|P":3826,"gew":3827,"▁90940|":3828,"▁ḫn":3829,"▁𓍹𓐍𓅱𓆑𓅱𓍺":3830,"issen":3831,"▁zufrieden":3832,"▁𓎛𓃀":3833,"▁𓐍𓋴":3834,"▁pr-ḫrw":3835,"▁nṯr.PL\r\n":3836,".ꞽ-ẖ":3837,"▁(die":3838,"▁verb":3839,"▁Königsvermögens,":3840,"▁dem.dist":3841,"-ḥm(.w)":3842,"▁V\\res-3pl":3843,"▁kommt":3844,"8670|":3845,"▁folglich":3846,"▁154760|Šmꜥ.w\r\n":3847,"▁170100|=":3848,"▁10060|=f":3849,"▁89850|n.tꞽ":3850,"▁90940|nḏ":3851,".(":3852,"95":3853,"war":3854,"zꜣb":3855,"ḏ.t\r\n":3856,"ḫꜣ\r\n":3857,"▁𓅡":3858,"▁𓈝":3859,"▁wr.t":3860,"▁706":3861,"eigen":3862,"60|ḥ":3863,"▁rd":3864,"30|ḏ":3865,"30|zꜣ.t":3866,"▁Best":3867,"▁täg":3868,"2|Q":3869,"▁ṯꜣ":3870,"▁𓊃𓊪":3871,".ꞽ-š":3872,"▁𓋴𓈖\r\n":3873,"▁Zu":3874,"ḥꜣ.tꞽ-ꜥ":3875,"▁𓄟𓋴":3876,"Ḥw.t-Ḥr.w":3877,"𓃀𓏏𓄹":3878,"▁𓂋𓏙𓈖":3879,"▁125630|zꜣ.t":3880,"▁𓇗\r\n":3881,"▁119260|ḫnt.ꞽ-zḥ-nṯr\r\n":3882,"▁Langhornrind":3883,"!\"\r\n":3884,"-Öl":3885,".ipfv":3886,"10":3887,"70|ꞽ":3888,"aber":3889,"bw":3890,"pꞽ":3891,"ḏ-mr":3892,"▁𓎁":3893,"▁ꜣb":3894,"▁Nun":3895,"▁sd":3896,"▁mnḫ.t":3897,"10|ḥtp":3898,"▁𓋴𓍿":3899,"elle":3900,"▁304":3901,"▁tw":3902,"arke":3903,"▁1323":3904,"ti.\r\n":3905,"▁880":3906,"▁69000|m":3907,"▁V~rel":3908,"▁167010|Gbb":3909,"▁𓅠𓅓":3910,"▁V~rel.ipfv":3911,"do":3912,"mm":3913,"n,":3914,"ydo":3915,"▁𓍒":3916,"▁115":3917,"▁424":3918,"▁sm":3919,"▁sšm":3920,"▁80940|":3921,"▁mḥ.w\r\n":3922,"▁ꞽz":3923,"▁ꞽḥ":3924,"orgen":3925,"▁𓇋𓃀":3926,"▁Aus":3927,"▁8516":3928,"swt-bꞽ.tꞽ":3929,"▁31":3930,"▁gel":3931,"▁456":3932,"-ꞽmꜣḫ":3933,"arf":3934,"▁šmꜥ.w\r\n":3935,"▁Liefer":3936,"▁qꜣ-ꜥ\r\n":3937,"▁𓄤𓂋𓏏":3938,"▁𓌳𓐙":3939,"▁Neith!\r\n":3940,"ill":3941,"▁882272|Q":3942,"▁𓇉\r\n":3943,"▁Abydo":3944,"▁schönen":3945,"𓈙𓏏𓍔":3946,"▁N:sg:stpr":3947,"+(ꞽb)":3948,"▁33040|Ꞽ":3949,"▁Qaa\r\n":3950,"▁73940|Mḥ.w\r\n":3951,"▁80940|N":3952,"▁882272|Qꜣ-ꜥ\r\n":3953,"-Ḥr.w":3954,"öl":3955,"▁ster":3956,"▁oder":3957,"𓂻𓈖":3958,"ers":3959,"▁sms.w":3960,"▁mḥ":3961,"▁ꞽw.t":3962,"-n.t":3963,"▁625":3964,"▁Is":3965,"▁154340|":3966,"160|ꞽr":3967,"8|ꞽ":3968,"▁28160|ꞽr":3969,"17|":3970,"▁ꞽn.w":3971,"liche":3972,"270|ꞽ":3973,"▁𓉐𓊤":3974,"▁𓂝𓊢𓂝":3975,"▁113110|ḫꜣ\r\n":3976,"▁174900|ṯw\r\n":3977,"obei":3978,"-š-pr-ꜥꜣ":3979,"▁mꜣꜥ-ḫrw\r\n":3980,"▁Kai-em":3981,"𓊤︂\r\n":3982,"▁Akten":3983,"▁124340|ẖr.ꞽ-ḥꜣb.t":3984,"▁71170|mnḫ.t":3985,"▁30410|ꞽ":3986,"▁154340|šmi̯":3987,"-tp":3988,"8|m":3989,"nw\r\n":3990,"▁𓃥":3991,"▁𓏲":3992,"𓂋\r\n":3993,"𓈏𓈏":3994,"▁sšm-nfr\r\n":3995,"▁40017":3996,"oren":3997,"▁dessen":3998,"▁ḫꜣ\r\n":3999,".t-ḥr":4000,"usch":4001,"-ḥw.t":4002,"▁𓐍𓊪":4003,"▁8825":4004,"▁nb(.t)":4005,"170|ꞽmi̯":4006,"▁diese":4007,"▁25170|ꞽmi̯":4008,"3910|":4009,"2360|":4010,"▁𓇳𓎟":4011,"▁45029":4012,"▁Siehe,":4013,"post":4014,"▁𓊹𓊹𓊹\r\n":4015,"▁Brot":4016,"𓏌𓏌𓏌":4017,"-hetep":4018,"▁111510|ḥtp":4019,"▁707086|Sšm-nfr\r\n":4020,"▁44430|w":4021,"▁Geheimnisses":4022,"kr.t-nswt":4023,"▁111510|ḥtp-ḏi̯":4024,"bb\r\n":4025,"db":4026,"d.t\r\n":4027,"p\r\n":4028,"uck":4029,"ḏḥ.w":4030,"ḥw.t":4031,"▁𓐎":4032,"ꜥm":4033,"𓀁\r\n":4034,"𓅓𓂝":4035,"▁mw":4036,"-nḫt":4037,"0|ꞽmn.tꞽ":4038,"▁227":4039,"eister":4040,"▁dem\r\n":4041,"▁Ber":4042,"▁𓎛𓂝":4043,".yt\r\n":4044,"▁𓏏𓈖":4045,"▁𓆼\r\n":4046,"▁Oberägyptens\r\n":4047,"▁=3sg.c":4048,"|ꞽm.ꞽ-rʾ-pr":4049,"3890|":4050,"lange":4051,"▁𓉻𓂝":4052,"▁𓅬𓃀":4053,"▁𓍛𓏤":4054,".ꞽ-ḏw=f":4055,"▁Mutter":4056,"▁119610|ḫr":4057,"▁27040|ꞽn.w":4058,"▁44430|wꜥb":4059,"-šm":4060,"41|":4061,"Ḫwi̯=f-wꞽ":4062,"ṯz":4063,"▁𓃞":4064,"▁𓃾":4065,"▁𓅒":4066,"𓍑𓄿":4067,"▁Pl":4068,"m.\r\n":4069,"▁ꞽmꜣḫ":4070,"-n=ꞽ":4071,"▁8512":4072,"<g>U":4073,"▁Ehrw":4074,"alb":4075,"et,":4076,"▁gef":4077,"▁Ba":4078,"art":4079,"▁1587":4080,"ꜣ.wt":4081,"▁šzp":4082,"60|nswt-bꞽ.tꞽ":4083,"▁1467":4084,"▁Neun":4085,"▁steh":4086,"▁450161|":4087,"▁Unterägypten,":4088,"▁852270|ꞽ":4089,"▁𓌢𓈖":4090,"▁20030|ꞽ":4091,"▁Patien":4092,"▁170100|=tw":4093,"▁88060|nswt-bꞽ.tꞽ":4094,"▁62500|P":4095,"8|mꜣꜥ":4096,"▁Ehrwür":4097,"290|":4098,"780|ḥm":4099,"ick":4100,"öß":4101,"ḏ.w":4102,"ḫpi̯":4103,"ẖnm":4104,"▁𓅝":4105,"▁𓍲":4106,"ꜥꜣ.t":4107,"▁sṯ":4108,"▁Dies":4109,"-nzw":4110,"orn":4111,"▁911":4112,"90|ḫsf":4113,"▁zꞽ":4114,"elb":4115,"▁ḏ.t":4116,"▁1772":4117,"-sšm":4118,"▁ADJ:m.pl":4119,"▁80012|":4120,"▁qs":4121,"▁ḏd.n":4122,"▁𓆓𓂧𓈖":4123,"▁450158|":4124,"▁Palastes":4125,"▁111260|ḥtp":4126,"▁105780|ḥm":4127,"▁bestattet":4128,"▁𓋴𓌮𓄤\r\n":4129,"▁gekommen,":4130,"▁Cheop":4131,"▁120790|ḫsf":4132,"▁Kleidung":4133,".ꞽ-ẖ.t\r\n":4134,"▁111510|ḥtp-ḏi̯-nswt":4135,"▁80012|ḫr":4136,"▁105780|ḥmsi̯":4137,"-Fest":4138,"/w":4139,"310|":4140,"hm":4141,"n-)":4142,"tḥ\r\n":4143,"šb":4144,"šꜣ":4145,"𓂭𓂭":4146,"𓅜𓅜":4147,"𓇥𓂋":4148,"𓊨𓀭":4149,"𓊵\r\n":4150,"st.\r\n":4151,"▁Ni":4152,"▁445":4153,"▁862":4154,"▁westlichen":4155,"▁100520|":4156,"▁geben":4157,"670|ꞽn":4158,"▁𓏏𓍃":4159,"▁26670|ꞽn":4160,"▁\"E":4161,"▁49460|Wsꞽr\r\n":4162,"▁𓃹𓈖𓈖":4163,"▁47280|wr":4164,"▁147350|":4165,"𓀀𓁐𓏥":4166,"▁Kammer":4167,"▁Horizont":4168,"▁V\\res-3pl.m":4169,"▁Aktenschreiber":4170,"▁400178|mꜣꜥ":4171,"▁100520|ḥꜣ.tꞽ-ꜥ":4172,"▁147350|st":4173,":\r\r\n":4174,"ut,":4175,"ṯr.w":4176,"▁𓉓":4177,"ꜣ.t\r\n":4178,"𓅯𓄿":4179,"𓌠𓌠":4180,"▁sꞽ":4181,"▁sagen":4182,"▁ski̯":4183,"▁muß":4184,"▁4001":4185,"▁(T":4186,"▁Gau":4187,"1|Ꜣ":4188,"igkeit":4189,"▁gegangen":4190,"▁163890|":4191,"90|nḏ":4192,"nm.w":4193,"mn.t":4194,"abe":4195,".ꞽ-p":4196,"reich":4197,"▁Chen":4198,"▁59741|pw\r\n":4199,"▁(?).\r\n":4200,"▁dem.c":4201,"▁dem.f":4202,"▁ḫnt.ꞽ-zḥ-nṯr\r\n":4203,"rift":4204,"-ꞽmn.tꞽw":4205,"-ḥm.w-kꜣ":4206,"▁V~ptcp.distr.act":4207,"▁täglich":4208,"-B":4209,"97":4210,"fe":4211,"hau":4212,"wd":4213,"▁𓌉":4214,"▁𓅐𓏏":4215,"𓋴𓈙𓏏𓍔":4216,"ert":4217,"▁s(ꞽ)":4218,"▁wnm":4219,"▁Tr":4220,"ank":4221,"00|s.t":4222,"▁𓇋𓂧":4223,"▁rꜥ":4224,"▁bw":4225,"▁bed":4226,".t-ḥtp":4227,"ehn":4228,"▁erh":4229,"ḥr.ꞽ":4230,"▁angeh":4231,"4780|":4232,"ẖr.t":4233,"▁Fl":4234,"▁(ꞽ)tm":4235,"▁1682":4236,"▁ADJ:f.pl":4237,"schl":4238,"90|nb":4239,"ꜥb-nswt":4240,"▁lieb":4241,"458":4242,"▁Unterägyptens\r\n":4243,"90|wꜥb-nswt":4244,"▁𓏌𓏏":4245,"00|ski̯":4246,"▁V\\rel.m.sg-ant:stpr":4247,"▁zurück":4248,"▁Seschem-nefer":4249,"▁66750|mꜣꜥ-ḫrw\r\n":4250,"▁47271|":4251,"▁125100|s.t":4252,"▁Isis":4253,"▁30410|ꞽḥ":4254,"▁146700|ski̯":4255,"▁44590|wꜥb-nswt":4256,"-M":4257,"Ḏd":4258,"ḏ-ꞽb\r\n":4259,"ꜣwi̯":4260,"Ꜥnḫ":4261,"𓈎𓂋":4262,"𓏘𓏘":4263,"▁(der":4264,"▁Sem":4265,"▁gbb":4266,"-mr\r\n":4267,"9880|":4268,"▁keine":4269,"▁𓉘𓈎𓂝":4270,"▁nṯr-ꜥꜣ":4271,"▁185290|":4272,"grüß":4273,"▁Spei":4274,"90|wꜣ.t":4275,"▁𓅜𓅜𓅜":4276,"6|Nṯr":4277,"▁𓐍𓏏𓏛𓏥":4278,"ꜥr-mr\r\n":4279,"bnis":4280,"▁400266|Nṯr":4281,"▁90360|nṯr-ꜥꜣ":4282,"▁42490|wꜣ.t":4283,"▁91190|nḏ":4284,"▁𓉘𓈎𓂝𓊂\r\n":4285,"▁185290|Ḏ":4286,"▁91190|nḏ+(ḥr)":4287,"950|":4288,"Zꜣ":4289,"ül":4290,"šd":4291,"▁𓆄":4292,"▁𓇼":4293,"▁𓉡":4294,"▁𓉺":4295,"𓆓𓏏":4296,"𓎛𓏏":4297,"▁143":4298,"▁nzw":4299,"30|ḥ":4300,"▁voll":4301,"▁Macht":4302,"-wt":4303,"-kꜣ=ꞽ\r\n":4304,"▁V\\imp.":4305,"ꜣ.wꞽ":4306,"ẖr.ꞽ":4307,"▁𓇓𓏏𓆤𓏏":4308,"licher":4309,"nn.t":4310,"040|ḫnt":4311,"▁119040|ḫnt":4312,"aßt,":4313,"▁𓂓𓅓":4314,"▁162200|":4315,"eith\r\n":4316,"▁271|Ꜣ":4317,"-zḥ-nṯr":4318,"▁𓇋𓌳𓄪𓐍":4319,"▁Hauses,":4320,"▁1033":4321,"▁𓉘𓊹𓂋":4322,"▁dem.dist.m.sg":4323,"▁400266|Nṯr.ꞽ-ẖ.t\r\n":4324,"21|":4325,"=s":4326,"Wp":4327,"kün":4328,"ḥꜣ.t":4329,"▁–":4330,"▁𓈍":4331,"▁𓈟":4332,"𓂝𓏝":4333,"𓃀𓈖":4334,"𓎿𓊃":4335,"𓏐𓏊":4336,"𓐍𓐍":4337,"▁Nimm":4338,"▁(?":4339,"0|ꞽz":4340,"▁123910|":4341,"▁gs":4342,"70|nḏ":4343,"▁ḏ.t\r\n":4344,"▁gebr":4345,"▁gegrüß":4346,"▁Im":4347,"▁1501":4348,"▁𓍿𓅱\r\n":4349,"▁ṯw\r\n":4350,"▁wird.\r\n":4351,"▁schütz":4352,"-ḥtp.w\r\n":4353,"opolis":4354,"▁7076":4355,"▁𓅜𓐍𓏏":4356,"𓊹𓊹𓊹𓊹𓊹𓊹𓊹𓊹":4357,"▁𓏎𓈖𓏏":4358,"▁Nekropole,":4359,"▁6500":4360,"▁(ꞽ)r(.ꞽt-ꞽ)ḫ(.t)-nswt":4361,"▁Thot":4362,"▁Atum":4363,"▁PRON.rel:m.sg":4364,"▁Knochen":4365,"▁Lieferungen":4366,"▁dem.f.sg":4367,"▁162200|qs":4368,"▁𓉘𓊹𓂋𓄡𓊂\r\n":4369,"▁123910|ẖr":4370,"wer":4371,"yr":4372,"šꞽ\r\n":4373,"▁𓄖":4374,"▁𓋭":4375,"▁𓋲":4376,"▁art":4377,"𓅓\r\n":4378,"𓏏𓅱":4379,"𓏲𓏛𓏥":4380,"▁n.tꞽ":4381,"▁712":4382,"▁59880|":4383,"1|tp":4384,"ṯr.ꞽ":4385,"▁West":4386,"▁Mit":4387,"fern":4388,"▁dem,":4389,"▁134780|":4390,"09|r":4391,"▁91909|r":4392,"-nb.t":4393,"-mdw":4394,"00|ḥꜣb":4395,"▁Chontamen":4396,"▁ꞽ:nḏ":4397,"ahrung":4398,"▁ḥꜣ.tꞽ-ꜥ":4399,"▁wꜥb-nswt":4400,"(my":4401,"▁47270|wr":4402,"▁Geliebter,":4403,"▁Bruder":4404,"▁1096":4405,"▁𓋴𓌂𓐍𓅓":4406,"▁𓇶𓏌𓏲":4407,"▁26150|ꞽmn.tꞽ":4408,"▁103300|ḥꜣb":4409,"▁59880|pf":4410,"▁134780|zm":4411,"-K":4412,"08|":4413,"Ver":4414,"wꞽ":4415,"ḏꜣ":4416,"▁𓌡":4417,"▁öffn":4418,"▁𓇑𓇑":4419,"𓄹𓏥":4420,"𓇦𓊂\r\n":4421,"𓉜\r\n":4422,"𓊪𓂝":4423,"en/":4424,"▁820":4425,"▁400458":4426,"▁ḥꜥ":4427,"eiden":4428,"▁8518":4429,"-ḥ(ꜣ)b":4430,"4|Ꞽ":4431,"tens":4432,"▁𓎛𓆰":4433,"▁V\\imp.sg\r\n":4434,"▁nb.t-pr":4435,"ung:)":4436,"▁𓉘𓇦𓊂\r\n":4437,"050|ḫnt.ꞽ":4438,"▁diesen":4439,"▁𓏅𓈖𓏏":4440,"▁nṯr(.ꞽ)-ẖ.t\r\n":4441,"▁181400|":4442,"heit,":4443,"nḏm-ꞽb\r\n":4444,"90|nb.t-pr":4445,"▁134780|zmy.t":4446,"▁82090|nb.t-pr":4447,"▁400458|nfr":4448,"16|":4449,"50":4450,"D</g>":4451,"ute":4452,"ꞽs":4453,"𓄿𓅱":4454,"𓅘𓎛":4455,"▁N:du":4456,"▁4004":4457,"▁(H":4458,"orsteher":4459,"▁916":4460,"▁z(my":4461,"▁1242":4462,"eli":4463,"80|r":4464,"▁ersch":4465,"▁ḥr.ꞽ-sštꜣ":4466,"2|S":4467,"▁mrr":4468,".ꞽ-sw":4469,"wr.t\r\n":4470,"▁mꜣꜣ":4471,"▁ihnen":4472,"sḏr":4473,"verwalter":4474,"ꜣḏ.t":4475,"▁Göttern":4476,"▁werden.\r\n":4477,"gehen":4478,"▁𓐙𓏏":4479,"80|ꞽmꜣḫ.w-ḫr":4480,"▁850380|ꞽmꜣḫ.w-ḫr":4481,"etwas":4482,"10|šdi̯":4483,"𓐍𓂋𓊹𓉻":4484,"▁Tochter":4485,"▁Bestes":4486,"▁158710|šdi̯":4487,"▁Ehrwürdig":4488,"▁47270|wrr":4489,"-T":4490,"-ib.\r\n":4491,"y.\r\n":4492,"äm":4493,"𓅨𓂋":4494,"𓈎𓏏":4495,"𓊹𓉱":4496,"▁di̯":4497,"▁s.t":4498,"ack":4499,"▁1004":4500,"ief":4501,"▁𓈖𓆓":4502,"geb":4503,"▁905":4504,"▁𓋴𓂋":4505,"|m-ꜥ":4506,"▁hrw":4507,"-mꜣꜥ":4508,"15|":4509,"▁𓎛𓋴":4510,"acht,":4511,"▁64360|m":4512,"▁𓁹𓊨𓀭":4513,"n.wt":4514,"▁𓁷𓂋𓋴𓈙𓏏𓍔":4515,"▁V\\rel.f.sg:stpr":4516,"▁Priesterin":4517,"▁Gefol":4518,"alsam":4519,"▁jedem":4520,"▁𓊃𓊪𓊗":4521,".ꞽ-pꜥ.t":4522,"-Š":4523,"6</g>":4524,"H̱":4525,"ah":4526,"b.w":4527,"pu":4528,"teil":4529,"▁Ä":4530,"▁𓆛":4531,"Ꞽw":4532,"𓈖𓆓":4533,"▁149":4534,"stät":4535,"▁46":4536,"▁sf":4537,"▁meine":4538,"▁(den":4539,"-neb":4540,"▁701":4541,"r.w-nb=f":4542,"<g>F":4543,"<g>N":4544,"▁gen":4545,"alle":4546,"▁Balsam":4547,"amm":4548,"▁šd":4549,"▁Leinen":4550,"▁88263":4551,"-ḫr-nṯr-ꜥꜣ":4552,"hne":4553,"▁$ḥ":4554,"▁𓉐𓏤":4555,"7350|":4556,"grä":4557,"-ḏr":4558,"▁𓊵𓏏𓊪𓏙":4559,"▁𓏎𓈖":4560,"vorsteher":4561,"▁Arme":4562,"10|nṯr.ꞽ":4563,"▁Geflügel,":4564,"8|ꞽw.t":4565,"▁90510|nṯr.ꞽ":4566,"-(ꞽ)":4567,"31":4568,"30</g>":4569,"45|":4570,"4070|":4571,"hꜣi̯":4572,"ior":4573,"nu":4574,"t/":4575,"ts":4576,"zḥ":4577,"▁äl":4578,"𓉲𓎱":4579,"𓐟𓄿":4580,"▁nḥ":4581,"▁ḥmsi̯":4582,"ausg":4583,"ichte":4584,"ichet\r\n":4585,"▁pꞽ":4586,"80|n":4587,"▁Man":4588,"▁𓊪𓆑":4589,"98|m-ꜥ":4590,"-kꜣ.t":4591,"▁𓉘𓋞":4592,"▁𓎟𓏏𓉐":4593,"ören":4594,"▁𓂝𓏤":4595,"▁ꜣḫ.t":4596,"▁ḥm(.t)":4597,"▁550098|m-ꜥ":4598,"änder":4599,"▁119180|":4600,"▁𓌸𓇋𓇋":4601,"▁(ꞽ)r(.ꞽ)":4602,"▁mꜣꜥ-ḫrw":4603,"▁Senior":4604,"49|Kꜣ=ꞽ":4605,"▁N:sg:stc":4606,"▁Begrä":4607,"▁veranlaßt,":4608,"-ḥm(.w)-kꜣ":4609,"▁450158|ꜥꜣ":4610,"▁gegrüßt,":4611,"▁882638|ꞽw.t":4612,"▁119180|ḫnt.ꞽ":4613,"51":4614,"91":4615,":ptcp.":4616,"aben":4617,"tf":4618,"u\r\n":4619,"Ḥw.t-nbw\r\n":4620,"▁𓄓":4621,"▁𓊐":4622,"▁𓊺":4623,"▁V:ptcp.":4624,"▁44":4625,"▁smꜣ":4626,"▁weg":4627,"tan":4628,"▁ḥꜣb":4629,"▁ḥw.t-nbw\r\n":4630,"▁100310|":4631,"00|š":4632,"00|ḫꜣ":4633,"▁𓇋𓐩":4634,"▁97350|":4635,"90|m":4636,"40|ḫ":4637,"30|q":4638,"43|":4639,"▁Bo":4640,"snṯr":4641,"▁tꜣ\r\n":4642,"▁Ir":4643,"▁šp":4644,"▁Schw":4645,"▁Einkün":4646,"6620|":4647,"▁mr.y":4648,"(?),":4649,"▁(?),":4650,"▁ADJ:m.sg\r\n":4651,"6910|":4652,"▁=3pl":4653,"6190|":4654,"▁Leib":4655,"▁ꞽm(.ꞽ).w":4656,"060|hrw":4657,"▁grg":4658,"▁99900|":4659,"▁99060|hrw":4660,"▁geboren":4661,"▁Hatnu":4662,"▁euch":4663,"▁78150|":4664,"▁𓆣𓂋":4665,"▁hervorge":4666,"59|r":4667,"-ptḥ\r\n":4668,"▁851659|r":4669,"post-":4670,"▁400178|mꜣꜥ.t-ḫrw\r\n":4671,"▁Balsamier":4672,"▁V:ptcp.post-":4673,"▁97350|hꜣi̯":4674,"▁Einkünfte":4675,"▁99900|Ḥw.t-nbw\r\n":4676,"▁Hatnub\r\n":4677,"-t":4678,"33|":4679,"bek":4680,"fie":4681,"nw.t":4682,"sen,":4683,"ug":4684,"▁𓍃":4685,"0120|ꞽ":4686,"▁(s":4687,"▁(du":4688,"▁wd":4689,"▁Hö":4690,"▁Heli":4691,"10|r":4692,"▁622":4693,"▁8509":4694,"tester":4695,"▁520":4696,"▁Kinder":4697,"30|mꞽ":4698,"▁𓂋𓂞":4699,"070|ꞽp":4700,"80|ḥ":4701,"▁Min":4702,"▁geben.\r\n":4703,"▁Bl":4704,"▁zugr":4705,"▁𓁹𓂋":4706,"▁ṯ(ꜣ)":4707,"▁nfr\r\n":4708,"ḫm.w":4709,"00|ṯzi̯":4710,"▁wieder":4711,"▁=3sg.m\r\n":4712,"▁129490|sw\r\n":4713,"▁Götter,":4714,"▁24070|ꞽp":4715,"▁mꜣꜥ.t-ḫrw\r\n":4716,"▁Unterägypten":4717,"ewig":4718,"▁𓃛𓏏":4719,"▁gemacht":4720,"-n.t-nswt":4721,"▁852270|ꞽs":4722,"▁Patienten)":4723,"▁177200|ṯzi̯":4724,"▁707649|Kꜣ=ꞽ":4725,"▁850380|ꞽmꜣḫ.w-ḫr-nṯr-ꜥꜣ":4726,"▁Senior-":4727,"▁Begräbnis":4728,"▁78150|mdw":4729,"▁zugrunde":4730,"affen":4731,"lä":4732,"▁𓆳":4733,"▁ewig":4734,"ꜣz":4735,"𓊨𓏏":4736,"𓏞𓂝𓏝":4737,"▁Netjer":4738,"▁nw.t":4739,"▁𓈖𓄓":4740,"▁𓇋𓏎":4741,"▁966":4742,"▁𓋴𓅓":4743,"▁rwḏ":4744,"07|r":4745,"▁psḏ.t":4746,"70|mꞽ":4747,"80|ꜥ":4748,"▁ḏi̯.n":4749,"▁Bes":4750,"▁Bus":4751,"6|Ꞽ":4752,"6|tꜣ":4753,"▁šw":4754,"▁V\\inf:stpr":4755,"▁𓁹𓁹":4756,"hrauch":4757,"▁ꞽwꜣ\r\n":4758,"▁𓏏𓏐":4759,"ommen":4760,"$-G":4761,"$-K":4762,"▁gehen":4763,"▁𓏙𓈖":4764,"ischen":4765,"ṯꜣz":4766,"ṯꜣ.tꞽ":4767,"0|ꞽwꜣ\r\n":4768,"▁400015|Rꜥw\r\n":4769,"𓏤𓏤𓏤𓏤":4770,"-ḥw.t-ḥ":4771,"gefäß":4772,"▁<g>D207</g>":4773,"▁𓇬𓈖":4774,"▁qrs.t":4775,"▁22160|ꞽwꜣ\r\n":4776,"▁Wadj\r\n":4777,"▁Kai-em-anch":4778,"▁𓏌𓏏𓇯":4779,"-Šmꜥ.w":4780,"(un":4781,"-(":4782,"UM":4783,"bs":4784,"dige":4785,"ion":4786,"iff":4787,"uh":4788,"𓂝𓅱":4789,"𓄊𓋴":4790,"𓆼𓄿":4791,"𓏛𓈖":4792,"▁dort":4793,"ste":4794,"▁NUM":4795,"▁sw\r\n":4796,"▁845":4797,"▁ꞽṯi̯":4798,"-nꞽ.t\r\n":4799,"▁Hen":4800,"40|ꜥnḫ":4801,"▁Kas":4802,"▁pḥ":4803,"ehm":4804,".nw":4805,"▁116050|":4806,"snḏ":4807,"ḥr.ꞽ-sštꜣ":4808,"▁1357":4809,"▁deines":4810,"-sk\r\n":4811,"▁91907|r":4812,"1780|":4813,"▁Schm":4814,"▁Einz":4815,"▁Verklär":4816,"tifie":4817,"echem":4818,"▁<g>E":4819,"3|Wꜣḏ":4820,"A</g>\r\n":4821,"39|nb":4822,"▁𓂧𓈖":4823,"▁N.f:pl:stc":4824,"▁38540|ꜥnḫ":4825,"▁60042":4826,"▁𓏌𓏤":4827,"▁400939|nb":4828,"▁hinter":4829,"▁gegeben.\r\n":4830,"▁653":4831,"▁ꞽmꜣḫ.w-ḫr-nṯr-ꜥꜣ":4832,"▁geworden":4833,"identifie":4834,"▁𓊿𓏏𓏏":4835,"▁93320|rꜥw-nb":4836,"▁80940|Nw.t":4837,"▁V~ptcp.distr.act.m.sg":4838,"▁47271|wr":4839,"▁100310|ḥꜣ.t":4840,"▁V:ptcp.post-m.":4841,"(unidentifie":4842,"▁116050|ḫpi̯":4843,"(unidentified)":4844,"',":4845,"-W":4846,"25|":4847,"99":4848,"E</g>":4849,"gesch":4850,"ʾ.t":4851,"ʾw.t":4852,"▁𓊽":4853,"▁𓎔":4854,"𓇼𓇼":4855,"𓏌𓅱":4856,"𓏏𓏥":4857,"▁Nach":4858,"ende":4859,"eni-":4860,"▁Ptah":4861,"▁=tw":4862,"0130|":4863,"-n(=ꞽ)":4864,"-nṯr.w":4865,"▁𓆑𓏭":4866,"▁=fꞽ":4867,"aut":4868,"-ḫnt.ꞽ":4869,"▁er,":4870,"leg":4871,"▁Fein":4872,"ung,":4873,"▁Rück":4874,"schaft":4875,"schrift":4876,"▁𓉐𓂋𓏏":4877,"▁kꜣ(.ꞽ)":4878,"▁alle":4879,"2850|":4880,"▁Zehn":4881,"▁𓌸𓂋𓏏":4882,"▁gehört":4883,"ild":4884,"leisch":4885,"B</g>\r\n":4886,"40|mdwi̯":4887,"-Neith\r\n":4888,"▁lebt":4889,"▁78140|mdwi̯":4890,"▁ẖr(.ꞽ)-ḥ(ꜣ)b":4891,"▁𓎗𓅱":4892,"▁𓇋𓍯\r\n":4893,"▁69000|mw":4894,"▁V\\imp.pl":4895,"▁271|Ꜣs.t":4896,"▁Busiris":4897,"3|Wꜣḏ.w\r\n":4898,"1C</g>":4899,"be":4900,"dj":4901,"dm":4902,"r)":4903,"öst":4904,"ḫ.t-":4905,"ṯꞽ":4906,"▁𓇅":4907,"▁oder:":4908,"𓄣𓏤":4909,"𓇳\r\n":4910,"𓏏𓈙":4911,"▁nḫt":4912,"▁885":4913,"▁865":4914,"▁(B":4915,"▁509":4916,"70|ḥ":4917,"▁vom":4918,"-ꜥḥ":4919,"etr":4920,"-ḥꜣ":4921,"-ḥꜣ.t":4922,"▁Barke":4923,"▁1168":4924,"▁116910|":4925,"▁tm":4926,"▁ander":4927,"▁136":4928,"▁denn":4929,"ẖr-nṯr":4930,"ẖr.ꞽ-tp-nswt":4931,"▁𓆓𓂝":4932,"▁Schatz":4933,"▁1415":4934,"▁<g>W":4935,"(w).t":4936,"▁𓊃𓏏𓈉":4937,"4480|":4938,"immer":4939,"ebe":4940,"reck":4941,"(?)/":4942,"▁\"W":4943,"▁𓂋𓂝𓈖":4944,"▁N.m:du:stc":4945,"▁45022":4946,"▁Name":4947,"▁rꜥw-nb":4948,"▁Frieden":4949,"▁Hathor":4950,"▁V\\tam.act-cnsv:stpr":4951,"▁148520|Stẖ\r\n":4952,"𓈐𓈐𓈐":4953,"▁Weihrauch":4954,"▁einzige":4955,"▁dauern":4956,"▁163890|kw":4957,"▁nzw-bꞽ.tꞽ":4958,"▁𓈟𓏏":4959,"yram":4960,"▁Chontamenti":4961,"▁707649|Kꜣ=ꞽ-m-ꜥnḫ\r\n":4962,"▁600421|tp":4963,"▁116910|ḫm":4964,"150|":4965,"bw.t":4966,"ia":4967,"tst":4968,"äh":4969,"ꜥ\r\n":4970,"𓅪\r\n":4971,"𓋴𓊭":4972,"𓌂𓌂":4973,"𓍯𓄿":4974,"𓏏𓊖\r\n":4975,"▁dwꜣ":4976,"▁snḏ":4977,"▁(ein":4978,"▁204":4979,"▁Ste":4980,"▁619":4981,"▁𓋴𓎛":4982,"▁8519":4983,"▁Gl":4984,"▁124070|":4985,"80|wt":4986,"4|ꞽ":4987,"▁ḏr":4988,"▁ḏꜣ":4989,"▁𓊪𓇋":4990,"▁1387":4991,"▁Re,":4992,"▁<g>M":4993,"▁𓊃𓈖":4994,"▁alt":4995,"▁550055|":4996,"▁119050|ḫnt.ꞽ":4997,"▁162930|":4998,"▁wr.t\r\n":4999,"▁bist,":5000,"-Ptḥ\r\n":5001,"▁127770|s":5002,"20|sms.w":5003,"▁seitens":5004,"▁Hügel":5005,"▁𓄡𓏏𓏤":5006,"▁=3sg.f\r\n":5007,"▁Alabastergefäß":5008,"▁10060|=fꞽ":5009,"▁33040|Ꞽtm.w":5010,"▁124220|":5011,"▁Kai-em-anch.\r\n":5012,"▁135720|sms.w":5013,"▁162930|kꜣ":5014,"▁127770|sꞽ\r\n":5015,"-ḏd":5016,".(w)":5017,"fen":5018,"por":5019,"Über":5020,"šwi̯":5021,"ḫḫ":5022,"▁𓇏":5023,"▁𓐩":5024,"𓁶𓌨":5025,"𓂋𓐍𓏏":5026,"𓅓𓈖":5027,"𓉐𓏤":5028,".wt\r\n":5029,"▁n.w":5030,"▁863":5031,"▁822":5032,"▁(l":5033,"00|ꜣḫ":5034,"▁der,":5035,"▁Sed":5036,"10|s":5037,"▁𓋴𓆑":5038,"▁8543":5039,"▁8517":5040,"▁519":5041,"▁Wir":5042,"▁1719":5043,"▁138670|":5044,"assen":5045,"-sꜣ":5046,"▁Ra":5047,"▁nfr.t":5048,"indem":5049,"▁pr.t-ḫrw":5050,"(?).\r\n":5051,"▁ẖnm":5052,"▁Grün":5053,"▁𓇓𓏏𓈖𓀆":5054,"▁davon":5055,"tah.\r\n":5056,"Ꞽyi̯":5057,"▁𓅓𓂋𓉐𓏤":5058,"▁empf":5059,"▁851267|":5060,"70|nḏri̯":5061,"▁gebracht":5062,"▁91670|nḏri̯":5063,"▁46060|":5064,"▁Heliopolis":5065,"schrift:)":5066,"▁kꜣ(.ꞽ)-m-ꜥnḫ\r\n":5067,"▁124220|ẖr.ꞽ":5068,"▁138670|snṯr":5069,"\",":5070,"-R":5071,"4</g>":5072,"N.ꞽ":5073,"dwꜣ":5074,"s.t\r\n":5075,"y)t":5076,"šp":5077,"𓆓𓊂\r\n":5078,"err":5079,"▁m-ḫt":5080,"▁(K":5081,"▁(indem":5082,"annt":5083,"▁200|ꜣḫ":5084,"▁𓇋𓐍𓅓":5085,"▁945":5086,"▁937":5087,"▁Salb":5088,"▁8545":5089,"20|ḥ":5090,"eten":5091,"▁39":5092,"t,\r\n":5093,"▁Ihr":5094,"ꜣb\r\n":5095,"-s.t":5096,"▁kw":5097,"▁Red":5098,"▁Reinig":5099,"▁ꞽni̯.t":5100,"▁𓉘𓆓𓊂\r\n":5101,"▁Eine":5102,"▁auf,":5103,"ib\r\n":5104,"▁wird,":5105,"77|":5106,"▁50006":5107,"▁𓈖𓏏𓏭":5108,"ḥ.wꞽ":5109,"▁𓁶𓈋":5110,"▁msi̯":5111,"|ꜣḫ.t":5112,"▁Herzen":5113,"▁𓌸𓂋𓂋":5114,"wi̯=f-wꞽ\r\n":5115,"80|ꞽꜣwi̯":5116,"▁𓎼𓂋":5117,"▁šsꜣ.w":5118,"▁wꜣḏ.w\r\n":5119,"šsꜣ.w":5120,"70|m-ẖnw":5121,"▁leib":5122,"▁Chentusch":5123,"▁𓐍𓋴𓍙":5124,"elbst":5125,"▁111260|ḥtp.w":5126,"▁ḥm(.t)-nṯr":5127,"▁hervorgekommen":5128,"▁ewiglich":5129,"▁65370|m-ẖnw":5130,"▁20480|ꞽꜣwi̯":5131,"▁46060|wn":5132,"▁94530|r":5133,"-gs":5134,"1</g>":5135,"24|":5136,"beit":5137,"yt":5138,"äd":5139,"šꜥ":5140,"ḏ\r\n":5141,"𓃀𓈋":5142,"𓅱𓀀":5143,"𓊤\r\n":5144,"𓌰𓅓":5145,"▁=1sg":5146,"cher":5147,"▁435":5148,"▁(auch":5149,"▁ḥn":5150,"▁ḥz":5151,"00|ḫft":5152,"▁216":5153,"▁Se":5154,"60|mꜣ":5155,"60|Nb":5156,"▁𓋴𓆓":5157,"▁8527":5158,"▁zp":5159,"▁zꜣb":5160,"20|p":5161,"▁ḫ.t":5162,"▁ḫwi̯":5163,"▁ber":5164,".tꞽ-z":5165,"▁ꜥq":5166,"62|":5167,"-ꞽn":5168,"▁136190|":5169,"▁5501":5170,"▁Neb":5171,"▁Auge":5172,"▁𓊨𓁹\r\n":5173,"▁Pepi!\r\n":5174,"▁heraus":5175,"▁msi̯.n":5176,"▁Versorgter":5177,"00|sḫ":5178,"▁66260|mꜣ":5179,"54</g>":5180,"-kai.\r\n":5181,"▁168860|tꜣ\r\n":5182,"▁70049":5183,"siegler":5184,"hthy":5185,"ꜣb-ṯꜣ.tꞽ":5186,"▁Rind,":5187,"-šmꜥ.w":5188,"▁62500|Psḏ.t":5189,"▁Seschem-nefer.\r\n":5190,"▁𓉺𓏌":5191,"▁𓇶𓏌𓏲𓂐":5192,"▁𓆛𓏌":5193,"▁ṯ(ꜣ)z":5194,"▁96600|r":5195,"▁116800|ḫft":5196,"▁Chentuschi":5197,".tꞽ-zꜣb-ṯꜣ.tꞽ":5198,"▁136190|sn":5199,"'s":5200,"450|":5201,"Tꜣ":5202,"diener":5203,"mi̯.n":5204,"phthy":5205,"𓄤𓆑𓂋":5206,"𓅡𓄿":5207,"𓅨\r\n":5208,"𓇋𓅱":5209,"𓈙𓈖":5210,"𓋴𓏏":5211,"steigen":5212,"▁Nut":5213,"▁455":5214,"0|=s":5215,"▁s(ꞽ)\r\n":5216,"▁40011":5217,"▁wꜣḥ":5218,"anti":5219,"00|šsꜣ.w":5220,"▁𓈖𓆱𓐍𓏏":5221,"▁𓅓𓂸":5222,"▁ḫt":5223,"▁Mon":5224,"isut.\r\n":5225,"8|ḥr":5226,"▁Nephthy":5227,"2710|":5228,"▁𓇋𓅓𓂜":5229,"720|=ṯ":5230,"-bꜣ.w":5231,".DU\r\n":5232,"9|Ꞽyi̯":5233,"▁-2du":5234,"i-eni-":5235,"▁Großer":5236,"Ꞽnp.w\r\n":5237,"▁175720|=ṯ":5238,"etzt":5239,"▁Seite":5240,"▁𓇾𓈇𓏤":5241,"-ḥw.t-ꜥꜣ.t":5242,"<g>P1C</g>":5243,"▁157100|šsꜣ.w":5244,"▁𓆓𓏏𓇿\r\n":5245,"▁ꞽyi̯-n(=ꞽ)":5246,"-n=ꞽ-H̱nm.w\r\n":5247,"haupt":5248,"▁185290|Ḏḥw.tꞽ":5249,"▁50980|wt":5250,"▁82260|Nb":5251,"▁700499|Ꞽyi̯":5252,"i-eni-Chnum\r\n":5253,"▁ꞽyi̯-n(=ꞽ)-ẖnm.w\r\n":5254,"▁700499|Ꞽyi̯-n=ꞽ-H̱nm.w\r\n":5255,"3|ꞽm.ꞽ-rʾ-pr":5256,"Mnw":5257,"ky":5258,"lop":5259,"m\r\n":5260,"r.t\r\n":5261,"äbel":5262,"ḫwi̯":5263,"▁𓂾":5264,"▁𓇿":5265,"𓋴𓌉":5266,"𓋹𓈖𓐍":5267,"𓏤𓏥":5268,"▁dar":5269,"▁mʾw.t":5270,"▁29":5271,"▁66620|":5272,"90|q":5273,"unden":5274,"▁𓎡𓅱":5275,"▁1232":5276,"▁34":5277,"ehl":5278,"▁172360|":5279,"▁einer,":5280,"▁ꞽr.t-ḥ":5281,"legen":5282,"▁fort":5283,"29A</g>":5284,"▁PREP-adjz:m.sg:stpr":5285,"▁1592":5286,"-sḏr":5287,"▁1603":5288,"ung.\r\n":5289,"▁ꞽni̯.n":5290,"▁𓏏𓅱":5291,"▁Unas.\r\n":5292,"▁𓋴𓈖𓏥\r\n":5293,"▁ẖr-nṯr":5294,"<g>D207</g>":5295,"3420|":5296,"▁große":5297,"-ḏ.t\r\n":5298,"▁snṯr":5299,"▁85554":5300,"▁𓏌𓎡":5301,"▁400013|ꞽm.ꞽ-rʾ-pr":5302,"bruch":5303,"▁Gottessiegler":5304,"▁gerechtfertigt.\r\n":5305,"▁𓅱𓂝𓃂":5306,"▁Abydos,":5307,"▁𓐎𓏏":5308,"-kꜣ.t-nb.t":5309,"▁124070|ẖr-nṯr":5310,"▁851267|pꞽ":5311,"▁Reinigung":5312,"antilop":5313,"▁175720|=ṯnꞽ":5314,"▁855548|ḥr":5315,").t":5316,"-en":5317,"500|":5318,"8030|":5319,"bꞽ\r\n":5320,"otep":5321,"per":5322,"rk":5323,"zḫ":5324,"š\r\n":5325,"ꜣu̯":5326,"𓇓𓏏𓈖":5327,"𓉜𓊖\r\n":5328,"𓏲𓏭":5329,"𓐍\r\n":5330,".t=f":5331,"▁Nar":5332,"▁nḥb.t":5333,"▁sq":5334,"▁mus":5335,"▁mnḫ":5336,"▁m-bꜣḥ":5337,"▁(=":5338,"▁(j":5339,"▁(ꜣ)":5340,"▁wꜣ.t.PL":5341,"-n.ꞽ":5342,"-n=ꞽ\r\n":5343,"▁ḥs":5344,"▁Tem":5345,"auber":5346,"50|ḏ":5347,"<g>I":5348,"▁bef":5349,"80|p":5350,"▁Wes":5351,"▁ꜥ.DU":5352,"-ꞽz":5353,"atron":5354,"ntꞽ\r\n":5355,"▁Ib":5356,"▁𓎛𓎿𓊃":5357,"▁ṯzi̯":5358,"(w)i̯":5359,"▁Erf":5360,"▁nṯr\r\n":5361,"▁Oberägypten,":5362,"▁𓐍𓂋𓀒":5363,"ünsch":5364,"▁V\\rel.m.sg:stpr":5365,"▁herausg":5366,"▁V\\advz\r\n":5367,"▁V\\ptcp.pass.f.sg":5368,"▁27360|Ꞽnp.w\r\n":5369,"▁ꞽꜣwi̯":5370,"▁Hatia":5371,"<g>P30</g>":5372,".t-ḥw.t":5373,"rone":5374,"Ꜣbḏ.w\r\n":5375,"▁Brust":5376,"▁ḥw.t-kꜣ":5377,"▁Menschen":5378,"mittel":5379,"▁\"Ein":5380,"▁𓂓𓅓𓋹\r\n":5381,"▁44000|":5382,"▁Begräbnisstät":5383,"▁96600|rd":5384,"äbelantilop":5385,"3A</g>":5386,"3010|":5387,"65|":5388,"tw\r\n":5389,"wär":5390,"šni̯":5391,"▁𓅘𓎛":5392,"𓊃𓏏":5393,"𓌠𓋴𓊭":5394,"𓏌𓏏":5395,"▁noch":5396,"▁sbk":5397,"i̯\r\n":5398,"▁mw.t":5399,"▁(für":5400,"▁ḥ(ꜣ)b":5401,"▁Tex":5402,"▁-3du":5403,"▁217":5404,"▁20120|ꞽ":5405,"10|sḏ":5406,"▁𓋴𓍌":5407,"▁8500":5408,"▁52840|":5409,"▁bꞽ":5410,"70|p":5411,"▁ḏs":5412,"620|=s":5413,"▁1846":5414,"▁𓐍𓆑𓏏":5415,"▁ꞽnp.w\r\n":5416,"▁𓎟\r\n":5417,"▁Königsso":5418,"▁kꜣ\r\n":5419,"▁kꜣ.PL":5420,"▁𓊵𓏏":5421,"▁schl":5422,"▁ẖr.t":5423,"<g>D28":5424,"▁\"D":5425,"▁sind,":5426,"▁Oberhaupt":5427,"▁𓌃𓂧𓏏":5428,"sse":5429,"▁größ":5430,"-Nꞽ.t\r\n":5431,"80|ꞽꜥb":5432,"Ḥw.t-kꜣ":5433,"▁gesag":5434,"-kai\r\n":5435,"▁ohne":5436,"▁𓇋𓏶𓅱":5437,"beischrift:)":5438,"-qd":5439,"▁𓋴𓍋𓌡𓏏𓏤":5440,"▁66750|mꜣꜥ-ḫrw":5441,"▁1027":5442,"eutet,":5443,"▁227|ꜣḫ.t":5444,"▁qs.PL":5445,"▁Cheops":5446,"▁gegangen.\r\n":5447,"▁bedeutet,":5448,"▁(ꞽ)tm(.w)":5449,"▁ältester":5450,"▁Besitz":5451,"▁136620|=s":5452,"▁(lit":5453,"▁21680|ꞽꜥb":5454,"▁52840|bꜣ":5455,")!\r\n":5456,".pass":5457,"fnḏ":5458,"uder":5459,"Ḥꜣb-sd\r\n":5460,"▁𓅧":5461,"▁𓊼":5462,"𓂝𓎛":5463,"𓈉𓈉":5464,"𓊵𓏙":5465,"𓏏𓆑":5466,"▁m-ẖnw":5467,"▁ꞽd":5468,"▁ꞽꜥb":5469,".ꞽw":5470,"▁will":5471,"▁wobei":5472,"▁ḥꜣb-sd\r\n":5473,"▁72840|":5474,"00|w":5475,"00|tp":5476,"▁Säbelantilop":5477,"▁614":5478,"▁𓅓𓄚":5479,"▁𓋴𓇋":5480,"▁𓋴𓐍𓏏":5481,"▁8501":5482,"▁rꜥw\r\n":5483,"sw.t":5484,"kꜣ.w":5485,"<g>(unidentified)":5486,"▁𓂋𓍿":5487,"adurch":5488,"▁bew":5489,"▁1262":5490,"ett":5491,"▁ḏḥw.tꞽ":5492,"▁gekommen":5493,"▁Bef":5494,"nꞽ.w":5495,"8830|":5496,"▁ꞽrr":5497,"▁180130|":5498,"▁Für":5499,"▁5504":5500,"▁𓆓𓈖":5501,"▁nb\r\n":5502,"▁nb-tꜣ-ḏsr\r\n":5503,"▁kein":5504,"▁wirk":5505,"▁Königs),":5506,"|ꞽr":5507,"▁1098":5508,"wꜣḥ":5509,"▁schw":5510,"33</g>":5511,"9|N":5512,"▁ihrer":5513,"▁𓇳𓏤":5514,"▁=PTCL\r\n":5515,"▁𓐍𓏏𓆑":5516,"▁ꜣḫ.PL":5517,"ächter":5518,"tm.w-bꞽ.tꞽ":5519,"▁𓄂𓏏𓏏":5520,"lüss":5521,"▁103500|":5522,"▁𓇉𓄿":5523,"▁worden,":5524,"▁worden.\r\n":5525,"▁=ṯn(ꞽ)":5526,"▁eur":5527,"▁450367|":5528,"▁𓅨𓂋𓏏\r\n":5529,"|mrr.w-nb=f":5530,"4750|m":5531,"▁empor":5532,"fest\r\n":5533,"erson":5534,"80|rwḏ":5535,"▁400939|nb-tꜣ-ḏsr\r\n":5536,"▁550055|zẖꜣ.w":5537,"▁Sedfest\r\n":5538,"▁93780|rwḏ":5539,"▁𓐍𓋴𓍙𓆑":5540,"▁116800|ḫft.ꞽ":5541,"▁Tempel":5542,"▁20120|ꞽꜣ.t":5543,"▁Königssohn":5544,"▁72840|mr":5545,"▁180130|dr":5546,"▁103500|Ḥꜣb-sd\r\n":5547,"-Z":5548,".(ꞽ)":5549,"20|ꞽw":5550,"fang":5551,"kei":5552,"no":5553,"oh":5554,"sṯ":5555,"zie":5556,"▁𓃂":5557,"▁𓉗":5558,"▁Über":5559,"𓂦\r\n":5560,"𓂻\r\n":5561,"𓆱𓏏":5562,"𓉐\r\n":5563,"𓍘𓇋\r\n":5564,"𓎡\r\n":5565,"𓏝𓏝":5566,"sto":5567,"▁Nicht":5568,"ennt":5569,"inn":5570,"▁n(ꞽ)":5571,"▁834":5572,"▁mnw":5573,"▁(b":5574,"▁(m":5575,"▁Diener":5576,"▁78030|":5577,"▁225":5578,"gest":5579,"▁Spr":5580,"▁64750|m":5581,"90|p":5582,"90|zꜣ":5583,"40|ḥ":5584,"40|ḥꜣ":5585,"▁Gesch":5586,"swissen":5587,"▁528":5588,"|n.ꞽ":5589,"▁𓂋𓊪𓂝":5590,"igt":5591,"▁psḏ":5592,"70|ḏ":5593,"▁sein,":5594,"▁1147":5595,"82</g>":5596,"-wꜣ.wt":5597,"▁𓇓𓅱𓏏":5598,"▁1354":5599,"▁ihm.\r\n":5600,"▁Feu":5601,"ḥꜥ.w":5602,"▁sieh":5603,"zꜣ-nswt":5604,"▁𓊹𓏤":5605,"▁𓅓𓂋𓇓𓏏":5606,"▁𓇳\r\n":5607,"▁550300|ḥnꜥ":5608,"▁(Domäne)":5609,"▁𓄡𓏏":5610,".t-ꞽtꞽ":5611,"▁𓈞𓏏":5612,"▁nb-ꜣb":5613,"40|wpi̯":5614,"▁45640|wpi̯":5615,"▁mußt":5616,"▁angeht":5617,"▁Imi":5618,"ahrungswissen":5619,"𓊹𓉱\r\n":5620,"▁100440|ḥꜣ":5621,"▁Äl":5622,"▁šdi̯.t":5623,"▁𓉘𓋞𓉜𓊖\r\n":5624,"40|ḫꜥi̯":5625,"-ꞽnp.w":5626,"-kꜣ.t-nb.t-n.t-nswt":5627,"▁Erfahrungswissen":5628,"▁𓋴𓍌𓌡𓏏𓏤":5629,"▁450367|ẖr.ꞽ-tp-nswt":5630,"▁64750|m-bꜣḥ":5631,"▁114740|ḫꜥi̯":5632,"▁135420|s":5633,"42|":5634,"fr.w":5635,"nd":5636,"ḥqꜣ":5637,"ḫtm.w-nṯr-wꞽꜣ":5638,"▁𓄃":5639,"▁𓅾":5640,"▁𓊩":5641,"▁𓅯𓄿":5642,"▁etwas":5643,"𓂝\r\n":5644,"𓇼\r\n":5645,"▁dr":5646,"▁dadurch":5647,"es\r\n":5648,"▁ꞽṯ":5649,"▁wꜣ":5650,"ieben":5651,"▁74750|":5652,"▁22850|":5653,"▁94":5654,"aum":5655,"▁𓎡𓄿":5656,"1|n":5657,"▁ḫtm.w-nṯr-wꞽꜣ":5658,"<g>T":5659,"▁ist!\r\n":5660,"-mächtig":5661,"▁Wegen":5662,"▁ḏbꜥ":5663,"▁177":5664,"sn.t":5665,"▁Ii-eni-Chnum\r\n":5666,"▁𓎛𓈖":5667,"▁55110|":5668,"▁8823":5669,"▁91910|r":5670,"▁𓇓𓏏𓁶𓌨":5671,"5|Nfr":5672,"hron":5673,"▁𓏏𓆑":5674,"▁$j":5675,"▁800001|Wnꞽs\r\n":5676,"$-S":5677,"▁qꜣb.t":5678,"▁108830|":5679,"▁𓊹𓉼":5680,"▁𓊹𓋨":5681,"▁Zimmer":5682,"▁Zauber":5683,"▁wr-mḏ":5684,"▁𓃀𓅱":5685,"▁ihrem":5686,"wḏꜣ":5687,"▁tp(.ꞽ)":5688,"▁werden,":5689,"-ꞽ)ḫ.t-nswt":5690,"svorsteher":5691,"▁Himmels":5692,"𓈖𓏌𓅱":5693,"▁400976":5694,"ꞽm.ꞽ-rʾ-pr":5695,"▁𓈞𓋴":5696,"▁geschütz":5697,"𓊵𓏏𓊪\r\n":5698,"znf":5699,"<g>W54</g>":5700,"70|nfr":5701,"▁111590|ḥ":5702,"▁Sache":5703,"▁𓈎𓄿𓃀𓏏𓄹":5704,"<g>Q33</g>":5705,"▁𓍋𓅓𓂋":5706,"▁Langhornrindes.\r\n":5707,"elle)":5708,"▁𓐙𓏏𓊤︂\r\n":5709,"▁Netjerichet\r\n":5710,"90|qꜣb.t":5711,"▁159290|qꜣb.t":5712,"▁74750|ms":5713,"▁55110|bw":5714,"▁400976|nb-":5715,"▁111590|ḥtm":5716,"Tp":5717,"X3A</g>":5718,"fn.t":5719,"itel":5720,"ogen":5721,"rg":5722,"ruch":5723,"tr.t":5724,"w.tꞽ":5725,"wꜥb":5726,"zf":5727,"šf":5728,"ḥ.t\r\n":5729,"▁𓂸":5730,"▁𓅷":5731,"▁𓊖":5732,"▁𓋁":5733,"▁𓌟":5734,"▁𓍚":5735,"▁𓅱𓏏":5736,"𓀁𓈖":5737,"𓅆𓅆":5738,"𓅓𓅱":5739,"𓈎𓄿":5740,"𓏏𓏲":5741,"▁spd":5742,"▁mdwi̯":5743,"▁wp":5744,"▁wünsch":5745,"▁ḥ(n)":5746,"▁Thron":5747,"emd":5748,"60|ḏ":5749,"▁𓋴𓇛":5750,"-mer":5751,"alt":5752,"82|":5753,"-wꜥb":5754,"-kꜣ.w":5755,"▁1362":5756,"05|":5757,"▁88233":5758,"eff":5759,"▁keinen":5760,"𓂋𓏏\r\n":5761,"▁<g>V":5762,"110|ḫwi̯":5763,"▁Herrsch":5764,"▁𓍹𓃹𓈖𓇋𓋴𓍺\r\n":5765,"▁wnꞽs\r\n":5766,"andl":5767,"▁1134":5768,"140|ꞽ":5769,"▁allen":5770,"▁qꜣ":5771,"ur)":5772,"ebt":5773,"▁Sobek":5774,"<g>D82</g>":5775,"▁851509|":5776,"▁𓂓𓂸":5777,"▁𓁷𓂋𓏤":5778,"▁sind.\r\n":5779,"▁Arbeit":5780,"▁6003":5781,"▁𓄿𓉔":5782,"▁550338|":5783,"▁N-adjz:m.pl":5784,"▁𓃢\r\n":5785,"hinder":5786,"▁850763":5787,"sḥḏ-ḥm.w-kꜣ":5788,"ḥm.t-nṯr-":5789,"losse":5790,"▁(Person":5791,"▁(Glosse":5792,"▁115110|ḫwi̯":5793,"▁450161|wr.t":5794,"▁Kammerdiener":5795,"▁(Titel":5796,"▁vollkommen":5797,"▁Westen":5798,"-ḥw.t-ḥr.w":5799,"▁Schatzhaus":5800,"▁Salböl":5801,"▁(auch)":5802,"▁83470|nfr":5803,"▁100440|ḥꜣ.tꞽt":5804,"▁851509|ẖr":5805,"▁550338|sḥḏ-ḥm.w-kꜣ":5806,"06|":5807,"1pl":5808,"40|ꞽ":5809,"5|mr":5810,"79|":5811,"S9":5812,"VA":5813,"b.t":5814,"bn\r\n":5815,"eun":5816,"fd":5817,"gmꜣ":5818,"ift":5819,"kt":5820,"nefer":5821,"▁𓂡":5822,"▁𓆷":5823,"▁\r\n":5824,"▁𓊹𓊹𓊹𓊹":5825,"𓃀𓅱":5826,"𓈒𓏥\r\n":5827,"𓈓\r\n":5828,"𓎛𓃀":5829,"𓐄𓐄":5830,"▁Pro":5831,"▁sk":5832,"▁swt":5833,"▁selbst":5834,"▁mt":5835,"▁mehr":5836,"▁(W":5837,"▁(Fest":5838,".f.pl":5839,"anz":5840,"▁𓈖𓐩":5841,"▁𓇋𓏠𓈖":5842,"r.wt":5843,"90|tm":5844,"▁rein":5845,"▁zwei":5846,"▁Ger":5847,"swꜣi̯":5848,"▁ḫꜥi̯":5849,"▁ho":5850,"▁Ehe":5851,"4|ꜥnḫ":5852,"itter":5853,"▁1709":5854,"▁1714":5855,"▁1768":5856,"-ꞽm.ꞽ-rʾ":5857,"▁1834":5858,"▁tun":5859,"▁ange":5860,"▁400005|mr":5861,"𓊹𓊹𓊹𓊹𓊹":5862,"▁šms":5863,"▁Fleisch":5864,"▁𓆓𓋴":5865,"olz":5866,"▁kl":5867,"▁Rinder":5868,"▁𓇓𓏏𓊵𓏙":5869,"ḥmi̯":5870,"▁50002":5871,"andel":5872,"äg.":5873,"▁zꜣ-nswt":5874,"iert":5875,"▁𓅱𓊪":5876,"39|":5877,"zeu":5878,"▁𓁶𓊪":5879,"740|swꜣi̯":5880,"▁882299|N":5881,"-ḥtp.w":5882,"▁70769":5883,"▁untersuch":5884,"ḥw.tꞽ\r\n":5885,"▁𓄂𓏏":5886,"▁Grab":5887,"-mḏ-Šmꜥ.w":5888,"▁Landmann":5889,"10|nḥb.t":5890,".t-kꜣ\r\n":5891,"19|S":5892,"▁129740|swꜣi̯":5893,"suchung:)":5894,"▁stš\r\n":5895,"▁𓍿𓊃<g>Q33</g>":5896,"▁(Aber":5897,"30|ḏr.t":5898,"▁450295|Nfr":5899,"▁86210|nḥb.t":5900,"▁168250|":5901,"▁𓊺𓂋":5902,"▁𓇋𓐩𓆓":5903,"-(n-)":5904,"-ḫnt.ꞽw":5905,"▁600421|tp.ꞽ-ḏw=f":5906,"tstelle)":5907,"▁171990|tm":5908,"▁Textstelle)":5909,"▁184630|ḏr.t":5910,"<g>D286</g>":5911,"▁𓊩𓁹":5912,"▁(Personen":5913,"▁(Titel:)":5914,"▁𓊹𓊹𓊹𓊹𓊹𓊹𓊹𓊹𓊹":5915,"▁Ehefr":5916,"▁882299|Nꜥr-mr\r\n":5917,"bḥ.w":5918,"sꜣ":5919,"wꞽ\r\n":5920,"zt":5921,"äus":5922,"üch":5923,"ühl":5924,"Ḫnt.ꞽ":5925,"▁u":5926,"▁𓂚":5927,"▁𓄚":5928,"▁𓇩":5929,"ꜣw.t":5930,"𓀭\r\n":5931,"𓄿\r\n":5932,"𓇳𓏤":5933,"𓏰𓏰":5934,"▁Natron":5935,"▁411":5936,"▁sbꜣ":5937,"▁sitz":5938,"▁(an":5939,"▁(aber":5940,"▁weil":5941,"-n.t-":5942,"▁79":5943,"▁101950|":5944,"▁Hem":5945,"▁626":5946,"ichtet":5947,"▁rdi̯":5948,"▁r(m)":5949,"30|m":5950,"30|ꜥ":5951,"<g>V":5952,".t-ḥw":5953,"allen":5954,"etj":5955,"▁ḏr.t":5956,"▁dem.m.pl":5957,"0|ꞽr.ꞽ-pꜥ.t":5958,"▁1813":5959,"▁1308":5960,"ürf":5961,"ompl":5962,"▁ꞽm.t":5963,"▁1489":5964,"|ꞽm.ꞽ":5965,"▁nfr-ḥtp":5966,"▁dich,":5967,"060|ꞽr.ꞽ-pꜥ.t":5968,"-ḫtm.t":5969,"▁Chnum":5970,"-Ptah.\r\n":5971,"6170|":5972,"▁𓅜𓐍":5973,"ische":5974,"eicht":5975,"ꜣ-ꜥ-nb.tꞽ\r\n":5976,".ꞽ-tp-ꜥꜣ":5977,"▁Maat":5978,"▁Upu":5979,"𓂝𓏏𓏯":5980,"▁jeden":5981,"60|sḫm":5982,"▁ꞽwi̯.n":5983,"▁Seschemnefer":5984,"edjem":5985,"▁Djed":5986,"▁142160|sḫm":5987,"▁𓋴𓏏𓈙\r\n":5988,"▁Kleidung,":5989,"-Fest,":5990,"▁𓉓𓏖":5991,"▁𓈍𓂝":5992,"▁Mitte":5993,"▁𓊐𓊪":5994,"▁(du)":5995,"▁V:ptcp.post-m.sg":5996,"▁ẖr(.ꞽ)-ḥ(ꜣ)b(.t)":5997,"▁141500|sḫ":5998,"▁gesagt":5999,"▁126290|zꜣ":6000,"▁135420|smr":6001,"▁94060|ꞽr.ꞽ-pꜥ.t":6002,"▁850763|mrr.w-nb=f":6003,"ḥm.t-nṯr-Ḥw.t-Ḥr.w":6004,"▁148990|s":6005,"▁126290|zꜣu̯":6006,"(.t":6007,"-ex":6008,".äg.":6009,"37|":6010,"80|ꞽn":6011,"cl":6012,"ez":6013,"e\r\n":6014,"eck":6015,"lt":6016,"oben":6017,"sḫ":6018,"s.tꞽ":6019,"wn.w":6020,"ḏꜣi̯":6021,"ḥn":6022,"ṯ.t":6023,"▁𓂊":6024,"▁𓋞":6025,"ꜥḥꜣ":6026,"𓆓𓆑":6027,"𓆝𓈘":6028,"𓈇𓏤\r\n":6029,"𓈉\r\n":6030,"𓉐𓉐":6031,"𓉲\r\n":6032,"𓎡𓂋":6033,"𓐟𓏤":6034,"▁864":6035,"▁md":6036,"-n(.ꞽ)":6037,"▁ḥsb":6038,"ange":6039,"geben":6040,"▁Adj":6041,"▁400070|wr":6042,"▁8522":6043,"20|ḥr":6044,"0740|":6045,"▁hꜣi̯":6046,"▁habe":6047,"▁pẖr":6048,"▁127":6049,"▁gut":6050,"70|q":6051,"▁Wein":6052,"4|Ḥtp":6053,"ehandl":6054,"▁Ohr":6055,"88|":6056,"6|ẖr.t":6057,"amen":6058,"▁den,":6059,"▁Inn":6060,"▁𓎛𓌨":6061,"8|N":6062,"▁Fing":6063,"▁ADJ-ex":6064,"ungs":6065,"▁V\\ptcp.act.m.sg\r\n":6066,"▁Königs)":6067,"n.w.PL":6068,"▁$n":6069,"▁verhinder":6070,"▁Gott.\r\n":6071,"▁ḫꜣi̯":6072,"▁qbḥ":6073,"ändig":6074,"▁Ka\r\n":6075,"▁stẖ":6076,"▁ẖr.ꞽ":6077,"▁𓅭𓏤":6078,"▁ẖkr.t-nswt":6079,"▁gehen.\r\n":6080,"▁Siegler":6081,"▁8557":6082,"▁𓍹𓇳𓄤𓂓𓍺\r\n":6083,"▁𓏌𓎢":6084,"▁nfr-kꜣ-rꜥw\r\n":6085,"▁400330|Nfr-kꜣ-Rꜥw\r\n":6086,"▁mögest":6087,"ḫnt.ꞽ-š":6088,"▁wḏꜣ":6089,"▁𓍯𓏏":6090,".t-ꞽb":6091,"▁(Unter":6092,"▁𓈎𓂋𓌠𓋴𓊭":6093,"▁ḫft(.ꞽ)":6094,"▁sagt:\r\n":6095,"▁𓉻𓂝𓄿":6096,"▁500066|ẖr.t":6097,"▁94530|rmṯ":6098,"▁ꞽr.t-ḥr.w":6099,"▁(ꜣ)s.t":6100,"▁𓅘𓎛𓃀𓏏𓄹":6101,"▁größer":6102,".t-ꞽtꞽ=s\r\n":6103,"▁170900|tp":6104,"▁400005|mr.y":6105,"▁(Personenbeischrift:)":6106,"▁148990|sṯꞽ":6107,"▁400070|wr-mḏ-Šmꜥ.w":6108,"▁ADJ-excl":6109,"):":6110,"-ꜣ":6111,"Kꜣ\r\n":6112,"bo":6113,"bt":6114,"gꜣ":6115,"grei":6116,"k.t":6117,"kenn":6118,"m.w":6119,"sel":6120,"tin":6121,"trei":6122,"zꞽ\r\n":6123,"öh":6124,"šš":6125,"▁𓌐":6126,"▁𓌖":6127,"𓄿𓏲":6128,"𓈒𓈒":6129,"𓏃𓏏𓈙":6130,"steh":6131,"ender":6132,".w-tꜣ":6133,"▁nh":6134,"▁swꜣ":6135,"▁sḥtp":6136,"▁sn.t":6137,"▁82":6138,"▁mächtig":6139,"▁ꞽ(w)":6140,"▁ḥt":6141,"00|zp":6142,"eig":6143,"▁𓇋𓂻":6144,"▁𓇋𓏤":6145,"▁Halle":6146,"60|wḏ":6147,"▁613":6148,"▁𓋴𓐟𓄿":6149,"icht,":6150,"▁rs":6151,"▁zḫ":6152,"20|bꜣ":6153,"<g>E":6154,"▁Ew":6155,"-ḥz":6156,"-ḥr.w\r\n":6157,"▁ḏḏ":6158,"▁Or":6159,"ḥri̯":6160,"legt":6161,"▁𓁷𓁶":6162,"▁𓎛𓅬":6163,"-sḫ":6164,"▁könig":6165,"schw":6166,"▁𓉘𓆢":6167,"▁145":6168,"titel":6169,"▁$ḏ":6170,"06</g>":6171,"-pr-ḥḏ":6172,"0890|":6173,"▁Unas'":6174,"ann)":6175,"▁aller":6176,"▁8847":6177,"▁ḏd.t":6178,"▁ẖr.ꞽ-ḥ":6179,"▁𓅱𓂧":6180,"ḫm-sk\r\n":6181,"ucher":6182,"𓏏𓏤\r\n":6183,"210</g>":6184,"wn.w\r\n":6185,"▁nḏri̯":6186,"▁𓏎𓈖𓈖":6187,"▁𓊪𓏲\r\n":6188,"▁'D":6189,"▁'G":6190,"▁26680|ꞽn":6191,"-mḏꜣ.t":6192,"▁155450|":6193,"lange,":6194,"30|nḥm":6195,"▁𓋴𓌉𓂖":6196,"▁ꞽr.t.DU":6197,"▁𓋴𓂧𓄢":6198,"▁gemäß":6199,"▁ꞽmn.t(ꞽ).t":6200,"▁𓉐𓉻𓅓𓂋":6201,"𓂓𓂓𓂓":6202,"▁N:pl\r\n":6203,"▁gerechtfertigt,":6204,"118</g>":6205,"30|ḏbꜥ":6206,"▁132300|zp":6207,"▁sterben.\r\n":6208,"𓈏𓈏𓈏":6209,"▁Speisen":6210,"▁𓉡𓊹𓍛":6211,"30|ḥwi̯":6212,"00|ḫꜣi̯":6213,"▁Höfl":6214,"▁𓇏𓏏𓏭":6215,"▁empfangen":6216,"▁𓁶𓈋𓆑":6217,"▁musst":6218,"▁52820|bꜣ":6219,"▁𓋴𓇛𓈖𓆓":6220,"▁113400|ḫꜣi̯":6221,"▁183430|ḏbꜥ":6222,"▁101950|ḥꜥ.w":6223,"▁86430|nḥm":6224,"▁155450|šni̯":6225,"(r)":6226,"-Sch":6227,"090|":6228,"106</g>":6229,"8</g>":6230,"8920|":6231,"902|":6232,"Mn":6233,"Wr":6234,"at,":6235,"des":6236,"lick":6237,"n.\r\n":6238,"öch":6239,"šr\r\n":6240,"šr.t":6241,"ḥd":6242,"▁𓄙":6243,"▁𓌞":6244,"ꞽ.w":6245,"𓂓𓊂\r\n":6246,"𓅓𓏲":6247,"𓆱\r\n":6248,"𓇍𓎸":6249,"𓋀𓅂":6250,"𓍔𓄿":6251,"𓐍𓄪":6252,"▁di̯.n":6253,".w-š-pr-ꜥꜣ":6254,"m.(ꞽ)":6255,"▁40061":6256,"▁(O":6257,"▁(so":6258,"▁wꞽ":6259,"▁wandeln":6260,"▁789":6261,"▁𓈖𓐍":6262,"getr":6263,"▁𓇋𓆑":6264,"▁𓋴𓌳":6265,"▁8562":6266,"40|n":6267,"▁zẖꜣ":6268,"<g>R":6269,"<g>S":6270,"▁𓂋𓂧":6271,"▁p.t\r\n":6272,"▁Beiden":6273,"rot":6274,"▁152710|":6275,"Unter":6276,"▁𓎛𓁷𓂋":6277,"8|Ꜥ":6278,"▁882902|":6279,"▁nb-ꞽmꜣḫ":6280,"▁𓉘𓂓𓊂\r\n":6281,"▁1416":6282,"▁80011|":6283,"lich)":6284,"▁(das":6285,"▁Kai-n":6286,"3|Kꜣ=ꞽ":6287,"▁450119|S":6288,"▁gehör":6289,"trau":6290,"iebt":6291,"ilde":6292,"221|":6293,"▁rḏi̯.t":6294,"-ḥr.ꞽ":6295,"71|m":6296,"▁Hauses":6297,"-mḏḥ.w":6298,"▁Frau":6299,"▁Senedjem":6300,"▁sḥḏ-ḥm(.w)-kꜣ":6301,"▁58710|p.t\r\n":6302,"▁Gutsvorsteher":6303,"zꜣ.t-nswt":6304,"▁850804|":6305,"$-Bruch":6306,"▁Würdige":6307,"▁Nase":6308,".(t)":6309,"▁𓃞𓇍𓎸":6310,"▁Platz":6311,"𓌠𓌠𓌠":6312,"𓏐𓏊𓏖":6313,"▁181400|ḏ.t\r\n":6314,"▁Ehrwürdigkeit":6315,"▁119180|ḫnt.ꞽ-ꞽmn.tꞽw":6316,"ädel":6317,"▁𓅧𓈎":6318,"20|ꞽwf":6319,"▁22520|ꞽwf":6320,"▁𓍋𓅓𓂋𓅪":6321,"▁168250|gs":6322,"▁78900|n":6323,"▁152710|Š":6324,"▁882902|Kꜣ\r\n":6325,"▁80011|ḫr":6326,"▁𓃞𓇍𓎸𓈖\r\n":6327,",\r\r\n":6328,"080|":6329,"18|":6330,"57|":6331,"660|":6332,"96|":6333,"Grg":6334,"fol":6335,"ipp":6336,"nis":6337,"sk":6338,"ser":6339,"sšm":6340,"y.t\r\n":6341,"zw\r\n":6342,"š.t":6343,"šms.w":6344,"▁𓃫":6345,"▁𓏠":6346,"▁Öl":6347,"ꜥ-mdw":6348,"𓁷𓏤":6349,"𓂋𓆵":6350,"𓃀𓋴":6351,"𓅱𓏭":6352,"𓇠\r\n":6353,"𓊨𓊨":6354,"𓌢𓌢":6355,"𓏏𓀋":6356,"𓏏𓇋\r\n":6357,"𓏲𓀁":6358,"▁Pe":6359,"▁mḏḥ.w":6360,"▁(o":6361,"▁wḥm":6362,"▁ḥtm":6363,"▁100130|":6364,"iel":6365,"gegen":6366,"▁𓇋𓆓":6367,"▁𓇋𓊃":6368,"▁Hals":6369,"▁𓅓𓆱𓐍𓏏":6370,"auer":6371,"90|ḏ":6372,"▁Gest":6373,"▁Gerst":6374,"▁546":6375,"▁gbb\r\n":6376,"▁gmi̯.n":6377,"-ꜥḏ-mr":6378,"▁Weg":6379,"▁Bauch":6380,"▁1167":6381,"▁1108":6382,"▁176":6383,"▁1727":6384,"-wer.\r\n":6385,"6|Nfr":6386,"▁181780|":6387,"▁𓇓𓅱\r\n":6388,"assen,":6389,"29|":6390,"2930|ꞽ":6391,"-sḫm.w":6392,"2|Kꜣ=ꞽ":6393,"▁V\\res-1sg":6394,"27|":6395,"▁𓂝𓂋":6396,"▁𓂝𓈙":6397,"▁𓈖𓏏𓏏":6398,"▁all":6399,"agaz":6400,"73|":6401,"▁2539":6402,"▁ẖr.ꞽ-tp-nswt":6403,"▁𓊹𓋴":6404,"▁Nefer-hetep":6405,"-nfr.t\r\n":6406,"13|ḥm-nṯr-":6407,"+(md":6408,"▁450178|":6409,"▁𓈙𓆄":6410,"▁ihm,":6411,"▁geht":6412,"▁𓂋𓂝𓄤":6413,"▁𓉐𓂋𓂻":6414,"-ka\r\n":6415,"▁Bringen":6416,"▁882278|Ꜥ":6417,"▁grün":6418,"▁𓊪𓏏𓇯\r\n":6419,"-ka.\r\n":6420,"▁N.f:du:stc":6421,"3760|":6422,"▁hast.\r\n":6423,"96</g>":6424,"-zẖꜣ.ww-ꜥ-n-nswt":6425,"▁167010|Gbb\r\n":6426,"mdw.t":6427,"▁𓌳𓐙𓂝𓏏𓏯":6428,"▁sterben":6429,"Wp-wꜣ.wt":6430,"▁109620|ḥ":6431,"▁z(my).t":6432,"▁𓈖𓆓𓐩":6433,"▁Gefolgs":6434,"▁(ꞽ)r(.ꞽ)-p":6435,"▁52060|wḏ":6436,"▁𓇋𓏎𓈖":6437,"80|ꜥq":6438,"▁Schmuck":6439,"▁Gründung":6440,"▁66260|mꜣ-ḥḏ\r\n":6441,"-n.ꞽ-nswt\r\n":6442,"▁102730|ḥwi̯":6443,"▁78030|mdw.t":6444,"▁(Aber)":6445,"▁41180|ꜥq":6446,"▁(Untersuchung:)":6447,"▁𓋴𓂧𓄢𓉲\r\n":6448,"▁Höfling":6449,"▁100130|ḥꜣ":6450,"▁181780|ḏꜣi̯":6451,"-sḫm.wꞽ\r\n":6452,"agazin":6453,"▁25390|ꞽm.ꞽ":6454,"+(mdw)":6455,"▁450178|Rꜥw":6456,"▁109620|ḥzi̯":6457,"▁52060|wḏ+(mdw)":6458,"\".\r\n":6459,"(ʾ":6460,"(.PL":6461,"-2":6462,"-ṯ":6463,"-Unter":6464,"940|r":6465,"?\"\r\n":6466,"Ch":6467,"Ptḥ":6468,"aat":6469,"bar":6470,"ihr":6471,"kn.w":6472,"t.t":6473,"uief":6474,"ḥꞽ":6475,"ṯn\r\n":6476,"▁𓄫":6477,"▁𓎂":6478,"𓃀𓎺":6479,"𓅓𓂜":6480,"𓇋𓂋":6481,"𓇓𓅱":6482,"𓇹𓇼":6483,"𓌳𓐙":6484,"en!\r\n":6485,"▁=t":6486,"m.y":6487,"▁807":6488,"▁40021":6489,"▁ḥḏ":6490,"0|ꞽwꜣ":6491,"unter":6492,"eite":6493,"▁Ha":6494,"▁645":6495,"▁8514":6496,"▁dessen,":6497,"50|n":6498,"▁ḫm":6499,"usd":6500,"▁hier":6501,"70|wḏ":6502,"-mn":6503,"▁Em":6504,"▁328":6505,"4|r":6506,"4|ꞽm.ꞽ-rʾ":6507,"▁Morgen":6508,"▁ꜥḏ-ꞽb\r\n":6509,"▁1123":6510,"onder":6511,"6|Ḥ":6512,"sn\r\n":6513,"▁denen":6514,"(.wꞽ)":6515,"▁kenn":6516,"hrist":6517,"▁107521|":6518,"▁<g>F":6519,"▁<g>O":6520,"▁<g>S":6521,"▁nfr-sšm":6522,"indest":6523,"utz":6524,"▁Christ":6525,"▁95940|r":6526,"i̯.t(ꞽ)":6527,"▁851508|":6528,"00|ṯꜣz":6529,"▁𓄤𓆑":6530,"▁69590|":6531,"▁Jahr":6532,"04|wꜣḏ":6533,"75|n":6534,"▁𓌃𓅓":6535,"▁sagst":6536,"▁Gren":6537,"▁𓇋𓏏𓆑":6538,"▁𓇋𓌳𓄪𓐍𓅱𓐍𓂋":6539,"▁sḫ.tꞽ":6540,"▁Lebens":6541,"<g>M3":6542,"▁181401|":6543,"▁qrs":6544,"▁jener":6545,"▁Krank":6546,"▁weißen":6547,"▁Nasen":6548,"▁Tjen":6549,"▁450161|wr.t\r\n":6550,"▁𓍲𓈖":6551,"▁liebt,":6552,"▁𓌡𓂝":6553,"▁62200|p":6554,"▁Busiris,":6555,"▁86301":6556,"▁51970|wḏ":6557,"▁Rede":6558,"▁82260|Nb.t-ḥw.t":6559,"▁𓄃𓏲𓏛𓏥":6560,"▁600304|wꜣḏ":6561,"▁176800|ṯꜣz":6562,"▁450295|Nfr\r\n":6563,"▁(aber)":6564,"▁141500|sḫ.tꞽ":6565,"▁61370|p":6566,"▁850804|ꞽs":6567,"▁882278|Ꜥḏ-ꞽb\r\n":6568,"(ʾ)":6569,"▁32830|ꞽ":6570,"▁107521|ḥr":6571,"▁851508|ẖr":6572,"(.y":6573,".)t":6574,"31|":6575,"48|":6576,"51|":6577,"68|":6578,"890|":6579,"970|":6580,"lagen":6581,"q.t\r\n":6582,"sr.t":6583,"äck":6584,"ḫt\r\n":6585,"ṯ.w":6586,"▁𓂔":6587,"▁𓄭":6588,"▁𓅮":6589,"▁𓈋":6590,"▁𓎝":6591,"▁𓏂":6592,"▁𓆤𓏏":6593,"▁aber":6594,"▁𓍑𓄿":6595,"▁𓌠𓌠𓌠":6596,"ꜣꜥ.t":6597,"𓄣𓄣":6598,"𓄣𓊂\r\n":6599,"𓋴𓋴":6600,"𓋴𓌮":6601,"𓎛𓇋":6602,"▁dm":6603,"▁snḏm-ꞽb\r\n":6604,"▁msḏr":6605,"▁400271|":6606,".ꞽt":6607,"▁wꜣg":6608,"-n)":6609,"acken":6610,"▁1007":6611,"00|m":6612,"eis":6613,"ord":6614,"aut,":6615,"▁856":6616,"▁zerst":6617,"▁Kör":6618,"30|s":6619,"▁ḫꜥ":6620,"19|ꞽm.ꞽ-rʾ":6621,"▁pzn":6622,"▁gmm":6623,"70|pꜣ":6624,"-mšꜥ":6625,"▁3sg.m":6626,"▁30890|":6627,"▁Wü":6628,"▁Wie":6629,"▁ꜥḥꜣ":6630,"82|nb-":6631,"▁1711":6632,"88|n.ꞽ":6633,"▁1806":6634,"▁1328":6635,"leute":6636,"▁Ist":6637,"13A</g>":6638,"▁150740|":6639,"wi̯=f\r\n":6640,"ichtig":6641,"▁𓐍𓐍𓐍":6642,"▁2850":6643,"▁𓆓𓆑":6644,"▁nb.t\r\n":6645,"ung)":6646,"?),":6647,"▁78875|n":6648,"▁𓎟𓇾":6649,"▁𓎟𓍋":6650,"ḥm-nṯr":6651,"▁ṯn":6652,"n.w-ꜣḫ":6653,"87|":6654,"▁1853":6655,"810|mr":6656,"▁𓊨𓏏𓉐":6657,"𓅱𓏏𓊖":6658,"urz":6659,"tm.w\r\n":6660,"äng":6661,"▁883":6662,"▁st\r\n":6663,"epter":6664,"-bꜣ":6665,"re.\r\n":6666,"▁läß":6667,"▁ḥtp-ḏi̯-nswt":6668,"▁𓈙𓈙":6669,"▁𓈎𓃀":6670,"▁71810|mr":6671,"▁ꞽyi̯.n":6672,"-ḥtp\r\n":6673,"Mri̯":6674,"-ḥr(.ꞽ)":6675,"▁𓇍𓈖":6676,"11|rḏi̯":6677,"▁Aufwär":6678,"▁ꜣḫ.t\r\n":6679,"-mr.y\r\n":6680,"▁𓌨𓂋𓏭":6681,"▁400982|nb-":6682,"-zẖꜣ.w(w)":6683,"▁850713|ḥm-nṯr-":6684,"▁850788|n.ꞽ":6685,"▁28410|ꞽr.t-Ḥr.w\r\n":6686,"▁𓏃𓈖𓏏":6687,"zẖꜣ.w-ꜥ-n-nswt":6688,"|ꜣḫ.t\r\n":6689,"▁<g>G13":6690,"▁Kai-h":6691,"▁450419|ꞽm.ꞽ-rʾ":6692,"▁𓌳𓁹𓄿𓄿":6693,"▁nb-ḏd":6694,"▁Vorlesepriester,":6695,"▁𓄞𓂧":6696,"esser":6697,"70|ꞽꜥr":6698,"▁𓋴𓍿𓎤":6699,"▁𓅠𓅓𓅓":6700,"▁V~rel.ipfv.f.sg":6701,"▁Berge":6702,"▁(?;":6703,"▁Rücken":6704,"▁851711|rḏi̯":6705,"▁45580|":6706,"▁172360|tn":6707,"▁Narmer":6708,"▁21770|ꞽꜥr":6709,"▁136620|=snꞽ":6710,"▁Feuer":6711,"▁108830|ḥr.ꞽ-sštꜣ":6712,"▁r(m)ṯ":6713,"▁Seschemnefer.\r\n":6714,"▁Adjib\r\n":6715,"▁450119|Snḏm-ꞽb\r\n":6716,"▁Christusd":6717,"▁61370|pḥ":6718,"▁400271|Mr":6719,"▁30890|Ꞽ":6720,"▁28500|ꞽr.ꞽ":6721,"▁850713|ḥm-nṯr-Ḫwi̯=f-wꞽ":6722,"▁450419|ꞽm.ꞽ-rʾ-zẖꜣ.ww-ꜥ-n-nswt":6723,"(t)":6724,"-Chnum\r\n":6725,"53|":6726,"dꜣ":6727,"fꜣ.w":6728,"gi̯":6729,"hotep":6730,"höh":6731,"iter":6732,"iag":6733,"kn.w\r\n":6734,"ssen":6735,"seschem":6736,"tj":6737,"ty":6738,"ui\r\n":6739,"wr\r\n":6740,"▁Ö":6741,"▁𓀻":6742,"▁𓄲":6743,"▁𓉠":6744,"▁𓌴":6745,"Ꞽwn.w\r\n":6746,"𓄪𓐍":6747,"𓅱𓈖":6748,"𓍿\r\n":6749,"𓎗𓌗":6750,"𓎛𓁷𓂋":6751,"𓏇𓇋":6752,"𓏛𓏥\r\n":6753,"𓏤𓏏":6754,"ständig":6755,"▁Pyram":6756,"▁808":6757,"▁meinen":6758,"▁ꞽꜥ":6759,"▁ꞽꞽ":6760,"010|ꞽz":6761,"▁(R":6762,"▁(von":6763,"▁wsr":6764,"▁wahr":6765,"▁76230|":6766,"▁20":6767,"▁𓈖𓈞":6768,"▁Stier":6769,"60|sn.t":6770,"▁𓅓𓂜":6771,"auern":6772,"▁reinig":6773,"▁zer":6774,"20|t":6775,"▁ḫpi̯":6776,"▁𓂋𓂋":6777,".tꞽw":6778,"▁ptḥ":6779,"▁123420|":6780,"ellen":6781,"alten":6782,"-ḥ(w)i̯":6783,"▁geöffn":6784,"-ḫwi̯=f-wꞽ":6785,"▁PREP-adjz:f.pl":6786,"▁tn":6787,"▁führ":6788,"▁Lob":6789,"achte":6790,"edet":6791,"▁ḥtp.t":6792,"msḏr":6793,"▁𓊃𓐍":6794,"▁1854":6795,"▁ihn,":6796,"▁𓅱𓈙":6797,"▁Neferseschem":6798,"▁26140|ꞽ":6799,"▁V\\tam.pass:stpr":6800,"walt":6801,"▁Duft":6802,"▁ja":6803,"grg":6804,"▁ḫnt.ꞽ-š":6805,"▁7104":6806,"ḫti̯":6807,"bringen":6808,"▁Brü":6809,"▁Versorgten":6810,"▁58770|pꜣ":6811,"▁10130|=ṯn\r\n":6812,"▁-2pl\r\n":6813,"▁Um":6814,"-tꜣ-ḏsr":6815,"fluß":6816,"▁ḥꜣ.tt":6817,"▁𓋴𓌮𓄤":6818,"▁203|ꜣḫ\r\n":6819,"▁kꜣ(=ꞽ)-ḥ(w)i̯":6820,"▁V~ptcp.distr.pass":6821,"▁108300|":6822,"ieder)":6823,"▁𓇋𓂝𓃀𓎺":6824,"▁93320|rꜥw-nb\r\n":6825,"▁verbin":6826,"▁31010|ꞽz":6827,"▁450296|Nfr":6828,"-sšm-Rꜥw\r\n":6829,"▁𓇼𓄿":6830,"▁150110|sḏ":6831,"▁art:m.sg":6832,"▁109680|ḥ":6833,"▁Schwest":6834,"▁Balsamierer":6835,"▁ḥm(.t)-nṯr-ḥw.t-ḥr.w":6836,"▁ewiglich.\r\n":6837,"▁Nephthys":6838,"▁44000|wꞽ":6839,"▁𓌃𓂧𓏏𓀁":6840,"▁72840|mrḥ.t":6841,"nose":6842,"▁Nicht-Unter":6843,"▁136260|sn.t":6844,"VARA":6845,"▁707693|Kꜣ=ꞽ":6846,"▁untersuchst,":6847,"▁𓇏𓏏𓏭𓀀":6848,"▁𓋴𓇛𓈖𓆓𓅓":6849,"▁Senedjem-ib.\r\n":6850,"Grg.t-":6851,"▁nfr-sšm-rꜥw\r\n":6852,"▁Krankheit,":6853,"▁62200|pzn":6854,"▁185370|ḏ":6855,"▁Kai-huief":6856,"iagnose":6857,"▁76230|msḏr":6858,"▁123420|ẖnm":6859,"▁Neferseschemre.\r\n":6860,"▁450296|Nfr-sšm-Rꜥw\r\n":6861,"▁109680|ḥsi̯":6862,"▁Nicht-Untergehen":6863,"▁707693|Kꜣ=ꞽ-ḥ":6864,"(-n)":6865,"-Ḫ":6866,"-dw":6867,"160|":6868,"30":6869,"5A</g>":6870,"840|":6871,"95|":6872,"97|":6873,"mal":6874,"smꜣ":6875,"t.w":6876,"š.t\r\n":6877,"▁𓋳":6878,"▁fern":6879,"ꜥ(.t)":6880,"ꞽw":6881,"𓂓𓏏𓀋":6882,"𓄑𓄑":6883,"𓋴𓎡":6884,"stück":6885,"▁Nacht":6886,"▁=tn":6887,"▁43010|":6888,"▁-1pl":6889,"▁sb":6890,"▁sẖ":6891,"▁sḫr":6892,"m.PL":6893,"▁4002":6894,"▁wsꞽr\r\n":6895,"▁wšb":6896,"-nḏ":6897,"-n-ẖ":6898,"▁ḥw":6899,"▁732":6900,"eif":6901,"▁Hin":6902,"▁Singen":6903,"▁683":6904,"▁𓅓𓏇":6905,"▁𓋴𓐍":6906,"▁𓋴𓏏\r\n":6907,"▁rmn":6908,"20|d":6909,"50|ḏ.t":6910,"▁𓂋𓎗𓌗":6911,"aden":6912,"▁bel":6913,".t-wr.t":6914,"▁hoch":6915,"▁heute":6916,"▁1200":6917,"▁gmi̯":6918,"70|w":6919,"-ꞽtꞽ":6920,"-wpw":6921,"▁erreich":6922,"▁1311":6923,"▁du,":6924,"▁1526":6925,"▁𓁷𓄣":6926,"▁šmi̯":6927,"ꜣb.tꞽ":6928,"▁ꞽmn":6929,"▁Res":6930,"▁𓍿\r\n":6931,"▁Schr":6932,"▁Schesch":6933,"-nb.y\r\n":6934,"▁𓉘𓎚":6935,"▁𓎟𓀀":6936,"▁<g>A":6937,"▁<g>R":6938,"▁<g>U":6939,"▁𓊃𓃀":6940,"▁pri̯.n":6941,"▁pri̯.t":6942,"▁mr-ꞽb\r\n":6943,"▁𓂝𓏏":6944,"srf":6945,"810|nb":6946,"$-L":6947,"DU\r\n":6948,"Nfr-ḥtp":6949,"▁40116":6950,"▁𓂧𓂋":6951,"▁(wieder)":6952,"sfest":6953,"▁Götter.\r\n":6954,"▁𓂋𓂝𓏏":6955,"▁𓌨𓎛𓃀":6956,"▁𓈖𓏏𓋌\r\n":6957,"▁Meret":6958,"▁60004":6959,"▁(w)sr(.w)\r\n":6960,"▁Siegel":6961,"▁8555":6962,"▁𓇓𓏏𓂋𓐍𓏏":6963,"11|ḥꜣ":6964,"▁nḏ.n":6965,"ischi":6966,"Schädel":6967,"▁sḏr":6968,"▁rꜥw-wr\r\n":6969,"▁103750|":6970,"▁400979|":6971,"▁kommen":6972,"▁𓐙𓊤︂\r\n":6973,"▁450017|":6974,"▁20000":6975,"▁67830|mꞽ":6976,"▁86118":6977,"▁Geliebte,":6978,"▁7067":6979,"▁Wunde)":6980,"Ꜣbḏ.w":6981,"|mr.yt":6982,"▁ꞽmꜣḫ.wt":6983,"▁119260|ḫnt.ꞽ-zḥ-nṯr":6984,"▁𓄤𓆑𓂋\r\n":6985,"▁ꞽm.ꞽ-wt":6986,"▁einziger":6987,"▁1083":6988,"▁400511|ḥꜣ":6989,"▁𓈎𓂋𓋴":6990,"▁Chentischi":6991,"▁Würde":6992,"▁Gerechtfertigte.\r\n":6993,"▁Tjet":6994,"▁𓍹𓐍𓅱𓆑𓅱𓍺𓊹𓍛":6995,"▁𓍒𓄿":6996,"▁227|ꜣḫ.t\r\n":6997,"▁sṯ(ꞽ)":6998,"▁sagen:\r\n":6999,"▁Gau):":7000,"wdp.w":7001,"Ḏd.w\r\n":7002,"▁𓅜𓐍𓏏𓇿":7003,"▁Feind":7004,"▁(Behandl":7005,"▁Ra-wer.\r\n":7006,"▁𓌸𓂋𓂋𓎟𓆑":7007,"▁34810|":7008,"▁160330|q":7009,"keit,":7010,"▁n(ꞽ).t\r\n":7011,"▁ḥ(n)q.t":7012,"▁181350|ḏ.t":7013,"▁82810|nb":7014,"▁(ꞽ)r(.ꞽ)-pꜥ(.t)":7015,"▁25390|ꞽm.ꞽ-wt":7016,"▁450178|Rꜥw-wr\r\n":7017,"▁95940|rs":7018,"𓋴𓌮𓅓\r\n":7019,"▁10070|=":7020,"▁Narmer\r\n":7021,"▁400271|Mr-ꞽb\r\n":7022,"𓎛𓁷𓂋𓅃":7023,"iagnose:)":7024,"▁73290|m":7025,"▁103750|ḥb":7026,"▁400979|ḥm.t-nṯr-Ḥw.t-Ḥr.w":7027,"▁450017|Š":7028,"▁861183|Wꜣḏ.w\r\n":7029,"-sw":7030,"2</g>":7031,"3920|":7032,"540|":7033,"59|":7034,"84|r":7035,"mnḫ":7036,"rä":7037,"tk":7038,"zmꜣ":7039,"Ḏḥw.t":7040,"ḏnn.t":7041,"ḥ.tꞽ":7042,"▁𓉲":7043,"▁𓊏":7044,"▁𓈏𓈏𓈏":7045,"Ꞽm.ꞽ":7046,"𓀜𓀀":7047,"𓂋𓏲":7048,"𓅪𓀀":7049,"𓅱𓊖\r\n":7050,"𓆣𓂋":7051,"𓉿𓉿":7052,"𓍢𓍢":7053,"𓎰\r\n":7054,"er)":7055,"stand":7056,"▁Nin":7057,"▁Per":7058,"▁Voll":7059,"▁=2":7060,"▁nm":7061,"▁nꜥr-mr\r\n":7062,"▁snb":7063,"▁mnꞽ":7064,"-n(=ꞽ)\r\n":7065,"eiter":7066,"▁𓈖𓇦𓂋":7067,"▁Har":7068,"▁Stel":7069,"▁𓋴𓌢":7070,"au.\r\n":7071,"▁400084|r":7072,"▁8535":7073,"irk":7074,"irn-)":7075,"▁503":7076,"▁516":7077,"kꜣ.t":7078,"▁Kl":7079,"▁ba":7080,"▁En":7081,"etjer\r\n":7082,"▁318":7083,"▁Wag":7084,"▁Mach":7085,"▁Mögen":7086,"▁ḏnn.t":7087,"-r(ʾ)":7088,"▁1113":7089,"▁179":7090,"▁𓊪𓈙𓈖":7091,"-wsr":7092,"▁ꞽr(.ꞽ)":7093,"▁184340|":7094,"▁auch":7095,"ders":7096,"ar.\r\n":7097,"▁1372":7098,"▁1393":7099,"▁ḥr(.w)":7100,"▁𓎛𓅱":7101,"▁šf":7102,"▁šm":7103,"▁Länder":7104,"▁Fel":7105,"▁Fall":7106,"-rʾ-pr":7107,"▁55150|":7108,"▁163760|":7109,"▁91900|r":7110,"▁Neu":7111,"▁𓎟𓇿":7112,"044|":7113,"▁107520|ḥr":7114,"▁ꞽwꜣ":7115,"▁ꞽwn.w\r\n":7116,"▁𓊃𓏏":7117,"nm.t":7118,"87</g>":7119,"▁185300|":7120,"▁verw":7121,"810|ṯꜣz":7122,"𓈖𓏏𓁶":7123,"$-H":7124,"30|ꞽsṯ":7125,"sḏ.t\r\n":7126,"▁𓅱𓄋":7127,"▁=sn(ꞽ)":7128,"▁𓂓𓏤":7129,"▁(ꞽ)m(.ꞽ)-r(ʾ)":7130,"▁𓅓𓂋𓂓𓏏𓀋":7131,"▁N.f:pl\r\n":7132,"▁tp.ꞽ-ḏw=f":7133,"▁=ṯ\r\n":7134,"▁702960|Nꞽ.t\r\n":7135,"▁ꞽri̯.y":7136,"▁𓏇𓈖":7137,"▁war.\r\n":7138,"▁Stät":7139,"▁hinab":7140,".t-pr-ḥḏ":7141,"▁10120|=ṯ\r\n":7142,"▁-2sg.f\r\n":7143,"▁Gutes":7144,"▁𓇋𓊪𓏝":7145,"▁𓄋𓊪":7146,"▁𓅬𓃀\r\n":7147,"▁70966":7148,"▁V\\res-3sg.f\r\n":7149,"bḥ.t-ḥtp":7150,"heiten":7151,"▁Tho":7152,"urcht":7153,"▁𓁹𓏏𓏤𓎛𓁷𓂋𓅃":7154,"00|pẖr":7155,"▁22160|ꞽwꜣ":7156,"-dwꜣ":7157,"ährend":7158,"▁10060|=fꞽ\r\n":7159,"▁𓈝𓅓":7160,"▁rd.DU":7161,"▁𓐍𓊪𓂻":7162,"<g>U1":7163,"▁Neunheit":7164,"▁steht":7165,"▁Dieser":7166,"▁Bruder,":7167,"▁181400|ḏ.t":7168,"▁(Hirn-)":7169,"echemui\r\n":7170,"▁450223|":7171,"▁Hathor,":7172,"▁61900|pẖr":7173,"▁Monat":7174,"-sḏr-kꜣ\r\n":7175,"▁Wesir":7176,"▁ꞽꜣwi̯(.w)":7177,"▁Säbelantilope.\r\n":7178,"▁61490|p":7179,"<g>(unidentified)</g>":7180,"▁𓆓𓈖𓈖𓏏𓁶":7181,"▁Älte":7182,"▁22850|Ꞽwn.w\r\n":7183,"▁wünscht,":7184,"▁Ehefrau,":7185,"▁𓎛𓌨𓃀":7186,"▁ẖr.ꞽ-ḥ(ꜣ)b":7187,"▁400614|ꜥnḫ":7188,"▁Kai-ni-n":7189,"▁152710|Šw":7190,"▁176810|ṯꜣz":7191,"▁𓈙𓆄𓅱":7192,"4|ꞽm.ꞽ-rʾ-kꜣ.t-nb.t-n.t-nswt":7193,"▁69590|mn":7194,"▁Lobpr":7195,"▁185370|ḏs":7196,"▁𓉘𓎚𓄣𓊂\r\n":7197,"▁401164|ꞽm.ꞽ-rʾ-kꜣ.t-nb.t-n.t-nswt":7198,"▁34810|ꜥꜣ":7199,"Ḏḥw.tyt":7200,"▁31830|ꞽsṯ":7201,"▁184340|ḏnn.t":7202,"▁55150|bw.t":7203,"▁163760|ky":7204,"▁185300|Ḏḥw.tyt":7205,"▁𓅓𓂋𓂓𓏏𓀋𓎟":7206,"▁(Hirn-)Schädel":7207,"-F":7208,"-hꜣ":7209,".kw":7210,"/S":7211,"143":7212,"220|":7213,"8000|":7214,"=sn\r\n":7215,"Pr":7216,"Rn":7217,"Wꜣg":7218,"dlichen":7219,"ege":7220,"eder":7221,"gb":7222,"pss":7223,"sverwalter":7224,"▁𓆭":7225,"▁𓊗":7226,"▁𓏖":7227,"▁𓐜":7228,"▁𓇥𓂋":7229,"▁𓉲𓎱":7230,"ꜥꜥ":7231,"𓂝𓈖":7232,"𓄹𓄹":7233,"𓈗\r\n":7234,"𓈙𓂋":7235,"𓐎𓏥":7236,"▁sš":7237,"▁400221|":7238,"▁(zu":7239,"▁wṯz":7240,"-nn":7241,"▁ḥbs":7242,"iegen":7243,"▁717":7244,"▁76170|":7245,"▁𓈖𓎛":7246,"orus":7247,"▁Stern":7248,"60|f":7249,"10|Wꜣg":7250,"▁𓋴𓊵𓏏𓊪":7251,"▁400030|r":7252,"▁8534":7253,"40|snḏ":7254,"▁zwar":7255,"▁Komm":7256,"30|ḫ":7257,"▁besch":7258,".t-N":7259,"▁pšn":7260,"▁307":7261,"4|Nfr-ḥtp":7262,"-rꜥ":7263,"▁ꜥš":7264,"-ḫft":7265,"▁174480|":7266,"▁𓊪𓊃":7267,"98|":7268,"▁1838":7269,"-kꜣ=f\r\n":7270,"▁𓇓𓂋𓐍𓏏":7271,"▁1317":7272,"▁1324":7273,"-nṯr-nb.tꞽ\r\n":7274,"▁𓎛𓎡":7275,"▁šn":7276,"▁šmꜥ":7277,"▁ššꞽ\r\n":7278,"-s.t-":7279,"▁(ꞽ)m.(ꞽ)":7280,"▁1662":7281,"▁ky":7282,"17D</g>":7283,"schm":7284,"90|nʾ.t":7285,"msꜣḏ.t":7286,"274|Nfr-ḥtp":7287,"▁(dann)":7288,"▁vereinig":7289,"▁verschl":7290,"920|ꜥḥꜣ":7291,"6460|":7292,"urück":7293,"▁Kapel":7294,"▁ḥtp-di̯":7295,"▁𓊹𓀭":7296,"▁𓂓𓎛𓇋":7297,"▁4011":7298,"▁𓃀𓃀":7299,"21|mr.yt":7300,"▁𓈙𓋴":7301,"▁(?)\r\n":7302,"2650|":7303,"▁snf":7304,"▁710":7305,"▁mꜣꜥ.t":7306,"▁𓂋𓂝𓅨\r\n":7307,"eiligt":7308,"omänen":7309,"▁𓌃𓂧𓅱":7310,"-sšr.w":7311,"brech":7312,"▁550321|mr.yt":7313,"gehör":7314,"8970|":7315,"▁45053":7316,"▁Gehör":7317,"▁umf":7318,"▁𓌸𓂋𓈘":7319,"▁V\\res-2sg.m\r\n":7320,"▁𓏠𓈖𓐍":7321,".ꞽ-ḥꜣ.t":7322,"▁Frau,":7323,"▁Absch":7324,"▁Mahl":7325,"Ḥtp-sḫm.wꞽ\r\n":7326,"▁V\\tam.act-compl":7327,"ḫrp-ḥr.ꞽ":7328,"▁<g>G29A</g>":7329,"-ꞽr-kꜣ":7330,"▁713274|Nfr-ḥtp":7331,"▁𓋴𓍋𓌡":7332,"ufen":7333,"▁Stad":7334,"▁879":7335,"▁Gerechtfertigte,":7336,"▁wpi̯-w":7337,"▁𓎛𓂝𓄹𓏥":7338,"▁=3sg.c\r\n":7339,"▁Ni-s":7340,"▁147350|st\r\n":7341,"▁Sem-Priester":7342,"▁z(my.)t":7343,"▁mrr(.w)":7344,"H̱nm.w":7345,"▁Blut":7346,"𓄊𓋴𓂋":7347,"▁138740|snḏ":7348,"▁39920|ꜥḥꜣ":7349,"▁leibliche":7350,"▁43510|Wꜣg":7351,"▁𓉺𓏌𓊖\r\n":7352,"𓄤𓆑𓂋\r\n":7353,"<g>I14":7354,"▁\"Einer":7355,"▁wirklich":7356,"-ḫnt.ꞽw-š-pr-ꜥꜣ":7357,"▁nfr-ḥtp-ẖnm.w\r\n":7358,"▁𓏌𓎢𓀀":7359,"▁𓊹𓋴𓍿":7360,"▁Nefer-hetep-Chnum\r\n":7361,"(.PL)":7362,"▁80890|nʾ.t":7363,"VARA</g>":7364,"▁43010|wꜣḥ":7365,"-n-ẖ.t=f":7366,"▁Scheschi.\r\n":7367,"▁450017|Ššꞽ\r\n":7368,"▁𓊪𓈙𓈖𓏴":7369,"▁450223|zꜣ-nswt":7370,"▁400221|ḥqꜣ":7371,"▁76170|msꜣḏ.t":7372,"▁174480|ṯꜣ":7373,"▁183850|ḏ":7374,"▁131760|z":7375,"▁713274|Nfr-ḥtp-H̱nm.w\r\n":7376,"-pass":7377,"/G":7378,"/d":7379,"1010|":7380,"22|":7381,"83|":7382,"Sn":7383,"hd":7384,"jahr":7385,"ke,":7386,"m.t\r\n":7387,"ph":7388,"sḫ.t":7389,"samm":7390,"wnḫ":7391,"z.t\r\n":7392,"šms":7393,"ḏw\r\n":7394,"▁𓂘":7395,"▁𓍈":7396,"▁?)":7397,"▁𓉿𓉿":7398,"𓃀𓏴":7399,"𓃀𓅡𓄿":7400,"𓅱𓊖":7401,"𓇥𓊂\r\n":7402,"𓍿𓊃":7403,"𓐪𓂧":7404,"str":7405,"▁441":7406,"▁mr.w":7407,"▁ꞽꜣ.t.PL":7408,"▁(ihr":7409,"▁wnḫ":7410,"▁Türf":7411,"ied":7412,"0|ꞽm.ꞽ-rʾ":7413,"gegangen":7414,"550|ꞽ":7415,"▁𓇋𓆛":7416,"60|w":7417,"▁634":7418,"▁63920|":7419,"▁𓅓𓆱𓏏":7420,"▁𓋴𓊪":7421,"40|ḥri̯":7422,"1|wꜥ":7423,"▁Korn":7424,"50|znf":7425,"▁bꞽꜣ":7426,"▁beg":7427,"▁1212":7428,"80|t":7429,"▁317":7430,"▁Wen":7431,"▁Miter":7432,"▁ḏꜣi̯":7433,"430|ꞽp":7434,"03|":7435,"att":7436,"8820|":7437,"▁ꞽr.t-ḥr":7438,"▁138920|":7439,"▁fest":7440,"▁Königst":7441,"09|ꞽ":7442,"ꜣb.t\r\n":7443,"edjer":7444,"▁Unr":7445,"▁88226":7446,"old":7447,"▁kön":7448,"172|":7449,"▁𓇓𓏏𓏞𓂝𓏝":7450,"▁64371|m":7451,"▁𓉘𓇥𓊂\r\n":7452,"▁1449":7453,"▁1428":7454,"▁𓎟𓏏\r\n":7455,"▁ṯḥ":7456,"▁𓊃𓈙":7457,"nmm.t":7458,"▁Erh":7459,"endet":7460,"▁Herren":7461,"441|ꞽ":7462,"▁50000":7463,"▁𓂝𓂝":7464,"𓈖𓏏\r\n":7465,"▁2510":7466,"▁sie,":7467,"wrr":7468,"▁mꜣ.n":7469,"𓅱𓏏\r\n":7470,"▁schwar":7471,"▁70292":7472,"0|ꞽri̯+(":7473,"▁Zeit":7474,"uch)":7475,"▁𓅭𓀀":7476,"3990|":7477,"▁vorf":7478,"242|":7479,"▁𓃀𓈞":7480,"▁𓃀𓏲":7481,"▁Oberägypten":7482,"▁24430|ꞽp":7483,"7500|":7484,"leich":7485,"▁ꞽri̯.w":7486,"▁45027":7487,"▁Neferkare,":7488,"angtitel":7489,"▁rꜥw-nb\r\n":7490,"▁𓄟𓈖":7491,"▁kommt,":7492,"▁30750|ꞽḫ.t\r\n":7493,"▁𓇾𓈇𓏤\r\n":7494,"▁851441|ꞽ":7495,"ḥb.w":7496,"eth)":7497,"▁Gutsverwalter":7498,"▁𓈞𓅓":7499,"▁ober":7500,"▁𓇋𓏶𓏏":7501,"70|sꜣ":7502,"▁lebt,":7503,"▁𓇋𓊪𓈖":7504,"▁Ach-G":7505,"▁Beam":7506,"930|dwꜣ":7507,"▁𓇬𓏘𓏘":7508,"-ꞽmn.tꞽw\r\n":7509,"▁gegeben,":7510,".ꞽ-ḏw=f\r\n":7511,"▁(ꞽ)r(.ꞽt-ꞽ)ḫ.t-nswt":7512,"▁gekommen.\r\n":7513,"▁90360|nṯr-ꜥꜣ\r\n":7514,"▁(Seth)":7515,"▁𓋾𓉞":7516,"▁𓄞𓏏":7517,"▁ausgest":7518,".(y)t":7519,"-nḫt.w":7520,"▁𓍛𓏤𓅆":7521,"▁Cheops,":7522,"▁V\\res-3pl.m\r\n":7523,"werk":7524,"▁Boden":7525,"recken":7526,"▁Steh":7527,"▁Glieder":7528,"▁𓊃𓈖𓆑":7529,"▁𓋴𓐍𓏏𓇏":7530,"▁177930|dwꜣ":7531,"▁(Fest),":7532,"▁Ewigkeit":7533,"▁königlichen":7534,"ippen":7535,"▁𓂋𓂝𓄤𓋴𓌮𓅓\r\n":7536,"▁181401|ḏ.t\r\n":7537,"▁150740|sḏr":7538,"▁𓈙𓈙𓇋\r\n":7539,"▁108300|ḥr.ꞽ":7540,"▁68330|mꞽ":7541,"▁108340|ḥri̯":7542,"▁73290|mḥ":7543,"▁137250|znf":7544,"▁Neujahr":7545,"▁61490|pḥ.wꞽ":7546,"▁Abscheu":7547,"▁Türflügel":7548,"▁63920|fnḏ":7549,"▁64371|m-m":7550,"▁25100|ꞽmꜣḫ.w":7551,"-D":7552,"-Ꞽnp.w":7553,".du":7554,"/F":7555,"100":7556,"790|":7557,"8040|":7558,"93|":7559,"91|ꞽ":7560,"ahl":7561,"bꜣ.w":7562,"dp.t":7563,"ete":7564,"for":7565,"fr.w\r\n":7566,"führ":7567,"h.t":7568,"kḥ":7569,"m-ꜥ":7570,"m-wr":7571,"od":7572,"pꞽ\r\n":7573,"qꜣi̯":7574,"rḫ":7575,"sꞽ\r\n":7576,"sen.\r\n":7577,"w.w":7578,"zẖꜣ":7579,"ḫ\r\n":7580,"▁〈":7581,"▁𓈀":7582,"▁𓋎":7583,"ꞽr":7584,"𓄿𓈖":7585,"𓅪𓏥":7586,"𓊵𓌂𓌂":7587,"𓋴𓂻":7588,"𓍋𓊂\r\n":7589,"𓎛𓅱":7590,"𓏒𓏥":7591,"er\r\n":7592,"stift":7593,"▁Nä":7594,"▁Nut,":7595,"▁=n":7596,"chet\r\n":7597,"▁n.ꞽ-sw":7598,"▁sḫꜣ":7599,"▁sꜥḥ":7600,"esen":7601,"▁wem":7602,"▁wdi̯":7603,"▁ḥw.t":7604,"anfang":7605,"▁𓈖𓏥":7606,"▁𓇋𓀁":7607,"▁𓇋𓇩":7608,"▁ir":7609,"▁iß":7610,"▁Heil":7611,"10|p":7612,"r.w.PL":7613,"▁859":7614,"plitter":7615,"▁r-ḏr":7616,"▁Gei":7617,"kꜣ.w\r\n":7618,"tp.ꞽ":7619,"50|q":7620,"30|nw":7621,"▁ḫtm":7622,"▁beh":7623,"▁1247":7624,"70|šwi̯":7625,"▁Ent":7626,"-ꜥ-nswt":7627,"80|rʾ":7628,"-ḥw":7629,"▁ḏsr":7630,"▁ḏḥw.t":7631,"genommen":7632,"onnen":7633,"-ꞽm":7634,"-ꞽt":7635,"-ꞽmn.t":7636,"6|Kꜣ":7637,"6|wnn":7638,"rochen":7639,"00|nḏ":7640,"▁400006|wnn":7641,"16</g>":7642,"▁𓎛𓈎𓏏":7643,"8|ḫrp-ḥr.ꞽ":7644,"▁Lieb":7645,"▁Lebt":7646,"edarf":7647,"ung/":7648,"175":7649,"17|ꞽm.ꞽ-rʾ-pr":7650,"▁Ro":7651,"▁Ru":7652,"▁𓇓𓏏𓅭":7653,"▁Schutz":7654,"-nbw":7655,"▁𓁹𓇋𓇋":7656,"▁nfr.(w)t":7657,"00|r-ḏr":7658,"ott":7659,"▁nṯr-ꜥꜣ\r\n":7660,"▁𓂝𓈖":7661,"▁Opfern":7662,"▁verklär":7663,"$-P":7664,"nḏ.t":7665,"▁mꜣ-ḥḏ\r\n":7666,"▁𓆼𓄿":7667,"och)":7668,"<g>D2":7669,"▁\"I":7670,"▁𓋹𓈖":7671,"▁Totenstift":7672,"▁(Diagnose:)":7673,"▁also":7674,"▁693":7675,"▁69660|":7676,"▁(ꞽ)m(.ꞽ)-rʾ-zẖꜣ.w(w)":7677,"0|ꞽm.ꞽ-ḫt":7678,"▁167750|":7679,"▁Götterhalle":7680,"▁ḫntꞽ":7681,"-šnw":7682,"▁Mer-ib.\r\n":7683,"▁Armen":7684,"▁𓇍𓌸":7685,"▁𓊵𓏏𓊪𓏏":7686,"▁ms.w":7687,"▁msꜣḏ.t":7688,"▁550317|ꞽm.ꞽ-rʾ-pr":7689,"00|sḫr":7690,"1|ꞽm.ꞽ-rʾ":7691,"▁92580|rʾ":7692,"▁92500|r-ḏr":7693,"▁ꜣḫ.PL\r\n":7694,"▁110360|ḥ":7695,"▁Fremd":7696,"▁𓍯𓄿":7697,"<g>O2":7698,"▁𓊢𓂝𓂻":7699,"▁Vater,":7700,"▁Fest,":7701,"▁𓏶𓅱𓏏𓊖":7702,"▁<g>G106</g>":7703,"-ḫnt.w-š-pr-ꜥꜣ":7704,"-qd\r\n":7705,"▁ḥꜣ.t(ꞽ)":7706,"▁𓋴𓂧𓈄":7707,"▁400261|n":7708,"▁dauer":7709,"▁𓏃𓏏𓊹𓉱\r\n":7710,"▁bring":7711,"-snb":7712,"▁ḥqꜣ-ḥw.t":7713,"▁𓎛𓃀𓌨":7714,"▁V~rel.ipfv.m.sg":7715,"▁𓌳𓐙𓂝":7716,"▁33040|Ꞽtm.w\r\n":7717,"▁𓇳𓎟\r\n":7718,"-hetepu.\r\n":7719,"▁Plät":7720,"▁ADJ:m.pl\r\n":7721,"▁Atum,":7722,"▁𓎛𓆰𓈖":7723,"-nebti\r\n":7724,"▁Mangel":7725,"▁<g>E143":7726,"▁(indem/w":7727,"▁geschützt":7728,"▁882338|ḫrp-ḥr.ꞽ":7729,"▁Herrscher":7730,"▁𓈎𓂋𓌠𓋴𓊭𓏏":7731,"▁80730|nw":7732,"▁400216|Ꞽ":7733,"▁Grenze":7734,"▁Aufwärter":7735,"▁Christusdorn":7736,"▁Brüder":7737,"▁verbinden.\r\n":7738,"▁152670|šwi̯":7739,"▁600041|wꜥ":7740,"▁10070|=n":7741,"▁ba-mächtig":7742,"▁Lobpreis":7743,"-ḫft-ḥr":7744,"▁ḥtp-di̯-nswt":7745,"▁400221|ḥqꜣ-ḥw.t":7746,"▁183850|ḏfꜣ":7747,"▁142800|sḫr":7748,"▁702922|Kꜣ=ꞽ":7749,"▁25100|ꞽmꜣḫ.wt":7750,"▁69660|mn":7751,"▁550317|ꞽm.ꞽ-rʾ-pr-wr":7752,"-Ḥw.t-Ḥr.w":7753,"53":7754,"66|":7755,"7960|":7756,"bꞽꜣ":7757,"domänen":7758,"gan":7759,"hol":7760,"i-mer":7761,"meister":7762,"pš":7763,"pw.t":7764,"qr\r\n":7765,"s.ꞽ":7766,"u-nefer":7767,"w.w\r\n":7768,"wehr":7769,"ähn":7770,"öpf":7771,"▁ü":7772,"▁𓀘":7773,"▁𓋀":7774,"▁𓌮":7775,"▁𓇹𓇼":7776,"𓂋𓂻":7777,"𓂐𓏥":7778,"𓃥𓅷":7779,"𓏏𓏯":7780,"▁Ni-":7781,"enden,":7782,"▁ng":7783,"▁nmt":7784,"▁süß":7785,"m.DU\r\n":7786,"▁mw\r\n":7787,"▁m(ꞽ)":7788,"▁40024":7789,"▁wꜣ.t":7790,"▁wr\r\n":7791,"▁ḥmꜣ":7792,"▁Ta":7793,"iegel":7794,"00|Wp":7795,"▁𓈖𓎟":7796,"▁𓇋𓎛":7797,"▁Sitz":7798,"▁Sucher":7799,"▁𓅓𓅓":7800,"▁𓋴𓏭":7801,"90|Tp":7802,"▁re":7803,"▁reinen":7804,"▁zmꜣ":7805,"50|d":7806,"50|tꜣ":7807,"30|ẖ":7808,"▁𓂋𓐍":7809,"▁gan":7810,"▁El":7811,":m.du":7812,"▁34550|":7813,"4|wꜥb":7814,"▁Mein":7815,"▁gek":7816,"43|ꞽm.ꞽ-rʾ":7817,"▁Bit":7818,"nꞽ.t":7819,"▁1718":7820,"6|ꞽm.ꞽ-rʾ":7821,"▁1340":7822,"asse":7823,"▁König,":7824,"bereich":7825,"▁1504":7826,"ꜣ.wt\r\n":7827,"▁𓐍𓅱":7828,"▁Fuß":7829,"05|ꞽ":7830,"▁88289":7831,"ef.\r\n":7832,"▁Re.\r\n":7833,"▁Schiff":7834,"▁Scheun":7835,"▁𓎟𓊽":7836,"▁<g>X3A</g>":7837,"050|s":7838,"-pr.wꞽ":7839,"tꜣ-ḏ":7840,"▁2518":7841,"920|wr":7842,"▁gibt.\r\n":7843,"▁siehe,":7844,"mꜣḫ.wt":7845,"▁Auft":7846,"<g>D15":7847,"▁ꜥnḫ.t":7848,"ꜣḫ.w":7849,"▁ẖnw":7850,"▁Oberdomänen":7851,"(ꜣ)\r\n":7852,"▁𓌳𓄿":7853,"▁𓈎𓈖":7854,"▁mꜣꜥ.t\r\n":7855,"▁tꜣ.tꞽ-zꜣb-ṯꜣ.tꞽ":7856,"▁𓉐𓂋𓈖":7857,"4240|":7858,"▁nḏm":7859,"▁werde.\"\r\n":7860,"▁67770|mꞽ":7861,"▁𓍿𓈖𓏥":7862,"▁103|":7863,"mꜣꜥ.t\r\n":7864,"▁450097|":7865,"▁𓌢𓈖𓏏":7866,"▁wḏꜥ":7867,"▁𓍯𓎼":7868,"-ḥw.t-ꜥꜣ":7869,"60|ꞽsk":7870,"▁dafür":7871,"▁frisch":7872,"▁70530|":7873,"70|sḫm":7874,"10|gꜣu̯":7875,"80|ẖkr.t-nswt":7876,"▁ꜥꜣ.DU":7877,"▁Geliebte":7878,"-qed":7879,"▁ḥm-nṯr-ḫwi̯=f-wꞽ":7880,"▁ꜣpd.PL":7881,"$-Schlange":7882,"▁wt.ḫr":7883,"19|pr":7884,"▁47920|wr":7885,"▁142170|sḫm":7886,"60|ḥtp.t":7887,"▁𓁹𓏏𓏤𓅃":7888,"▁𓈗\r\n":7889,"▁wohl":7890,"2|ꞽmꜣḫ.w-ḫr":7891,"▁n.ꞽ.t":7892,"▁ṯꜣw":7893,"▁𓄟𓋴𓈖":7894,"▁69000|mw\r\n":7895,"▁45600|Wp":7896,"▁62500|Psḏ.t\r\n":7897,"▁Chenti":7898,"▁(ꞽ)tm(.w)\r\n":7899,"▁𓋭𓊃":7900,"▁ḥꜥ.PL":7901,"▁851809|ꞽ":7902,"▁400419|pr":7903,"▁119180|ḫnt.ꞽ-ꞽmn.tꞽw\r\n":7904,"▁wdp.w":7905,"6|tꜣ.tꞽ-zꜣb-ṯꜣ.tꞽ":7906,"-Re.\r\n":7907,"▁𓂾𓂾":7908,"▁66620|mꜣꜥ.t\r\n":7909,"▁𓐎𓏏𓀜":7910,"▁Begräbnisstätte,":7911,"▁400976|nb-Ꜣbḏ.w\r\n":7912,"▁𓍚𓀜":7913,"60|ḏsr":7914,"▁hohen":7915,"▁Mitte\r\n":7916,"<g>M3B</g>":7917,"▁171190|Tp":7918,"▁45580|Wp-wꜣ.wt":7919,"▁30890|Ꞽḫm-sk\r\n":7920,"▁Öffn":7921,"▁185460|ḏsr":7922,"▁𓋴𓇛𓈖𓆓𓅓𓄣\r\n":7923,"▁160330|qbḥ.w":7924,"▁111360|ḥtp.t":7925,"▁166210|gꜣu̯":7926,"▁mrr(.w)-nb=f":7927,"▁31760|ꞽsk":7928,"▁Königstoch":7929,"▁450276|tꜣ.tꞽ-zꜣb-ṯꜣ.tꞽ":7930,"▁Ach-Geister":7931,"▁124780|ẖkr.t-nswt":7932,"▁ḏḥw.t(":7933,"▁882338|ḫrp-ḥr.ꞽ-ꞽb\r\n":7934,"▁400246|Kꜣ":7935,"▁34550|ꜥ.t":7936,"▁134020|s":7937,"▁882893|Wꜣḏ.w\r\n":7938,"▁25180|ꞽmi̯":7939,"▁45600|Wp-rnp.t":7940,"▁851809|ꞽri̯":7941,"▁171190|Tp-rnp.t":7942,".ord":7943,"52|":7944,"64|":7945,"75|":7946,"89|":7947,"820|rḫ":7948,"980|":7949,"99|":7950,"Sbk":7951,"band":7952,"bew":7953,"bḥ.w\r\n":7954,"flan":7955,"haft":7956,"ide":7957,"kam":7958,"ner":7959,"ohn":7960,"ogel":7961,"sd":7962,"sam":7963,"ßer":7964,"ßen":7965,"šw.t":7966,"Ḏd.w":7967,"ḫi̯":7968,"ḫtm":7969,"ḫtm.w-bꞽ.tꞽ":7970,"ṯḥ":7971,"▁𓆊":7972,"▁𓇦":7973,"▁𓍘":7974,"ꜣṯ":7975,"ꜣ.w\r\n":7976,"ꜥꜣi̯":7977,"𓀜\r\n":7978,"𓋴𓈖":7979,"𓍘\r\n":7980,"𓎡𓏏":7981,"𓏪\r\n":7982,"stehen":7983,".w.PL\r\n":7984,"prechen":7985,"inge":7986,"inden":7987,"▁nw.t\r\n":7988,"▁nieder":7989,"▁nḫḫ":7990,"▁sḥ":7991,"▁setz":7992,"▁(in":7993,"▁(Sch":7994,"▁wbꜣ":7995,"-n-ꞽr":7996,"-nisut.\r\n":7997,"-nzw\r\n":7998,"▁ḥsi̯":7999,"▁Tef":8000,"▁𓈖𓂋":8001,"▁𓈖𓂜":8002,"558|N":8003,"▁𓆑𓏭\r\n":8004,"▁Set":8005,"▁Ant":8006,"▁629":8007,"▁𓋴𓇮":8008,"▁858":8009,"▁zꜣb-":8010,"▁Gib":8011,"▁513":8012,"50|p":8013,"50|wꜥ":8014,"30|swt":8015,"▁bl":8016,"▁bw.t":8017,".t-m":8018,".t-r":8019,".t-ḫ":8020,"▁hab":8021,"▁124480|":8022,"70|nn":8023,"-ꜥ-(n-)":8024,"80|T":8025,"▁37500|":8026,"-ḥsb":8027,"▁Meine":8028,"ittern":8029,"▁ꜥpr":8030,"▁Besch":8031,"athor":8032,"mꜣ\r\n":8033,"6|k":8034,"6|ꞽ":8035,"6|smꜣ":8036,"▁Horus.\r\n":8037,"(ꞽ)m(.ꞽ)":8038,"▁ttꞽ\r\n":8039,"▁1343":8040,"▁ḥr.ꞽ":8041,"▁Ii-mer":8042,"wi̯\r\n":8043,"ꜣ.w)":8044,"▁šni̯":8045,"▁𓐍𓂋𓏏":8046,"-s.wt":8047,"▁nb.t-ḥw":8048,"7480|":8049,"▁ꞽwf":8050,"▁𓏏𓐍":8051,"00|rḏw":8052,"▁𓊃𓅭":8053,"▁(dem":8054,"140</g>":8055,"änger":8056,"ierig":8057,"▁95820|rḫ":8058,"▁702558|N":8059,"▁𓊹𓉻":8060,"<g>D12":8061,"ucht":8062,"p.t.PL":8063,"▁𓉔𓈖":8064,"3300|":8065,"33C</g>":8066,"▁𓃀𓅱𓏏":8067,"9|Ḏ":8068,"▁tp.ꞽ":8069,"▁Oberar":8070,"▁=ṯn\r\n":8071,"▁Jün":8072,"7580|":8073,"▁88040|nswt\r\n":8074,"▁85321":8075,"▁60047":8076,"sb$-Bruch":8077,"einen)":8078,"▁𓏇𓂋":8079,"▁97200|rḏw":8080,"▁Stein":8081,"▁Stir":8082,"ḫnti̯":8083,"▁n.tt":8084,"▁wn.ꞽn":8085,"▁gesehen":8086,"▁105200|":8087,"▁wꜣḏ.t":8088,"▁ḫrp-ḥr(.ꞽ)":8089,"▁Geb,":8090,"070|ḥ":8091,"-her":8092,"▁ḫnt.ꞽ-zḥ-nṯr":8093,"▁Freund,":8094,"-pẖr":8095,"▁gegenüber":8096,"▁125670|sꜣ":8097,"▁𓆣𓂋𓏏":8098,"▁meinem":8099,"▁ꞽpn":8100,"▁hervorkomm":8101,"ꜣb-sḥḏ":8102,"▁Schlä":8103,"$-Schlange,":8104,"𓆑𓏏𓌪":8105,"▁ꞽri̯.t.n":8106,"▁𓅓𓂋𓉐𓀗":8107,"hyle":8108,"▁8798":8109,"▁Mensch":8110,"▁851316|":8111,"02|Ḥtp-sḫm.wꞽ\r\n":8112,"-wḏꜥ-mdw":8113,"-ptḥ":8114,"▁1827":8115,"zꜣb-ꞽm.ꞽ-rʾ":8116,"obei)":8117,"▁(Toten":8118,"ḥr.ꞽ-ꞽb":8119,"▁𓅜𓅜𓅜\r\n":8120,"30|ḥsb":8121,"▁Thot-Fest,":8122,"▁$ḥsb$-Bruch":8123,"▁52090|":8124,"▁NUM.ord":8125,"▁𓊽𓊽":8126,"▁𓆓𓂝<g>M3B</g>":8127,"▁Wirbel":8128,"▁109830|ḥsb":8129,"▁𓅓𓂋𓇓𓏏𓏞𓂝𓏝":8130,"▁angeht:\r\r\n":8131,"▁882302|Ḥtp-sḫm.wꞽ\r\n":8132,"▁𓆷𓄿":8133,"▁500024|ꞽ":8134,"▁130830|swt":8135,".ꞽ-tp-ꜥꜣ-n":8136,"▁𓍯𓏏𓈐𓈐𓈐":8137,"treiben":8138,"-sḫm.DU\r\n":8139,"▁𓅧𓈎𓂻":8140,"▁110870|ḥ":8141,"▁Körper":8142,"▁709669|Ḏ":8143,"60|fꜣi̯":8144,"▁44150|wꜥ":8145,"▁(ihr)":8146,"▁63460|fꜣi̯":8147,"▁24430|ꞽpn":8148,"▁Geist":8149,"▁behandeln":8150,"▁171880|T":8151,"prechen:\r\n":8152,"▁Tefn":8153,"▁124480|ẖr":8154,"-ꜥ-(n-)nswt":8155,"▁37500|ꜥm":8156,"▁702558|N-sḏr-kꜣ\r\n":8157,"▁105200|ḥmi̯":8158,"▁851316|ḫtm.w-bꞽ.tꞽ":8159,"zꜣb-ꞽm.ꞽ-rʾ-zẖꜣ.ww":8160,"-A":8161,"22|ꞽmꜣḫ.w-ḫr":8162,"410|":8163,"52":8164,"91|":8165,"Mr.w":8166,"a,":8167,"dd":8168,"dest":8169,"gabe":8170,"land":8171,"ling":8172,"nehm":8173,"qu":8174,"sš":8175,"sms.w":8176,"u-":8177,"uft":8178,"welt":8179,"xist":8180,"▁𓃿":8181,"▁𓌎":8182,"▁𓏟":8183,"▁𓆝𓈘":8184,"▁𓐟𓏤":8185,"ꜥḏ-mr":8186,"𓁹𓁹":8187,"𓅓𓏛":8188,"𓅱𓏛𓏥":8189,"𓇓𓅭":8190,"𓈀\r\n":8191,"𓈛𓏏𓊖\r\n":8192,"𓊵𓏏":8193,"𓎟\r\n":8194,"𓐍𓍼":8195,"▁dp.t":8196,"stp":8197,"stag":8198,"▁Nen":8199,"inz":8200,"▁448":8201,"▁nʾ":8202,"▁seh":8203,"▁sꞽꜣ":8204,"▁sehen":8205,"essen":8206,"m.ꞽ\r\n":8207,"▁mü":8208,"▁mꞽ.t":8209,"▁möch":8210,"▁4006":8211,"▁(aus":8212,"▁wbn":8213,"eint":8214,"-ns.tꞽ":8215,"00|ḥm":8216,"▁𓈖𓇋":8217,"gelegen":8218,"▁𓇋<g>D77</g>":8219,"▁𓇋𓈎𓂋":8220,"▁942":8221,"▁=fꞽ\r\n":8222,"▁Sah":8223,"▁8511":8224,"▁8525":8225,"unden.\r\n":8226,"▁rḏw":8227,"20|m":8228,"<g>Z":8229,"▁ist)":8230,"-ꜥb":8231,"▁34750|":8232,"▁Mäch":8233,"-rḫ":8234,"▁getan":8235,"▁geleg":8236,"gend":8237,"▁ꜥ.wꞽ":8238,"▁ꜥḏ-mr":8239,"▁1143":8240,"8280|":8241,"onn":8242,"mꜣꜥ.t":8243,"▁ergrei":8244,"▁1849":8245,"▁tf":8246,"ame":8247,"▁1303":8248,"▁1341":8249,"7|m-ḫt":8250,"ꜣ.wꞽ\r\n":8251,"▁𓎢𓇋𓇋":8252,"▁šwi̯":8253,"▁Furcht":8254,"▁88249":8255,"▁kf.t":8256,"(.t).PL":8257,"▁𓇓𓏏𓏙":8258,"-nb=f\r\n":8259,"▁𓉘𓅃":8260,"de.\r\n":8261,"▁𓏏𓍔𓄿":8262,"▁𓊃𓐍𓂋":8263,"▁Ersch":8264,"77|ꞽm.ꞽ-rʾ":8265,"▁$p":8266,"▁mrḥ.t":8267,"▁𓂝𓃹𓈖":8268,"▁kꜣꞽ\r\n":8269,"8560|":8270,"30|ꞽḫ":8271,"▁Osiris.\r\n":8272,"eschw":8273,"▁Kai.\r\n":8274,"▁stp":8275,"sḏb":8276,"-bꜣ\r\n":8277,"▁70219":8278,"▁𓊹\r\n":8279,"▁vorbei":8280,"▁\"(":8281,"▁\"S":8282,"▁𓅓𓂋𓎧":8283,"▁ꜥnḫ\r\n":8284,"338</g>":8285,"mt.ꞽ":8286,"▁Pepi,":8287,"▁Worte-S":8288,"▁8532":8289,"▁Art":8290,"rḏi̯+(":8291,"wn.ꞽn":8292,"ehrt":8293,"▁N-adjz:f.pl":8294,"▁𓃹𓈖𓇋𓈖":8295,"6|N.ꞽ":8296,"▁'H":8297,"▁Hausvorsteher":8298,"▁𓄟𓅱":8299,"-ꞽb-n":8300,"▁450514|":8301,"eichen":8302,"etzt)":8303,"▁𓌸𓂋𓄣\r\n":8304,"▁𓐙︂":8305,"▁𓐙𓊤︂":8306,"▁𓏠𓈖𓅪":8307,"𓊪𓏏𓎛":8308,"▁gebar.\r\n":8309,"sḥḏ-ḥm.w":8310,"<g>O338</g>":8311,"▁dazu":8312,"▁Ufer":8313,"▁85038":8314,"▁400147|m-ḫt":8315,"▁Wassersp":8316,"70|nḥ":8317,"et-K":8318,"▁850805|ꞽ":8319,"▁850522|ꞽmꜣḫ.w-ḫr":8320,"▁wt.ꞽ":8321,"s.w-nswt":8322,"▁Mutter,":8323,"▁wpi̯-rnp.t":8324,"07|wn.ꞽn":8325,"▁bringen":8326,"▁Tochter,":8327,"2|ꞽri̯":8328,"▁𓍱𓎟":8329,"▁𓅠𓅓𓈖":8330,"▁Ausfluß":8331,"▁Abydos":8332,"▁80940|Nw.t\r\n":8333,"▁111260|ḥtp.w\r\n":8334,"▁𓏏𓍃𓅓":8335,"▁angeht,":8336,"▁liebt":8337,"▁Speise":8338,"𓊹𓊹𓊹𓊹𓊹𓊹𓊹𓊹𓊹𓊹𓊹𓊹𓊹𓊹𓊹𓊹":8339,"▁650007|wn.ꞽn":8340,"▁𓋭𓏤":8341,"▁84570|nn":8342,"▁86570|nḥ":8343,"▁𓎼𓂋𓍅":8344,"▁400112|ꞽri̯":8345,"▁66620|mꜣꜥ.t":8346,"▁Befehl":8347,"▁Geschenk":8348,"▁𓎡𓄿𓇋\r\n":8349,"▁ḏbꜥ.PL":8350,"ꞽm.ꞽ-rʾ-pr-ḥw.t-ꜥꜣ.t":8351,"▁𓌟𓏤":8352,"efflich":8353,"▁500066|ẖr.t-nṯr":8354,"▁Ort,":8355,"▁𓎛𓅬𓏏":8356,"▁𓉘𓆢𓍋𓊂\r\n":8357,"▁(o)":8358,"90|ḏr.w":8359,"▁Jahres":8360,"▁Schrein":8361,"▁<g>R118</g>":8362,"▁(Behandlung:)":8363,"-rʾ-pr-wr":8364,"▁30730|ꞽḫ":8365,"▁(ꞽ)m.(ꞽ)-rʾ-pr-wr":8366,"▁174480|ṯꜣw":8367,"▁𓂘𓅜":8368,"▁ꞽr.t-ḥr(.w)":8369,"▁Neujahrstag":8370,"▁400216|Ꞽbꞽ\r\n":8371,"▁702922|Kꜣ=ꞽ-n.ꞽ-nswt\r\n":8372,"▁Oberdomänenvorsteher":8373,"▁ḏḥw.t(y)t":8374,"▁400246|Kꜣꞽ\r\n":8375,"▁zꜣb-(ꞽ)m(.ꞽ)":8376,"▁34750|ꜥꜣi̯":8377,"▁184990|ḏr.w":8378,"▁Worte-Sprechen:\r\n":8379,"▁450514|ꞽm.ꞽ-rʾ-pr-ḥw.t-ꜥꜣ.t":8380,"▁850805|ꞽs":8381,"▁zꜣb-(ꞽ)m(.ꞽ)-rʾ":8382,"$,":8383,"$.\r\n":8384,"(ꜣ":8385,".)":8386,"/N":8387,"/ein":8388,"115":8389,"640|":8390,"74|":8391,"81|":8392,"830|":8393,"90|ꞽw":8394,"N.ꞽ-sw":8395,"Vorsteher":8396,"a.\r\n":8397,"blick":8398,"ften":8399,"gaben":8400,"kw\r\n":8401,"os":8402,"rꞽ\r\n":8403,"s.w\r\n":8404,"sḫm":8405,"sꜥḥ":8406,"sṯ\r\n":8407,"tn\r\n":8408,"ual":8409,"w.y":8410,"|ꜣ.t":8411,"▁𓈘":8412,"▁𓉞":8413,"▁𓌀":8414,"▁𓐢":8415,"▁𓐣":8416,"▁eben":8417,"▁𓊹𓊹𓊹𓊹𓊹𓊹𓊹𓊹𓊹𓊹𓊹𓊹𓊹𓊹𓊹𓊹":8418,"ꜥꜣ.w":8419,"Ꞽmn":8420,"𓀻\r\n":8421,"𓂋𓀁":8422,"𓂋𓂋":8423,"𓂾𓂾":8424,"𓃀𓂝":8425,"𓄡𓏏𓆑":8426,"𓄿𓀁":8427,"𓅭𓏏":8428,"𓅱𓏌":8429,"𓆙\r\n":8430,"𓌠𓊭":8431,"𓍿𓅱":8432,"𓏏𓂻":8433,"𓏏𓏛":8434,"𓏏𓉜\r\n":8435,"𓐫𓂧":8436,"erung":8437,"▁dbn":8438,"▁darf":8439,"sti̯":8440,"▁Net":8441,"▁Neh":8442,"▁Nahrung":8443,"sgnn":8444,"▁482":8445,"▁nḫ":8446,"▁nꜣ":8447,"▁nꞽ":8448,"▁sꜥnḫ":8449,"▁819":8450,"▁877":8451,"▁md.t":8452,"▁ꞽḫ":8453,"▁während":8454,"▁Den":8455,"▁Dir":8456,"▁ḥkꜣ":8457,"▁Tor":8458,"anden":8459,"ander":8460,"0|ꞽb\r\n":8461,"unk":8462,"▁𓈖𓈙":8463,"▁𓈖𓍇":8464,"▁977":8465,"▁Ho":8466,"▁Hir":8467,"▁Het":8468,"▁Häus":8469,"r.w.PL\r\n":8470,"▁685":8471,"▁621":8472,"▁𓋴𓏠𓈖":8473,"▁𓋴𓊪𓏏":8474,"90|d":8475,"▁8504":8476,"40|ꜥ":8477,"40|ꜥb":8478,"▁rmṯ":8479,"20|ḏ":8480,"▁Ge":8481,"▁Kind":8482,"50|S":8483,"<g>C":8484,"▁bes":8485,"uss":8486,"▁hör":8487,"▁heil":8488,"▁p(w)":8489,"▁gꜣu̯":8490,"etrei":8491,"▁Wahr":8492,"-ḥꜣb":8493,"gen.\r\n":8494,"▁Bö":8495,"-ḫwi̯=f\r\n":8496,"6|Mr":8497,"ḥr.ꞽ-tp-ꜥꜣ-n":8498,"▁𓎛𓈎𓂋":8499,"▁1692":8500,"olist":8501,"▁ꞽmn.tꞽ":8502,"?).\r\n":8503,"▁Rä":8504,"-zkr":8505,"▁𓉘𓊵𓌂𓌂":8506,"▁1414":8507,"▁1411":8508,"en,\r\n":8509,"▁ḥtp\r\n":8510,"iby":8511,"▁ꞽwn":8512,"▁𓏏𓇓𓅭":8513,"▁<g>H":8514,"▁dich!\r\n":8515,"mn.tꞽ\r\n":8516,"0880|":8517,"▁Vorder":8518,"𓈖𓏏𓏏":8519,"nꜥꜥ":8520,"ieren":8521,"wt.ꞽ":8522,"-bau":8523,"▁𓅱𓀀":8524,"▁Za-":8525,"nb.t":8526,"▁sprach":8527,"34</g>":8528,"▁großer":8529,"▁(ꞽ)m(.ꞽ)-rʾ-sš":8530,"grḥ\r\n":8531,"▁ẖn":8532,"▁ꞽbꞽ\r\n":8533,"870|n":8534,"▁7115":8535,"eutet":8536,"-Ptḥ":8537,"-ḥr=s\r\n":8538,"▁𓇍𓇋":8539,"ienen":8540,"▁msi̯.t":8541,"ꞽꜣr.w\r\n":8542,"▁𓃹𓈖𓉿":8543,"▁𓇋𓋴𓍿\r\n":8544,"▁23290|ꞽb\r\n":8545,"▁Neferkare's":8546,"▁V\\res-3du":8547,"▁450596|":8548,"hinit":8549,"▁grḥ\r\n":8550,"halten":8551,"▁Stolist":8552,"ḫnt.ꞽ-":8553,"▁Palastes,":8554,"▁85167":8555,"▁ꞽsṯ\r\n":8556,"|ḥr.ꞽ-sštꜣ":8557,"▁155000|":8558,".t-ꞽmꜣḫ":8559,"▁entfern":8560,"▁frü":8561,"▁Fest),":8562,"▁geschlagen":8563,"▁Landes":8564,"▁𓇋𓌳𓄪𓐍𓅱𓐍𓂋𓊹𓉻":8565,"-ꞽr.ꞽw":8566,"▁exist":8567,"▁104600|ḥm":8568,"▁leidet":8569,"40|sḫm":8570,"Ꞽy-mr.y\r\n":8571,"etwegen":8572,"▁142140|sḫm":8573,"▁(Pächter":8574,"▁𓂻𓅱𓏏":8575,"-ꜣḫ.tꞽ\r\n":8576,"84</g>":8577,"▁Kleidung.\r\n":8578,"ülle":8579,"▁ḥr.ꞽ-sštꜣ-n":8580,"gebie":8581,"▁Gefolge":8582,"Ꞽwn.w":8583,"▁Leinensto":8584,"-(ꞽ)r":8585,"▁Senior-Vorsteher":8586,"▁Weihrauch,":8587,"▁dauern,":8588,"▁herauskomm":8589,"▁(jetzt)":8590,"▁ẖr.t-nṯr":8591,"𓏝𓏝𓏝":8592,"▁Spruch":8593,"▁𓂸𓏏":8594,"(.tꞽ)":8595,"▁Ohren":8596,"▁Innern":8597,"▁qbḥ(.w)":8598,"sšm.w-tꜣ":8599,"▁Pezen":8600,"▁863016|k":8601,"(.y)":8602,"▁𓆤𓏏𓋨":8603,"▁𓌴𓁹":8604,"▁geöffnet":8605,"-wpw.wt":8606,"orus,":8607,".t-Nꞽ.t\r\n":8608,"▁851441|ꞽsṯ\r\n":8609,"▁𓊃𓈖𓆑𓂐𓏥":8610,"▁110360|ḥqꜣ":8611,"▁𓋴𓂧𓈄𓏴":8612,"▁134020|sm":8613,"▁𓈖𓂜𓋴":8614,"▁114300|ḫꜣ":8615,"▁Netcher":8616,"▁𓉘𓊵𓌂𓌂𓊂\r\n":8617,"▁450596|zꜣb-ꞽm.ꞽ-rʾ-zẖꜣ.ww":8618,"▁863016|kf.t":8619,"-Ḥ":8620,"-ir":8621,"00|ꞽ":8622,"3</g>":8623,"90|ꞽ":8624,"990|":8625,"Nḫt":8626,"N.ꞽ-m":8627,"Sꜣ":8628,"Smr":8629,"bi̯":8630,"dauern":8631,"magazin":8632,"nung":8633,"q\r\n":8634,"rn":8635,"r.ꞽ":8636,"s.t-":8637,"sdb":8638,"t.ꞽ\r\n":8639,"upp":8640,"wꜣ.t":8641,"wsr":8642,"w-nfr\r\n":8643,"zer":8644,"zogen":8645,"zepter":8646,"šu̯":8647,"ḥ.PL":8648,"ḥs\r\n":8649,"▁𓀸":8650,"▁𓆈":8651,"▁𓉫":8652,"▁𓊡":8653,"▁𓋔":8654,"▁𓎽":8655,"▁pl":8656,"▁ꜣ.t":8657,"▁𓇦𓂋":8658,"ꜥš":8659,"ꜥꜣ\r\n":8660,"𓀀𓏥\r\n":8661,"𓂉𓀁":8662,"𓄿𓄿":8663,"𓅨𓂋𓏏":8664,"𓇯\r\n":8665,"𓇿𓇿":8666,"𓊃𓈖":8667,"𓋴𓏲":8668,"𓍿𓏏":8669,"𓎢𓅱𓀀":8670,"▁daraufhin":8671,"stell":8672,"▁498":8673,"▁474":8674,"▁496":8675,"▁nḥm":8676,"▁sqr":8677,"▁897":8678,"▁ꞽ.n":8679,"▁ꞽꜣb":8680,"▁ꞽꜥi̯":8681,"▁(\"":8682,"▁(z":8683,"▁Denn":8684,"▁ḥb":8685,"▁ḥqr":8686,"▁72650|":8687,"00|sn":8688,"▁2|ꜣ":8689,"▁𓈖𓄿":8690,"▁𓈖𓐍𓐍":8691,"gem":8692,"▁𓇋𓎁":8693,"▁912":8694,"▁He":8695,"emand":8696,"▁Seh":8697,"auen":8698,"40|š":8699,"20|dm":8700,"▁Gold":8701,"▁542":8702,"ṯrp":8703,"▁Ko":8704,"50|s":8705,"30|sn":8706,"▁ḫtm.w-bꞽ.tꞽ":8707,"▁bek":8708,".tꞽt\r\n":8709,".tꞽ-bꞽ.tꞽ":8710,"70|rʾ":8711,"-m-pr.wꞽ":8712,"▁Ele":8713,"-ꜥ\r\n":8714,"-ꜥ.w":8715,"▁367":8716,"4|ꜣ":8717,"▁Mal":8718,"▁Oh":8719,"▁Betr":8720,"033|":8721,"▁1794":8722,"▁𓊪\r\n":8723,"-ꞽḫ":8724,"-wꞽ":8725,"▁erkenn":8726,"(ꞽ).w":8727,"▁1312":8728,"▁1333":8729,"▁159":8730,"ꜣ.w.PL":8731,"▁𓎢𓏏":8732,"▁𓎛𓂓":8733,"▁𓎛𓏌":8734,"▁𓎛𓏏":8735,"▁šꜣ":8736,"▁𓐍𓅓𓂜":8737,"achten":8738,"49E</g>":8739,"ḫr.t":8740,"▁Rippen":8741,"▁𓍿𓏏":8742,"▁𓇓𓏏𓐬":8743,"740|ꞽr":8744,"▁𓁹𓐍𓂋":8745,"▁𓎟𓅱":8746,"▁Vertrau":8747,"▁ṯz":8748,"ti,":8749,"▁<g>T":8750,"▁$gmꜣ":8751,"06|n":8752,"mn.t\r\n":8753,"andelt":8754,"▁550047|":8755,"pfen":8756,"▁qmꜣ":8757,"▁ihn:\r\r\n":8758,"▁Angelegen":8759,"▁702242|":8760,"▁Zwei":8761,"▁lie":8762,"▁ließ":8763,"▁𓂓𓂓𓂓":8764,"▁\"M":8765,"▁ꜥnḫ-kꜣ(=ꞽ)\r\n":8766,"sen)":8767,"▁leg":8768,"▁daß)":8769,"ubel":8770,"▁Großen,":8771,"▁𓌳𓌉":8772,"▁bist.\r\n":8773,"3590|":8774,"352|":8775,"▁64430|m":8776,"▁unver":8777,"04|sšm.w-tꜣ":8778,"▁7116":8779,"Mr.t-Nꞽ.t\r\n":8780,"▁𓇋𓌳𓐍𓄪":8781,"eil)":8782,"▁ꞽri̯.ḫr":8783,"▁450245|":8784,"ḫnt.ꞽt":8785,"▁550341|":8786,"▁dem.pl":8787,"twor":8788,"▁Neferkare!\r\n":8789,"▁haben.\r\n":8790,"▁waren":8791,"▁pri̯.w":8792,"▁𓌢𓌢𓌢":8793,"▁Seneb":8794,"sḥḏ-ꞽr.ꞽw":8795,"▁70343":8796,"▁𓎼𓂋𓏏":8797,"▁sḥḏ-(ꞽ)r":8798,"30|wṯz":8799,"▁550034|nfr\r\n":8800,"▁ḫpr.t":8801,"▁<g>G2":8802,"▁20360|ꞽ":8803,"▁𓁹𓏏𓅃":8804,"3620|":8805,"▁𓄋𓈐":8806,"šnw.t":8807,"▁Schlacht":8808,"▁850806|n":8809,"40|sp.t":8810,"▁850504|sšm.w-tꜣ":8811,"▁(näm":8812,"▁jenen":8813,"▁𓇓𓏲\r\n":8814,"▁Horusauge.\r\n":8815,"(n)ḏ":8816,"▁𓂻𓅱":8817,"▁𓂻𓏲":8818,"▁lebensvoll,":8819,"▁lebensvoll.\r\n":8820,"60|zwr":8821,"▁Anch-kai\r\n":8822,"akal":8823,"age)":8824,"▁60220|pr\r\n":8825,"-Öl.\r\n":8826,"▁V~rel.ipfv.f.pl":8827,"▁𓃥𓅓𓂋":8828,"▁Berg":8829,"𓂭𓂭𓂭":8830,"Ꜥnḫ-kꜣ=ꞽ\r\n":8831,"▁185290|Ḏḥw.tꞽ\r\n":8832,"üll":8833,"2|Sbk":8834,"▁𓎛𓋴<g>D207</g>":8835,"▁<g>D207</g>𓏭":8836,"▁𓉐𓂋𓏏𓂻":8837,"▁andere":8838,"▁𓐩𓏌":8839,"N.ꞽ-ꜥnḫ":8840,"▁𓋴𓆓𓃀":8841,"▁29740|ꞽr":8842,"-eni\r\n":8843,"80|psi̯":8844,"▁ḥw.t-kꜣ-ḥr.w":8845,"▁(für)":8846,"Ḥw.t-kꜣ-Ḥr.w":8847,"▁(lit.":8848,"▁171460|tp":8849,"▁u.äg.":8850,"▁𓇋𓆑𓄹":8851,"▁msḏr.DU":8852,"▁𓎟𓇾𓂦\r\n":8853,"▁𓎟𓍋𓃀𓈋":8854,"höhlen":8855,"▁(Rangtitel":8856,"▁kꜣ(=ꞽ)-ḥ(w)i̯=f":8857,"▁untersuchst,\r\r\n":8858,"▁Kai-huief,":8859,"▁707693|Kꜣ=ꞽ-ḥwi̯=f":8860,"▁120010|ḫr":8861,"▁<g>US9":8862,"▁82810|nbs\r\n":8863,"▁Wag-Fest":8864,"<g>U116</g>":8865,"▁Kai-ni-nisut.\r\n":8866,"▁132440|sp.t":8867,"▁Stadt":8868,"▁882266|N.ꞽ":8869,"▁könn":8870,"▁500006|N":8871,"00|nḏ.t-ḥr":8872,"▁𓋹𓈖𓐍𓏏":8873,"-šnw.tꞽ":8874,"▁ganzen":8875,"▁51330|wṯz":8876,"▁ḫrp-ḥr(.ꞽ)-ꞽb\r\n":8877,"▁möchte":8878,"▁130360|zwr":8879,"▁850522|ꞽmꜣḫ.w-ḫr-nb=f":8880,"▁𓊹𓊹𓊹𓊹𓊹𓊹𓊹𓊹𓊹𓊹𓊹𓊹𓊹𓊹𓊹𓊹𓊹𓊹":8881,"▁62180|psi̯":8882,"40|ꜥb.w":8883,"▁gꜣu̯.w":8884,"|ḥr.ꞽ-sštꜣ-n":8885,"▁155000|šms":8886,"▁Leinenstoff":8887,"▁72650|mr":8888,"▁91200|nḏ.t-ḥr":8889,"▁36740|ꜥb.w":8890,"▁179420|dm":8891,"▁550047|zẖꜣ.w-ꜥ-n-nswt":8892,"▁702242|Mr.t-Nꞽ.t\r\n":8893,"▁450245|Ꜥnḫ-kꜣ=ꞽ\r\n":8894,"▁550341|pr":8895,"(y":8896,"/b":8897,"1B</g>":8898,"60|ꞽw":8899,"Qꜣ-ꜥ-nb.tꞽ\r\n":8900,"Rʾ":8901,"b.\r\n":8902,"fn":8903,"f\r\n":8904,"hören":8905,"iß":8906,"iders":8907,"jün":8908,"ock":8909,"pft":8910,"qꜣ.t":8911,"sechemui\r\n":8912,"ty.t":8913,"ui.\r\n":8914,"wach":8915,"zelt":8916,"üge":8917,"Ḥn":8918,"ṯ.t\r\n":8919,"ẖnw":8920,"▁𓇑":8921,"▁𓇛":8922,"▁𓋉":8923,"▁𓌙":8924,"▁𓎀":8925,"▁𓏴":8926,"ꜣ.tꞽ":8927,"Ꞽr":8928,"𓂋𓏤":8929,"𓂓𓐍\r\n":8930,"𓂔𓉜\r\n":8931,"𓇋𓊃":8932,"𓇬𓈖":8933,"𓈖𓄓":8934,"𓊖𓏏":8935,"𓊮\r\n":8936,"𓍺,":8937,"eren":8938,"▁Nub":8939,"▁Nacken":8940,"enu":8941,".w-":8942,"▁nš":8943,"▁866":8944,"▁861":8945,"▁m-m":8946,"▁mḥ.t":8947,"▁ꞽs\r\n":8948,"▁ꞽqr":8949,"▁ꞽꜣb.t":8950,"▁40023":8951,"-n.tꞽt":8952,"▁ḥnq":8953,"ieh":8954,"0|ꞽp.t":8955,"▁75":8956,"00|g":8957,"▁205":8958,"eitel":8959,"▁𓇋𓈙":8960,"▁𓇋𓍿":8961,"▁917":8962,"▁Hau":8963,"▁Hör":8964,"emm":8965,"▁Sa":8966,"▁Sesch":8967,"▁Abrech":8968,"▁𓅓𓎔":8969,"▁𓋴𓋴":8970,"▁8585":8971,"|mḏḥ.w":8972,"▁reich":8973,"20|w":8974,"20|sḏ":8975,"▁Gem":8976,"▁58820|":8977,"1|Ḥ":8978,"▁Kuh":8979,"50|ḥ":8980,"50|tp.ꞽ":8981,"30|d":8982,"▁ḫw":8983,"▁𓂋𓅱":8984,"▁blei":8985,"19</g>":8986,"▁handeln":8987,"▁pḏ":8988,"▁gmꜣ":8989,"-m-ḫt":8990,"▁Wind":8991,"4|B":8992,"▁ḏḥw.tꞽ\r\n":8993,"itten":8994,"genehm":8995,"▁ꜥb":8996,"▁ꜥb.w":8997,"▁Bin":8998,"▁Bel":8999,"▁Beb":9000,"▁1106":9001,"▁𓊪𓋴":9002,"-wn":9003,"-wn.t":9004,"6|Ḫnt.ꞽ":9005,"▁ergr":9006,"▁ꞽr.ꞽ":9007,"▁ꞽrr.t":9008,"sn.nw":9009,"▁infol":9010,"artig":9011,"▁ḥr\r\n":9012,"ꜥwn":9013,"▁fäl":9014,"rot,":9015,"assen.\r\n":9016,"=fꞽ":9017,"▁151010|":9018,"▁𓎛𓆑":9019,"▁šdi̯":9020,"▁šms.w":9021,"▁šꜥ.t":9022,"8|Nfr":9023,"-sk":9024,"-sḫm":9025,"▁5502":9026,"efäß":9027,"▁kr":9028,"▁kennt":9029,"1740|":9030,"-zp":9031,"▁Schul":9032,"▁Schakal":9033,"▁142":9034,"▁1407":9035,"▁1463":9036,"▁𓁹𓂋𓏏":9037,"▁𓁹𓏏𓈖":9038,"▁ḥtp-sḫm.DU\r\n":9039,"▁Verb":9040,"▁nicht.\r\n":9041,"lich,":9042,"tion":9043,"▁ꞽwn.w":9044,"▁𓏏𓂋𓆵":9045,"▁<g>P":9046,"110|s":9047,"▁$t":9048,"▁mrw.t":9049,"ḥꜥ\r\n":9050,"ḥꜥi̯":9051,"šmꜥ":9052,"nn.t\r\n":9053,"▁kꜣ.t":9054,"▁ꜣgb":9055,"$-F":9056,"▁𓋴𓈖𓃀":9057,"▁qd":9058,"▁qsn":9059,"▁qꜣ-ꜥ-nb.tꞽ\r\n":9060,"▁Ka.\r\n":9061,"▁1043":9062,"▁zꜣu̯":9063,"nꜥ\r\n":9064,"▁ḏd.ḫr":9065,"-bꞽ":9066,"▁𓊹𓍛":9067,"<g>D210</g>":9068,"▁laß":9069,"▁lassen":9070,"▁𓆓𓂧𓐍𓂋":9071,"▁𓂧𓏏𓏤":9072,"▁𓂧𓊪𓏏":9073,"▁(wenn)":9074,"▁Gottes,":9075,"▁𓅓𓂋𓂖":9076,"▁𓋹𓂓𓐍\r\n":9077,"▁𓃀𓅡𓄿":9078,"▁großes":9079,"21A</g>":9080,"▁immer":9081,"▁𓈙𓈖":9082,"▁gibt:":9083,"▁167200|":9084,"ilf":9085,"▁7105":9086,"▁Meret-":9087,"Mr.y":9088,"▁450255|":9089,"▁550359|":9090,"▁𓅨𓂋𓂋𓏏":9091,"ern.\r\n":9092,"▁sḏb":9093,"50|nb-ꞽmꜣḫ":9094,"▁durchzie":9095,"▁9901":9096,"▁𓐙𓊤\r\n":9097,"▁Palast,":9098,"▁450047|":9099,"▁𓍹𓏏𓏏𓇋𓍺\r\n":9100,"▁ꞽꜣm":9101,"▁851172|":9102,"▁sḥḏ-ḥm(.w)":9103,"pꜣw.t":9104,"▁𓌂𓁷":9105,"▁Hetep-Neith\r\n":9106,"▁Hetep-her":9107,"▁Hetepsechemui\r\n":9108,"▁450656|Ttꞽ\r\n":9109,"▁400096|tꜣ":9110,"070|sꜥḥ":9111,"▁wurde.\r\n":9112,"▁21550|ꞽ":9113,"▁𓇋𓌳𓄪𓐍𓅱𓐍𓂋𓊹":9114,"▁trin":9115,"80|sšmi̯":9116,"574|Ḥtp":9117,"▁713574|Ḥtp":9118,"09|Qꜣ-ꜥ-nb.tꞽ\r\n":9119,"▁𓆓𓏏𓇿":9120,"▁Handwerk":9121,"▁𓋴𓌉𓂋𓐍𓏏":9122,"zug":9123,"kennt":9124,"▁ꞽwi̯.t":9125,"▁𓅓𓏏𓏱":9126,"83|ꞽr":9127,".t-kꜣ(=ꞽ)\r\n":9128,"$-Schlä":9129,"▁zꜣ.t-nswt":9130,"▁850583|ꞽr":9131,"▁(nur)":9132,"<g>G29A</g>":9133,"▁jede":9134,"𓇦𓂋𓂓\r\n":9135,"▁400565|":9136,"𓈎𓂝\r\n":9137,"𓏏𓈉\r\n":9138,"▁129070|sꜥḥ":9139,"▁𓏃𓏏𓊹":9140,"sprech":9141,"▁ḥr(.ꞽ)-sš":9142,"▁wovon":9143,"▁𓉘𓊹𓈖":9144,"▁𓄞𓂧𓏏":9145,"▁srf":9146,"▁machen":9147,"▁𓍿𓊃𓋭":9148,"▁ṯꜣz":9149,"-Öl;":9150,"-tp-nswt":9151,"-ḥw.t-nṯr":9152,"▁882509|Qꜣ-ꜥ-nb.tꞽ\r\n":9153,"▁𓅒𓈎𓂝\r\n":9154,"<g>US9":9155,"▁šzp.n":9156,"▁Neunheiten":9157,"▁𓉓𓏒":9158,"▁Trupp":9159,"▁𓇋𓂧𓂋":9160,"▁bedeutet":9161,"▁Semer":9162,"▁𓆄𓏲":9163,"-mꜣꜥ.t\r\n":9164,"▁1496":9165,"45|ꞽm.ꞽ-rʾ":9166,"▁𓍃𓅓":9167,"▁𓍃𓏏":9168,"▁Einziger":9169,"▁Chontamenti,":9170,"▁davon!\r\n":9171,"▁leiblicher":9172,"-gs-pr":9173,"▁400114|wꜥb":9174,"-bꜣ.w-ptḥ\r\n":9175,"-bꜣ.w-Ptḥ\r\n":9176,"▁123230|ẖ":9177,"▁emporsteigen":9178,"▁171450|tp.ꞽ":9179,"▁klaffen":9180,"zeugt":9181,"𓏰𓏰𓏰":9182,"amens)":9183,"▁ḥt(m)":9184,"▁'Groß":9185,"▁𓏠𓈖𓏏":9186,"▁172700|":9187,"▁𓂝𓂋𓈐":9188,"96</g>𓅱":9189,"▁Gefolgsmann":9190,"▁=t(w)":9191,"▁𓌃𓅓𓂧𓅱":9192,"▁𓊏𓊪":9193,"▁Vollkommen":9194,"▁Thot,":9195,"▁ẖr.ꞽ-ḥ(ꜣ)b(.t)":9196,"▁𓂓𓎛𓇋𓆑":9197,"▁V\\tam.act-compl:stpr":9198,"▁wpi̯-wꜣ.t.PL":9199,"edjer-kai.\r\n":9200,"▁144980|sšmi̯":9201,"▁Erhebe":9202,"▁\"Ich":9203,"▁<g>E143</g>":9204,"▁Aufträ":9205,"▁450097|zẖꜣ.w":9206,"athor.\r\n":9207,"▁tp.ꞽ-rnp.t":9208,"▁Jünger":9209,"ꜣb-sḥḏ-zẖꜣ.ww":9210,"▁NUM.ord:":9211,"▁124480|ẖrd":9212,"▁müde":9213,"▁(aus)":9214,"▁Ausfluß,":9215,"▁81950|nb-ꞽmꜣḫ":9216,"▁68570|mꞽ":9217,"▁𓉫𓃥𓅷":9218,"▁plaz":9219,"-ꞽḫ.t-pr-ḥḏ":9220,"▁$gmꜣ$-Schlä":9221,"sḥḏ-ꞽr.ꞽw-ꞽḫ.t-pr-ḥḏ":9222,"▁sḥḏ-(ꞽ)r(.w":9223,"▁𓃥𓅓𓂋𓏞":9224,"▁882266|N.ꞽ-nṯr\r\n":9225,"▁72650|mrw.t":9226,"▁110660|ḥ":9227,"▁infolge":9228,"▁167200|gmꜣ":9229,"▁450255|sḥḏ-ꞽr.ꞽw-ꞽḫ.t-pr-ḥḏ":9230,"▁550359|sn.nw":9231,"▁450047|Ḏd":9232,"▁21550|ꞽꜥi̯":9233,"▁713574|Ḥtp-Nꞽ.t\r\n":9234,"▁400565|Ꞽnp.w":9235,"▁123230|ẖni̯":9236,"▁$gmꜣ$-Schläfe":9237,"/s":9238,"35|":9239,"60":9240,"6110|":9241,"63|":9242,"6A</g>":9243,"7060|":9244,"940|":9245,"Rwḏ":9246,"bein":9247,"bnꞽ":9248,"eut":9249,"fahr":9250,"g\r\n":9251,"göt":9252,"hi̯":9253,"hꜣb":9254,"iffen":9255,"jen":9256,"km":9257,"kod":9258,"md.t":9259,"nri̯":9260,"ohl":9261,"rr.wt":9262,"smr":9263,"t.ꞽ":9264,"tf.t":9265,"ui":9266,"uten":9267,"wbn":9268,"üm":9269,"Ḥꜣb":9270,"ḥꜣ.w":9271,"Ḫꜥ":9272,"ḫꞽ":9273,"▁𓂙":9274,"▁𓈐":9275,"▁𓊤":9276,"▁𓍉":9277,"▁𓐞":9278,"▁öst":9279,"▁𓈉𓈉":9280,"ꜥšꜣ":9281,"Ꞽz":9282,"𓂋𓇋𓇋":9283,"𓂜𓅓":9284,"𓂧𓃀":9285,"𓃃𓅱𓍺":9286,"𓄯𓄯":9287,"𓅓𓋴":9288,"𓆰\r\n":9289,"𓇋𓄿":9290,"𓇋𓏛":9291,"𓇓𓅱\r\n":9292,"𓈋𓅱":9293,"𓈖𓅪":9294,"𓉗𓉻":9295,"𓉗𓏏𓉐":9296,"𓊪𓂧":9297,"𓊪\r\n":9298,"𓌗𓏛":9299,"𓌙𓅯":9300,"𓎢𓈖":9301,"𓏏𓅂":9302,"eral":9303,".tw":9304,"pr.w":9305,"▁Von":9306,"chen,":9307,"▁462":9308,"▁sn\r\n":9309,"▁sḥm":9310,"▁81|":9311,"▁802":9312,"▁895":9313,"▁mḏ":9314,"▁mr.t":9315,"▁ꞽnt":9316,"▁ꞽb\r\n":9317,"▁ꞽt\r\n":9318,"▁40012":9319,"▁(F":9320,"▁(N":9321,"-netjer":9322,"▁ḥwi̯":9323,"anach":9324,"antin":9325,"▁747":9326,"00|ꜥ":9327,"00|Smr":9328,"▁224":9329,"eile":9330,"gek":9331,"asen":9332,"orf":9333,"▁𓇋𓊄":9334,"▁𓇋𓄿𓏏":9335,"▁𓇋𓐍𓏛":9336,"▁987":9337,"▁97580|":9338,"60|pꜣ":9339,"10|zp":9340,"▁𓋴𓅜":9341,"▁𓋴𓈙":9342,"▁𓋴𓍯𓄿":9343,"90|wꜣ":9344,"ichter":9345,"▁rr":9346,"▁Gew":9347,"▁Getrei":9348,"▁5|ꜣ.t":9349,"|nḫꞽ":9350,"▁Kan":9351,"▁𓂋𓅓":9352,"▁𓂋𓋴":9353,"▁hꜣb":9354,"▁1278":9355,"-ꜥ.wꞽ":9356,"0270|":9357,"020|ꞽz":9358,"▁32930|ꞽ":9359,"▁Wach":9360,"▁Meister":9361,"▁ḏf":9362,"▁ḏꜥw\r\n":9363,"ities":9364,"▁ꜥḏ":9365,"▁Bür":9366,"▁1182":9367,"▁1148":9368,"onat":9369,"▁1729":9370,"▁1716":9371,"▁1793":9372,"atte":9373,"ation":9374,"▁ꞽrp":9375,"▁an,":9376,"▁ḥr.ꞽ-tp":9377,"▁fnḏ":9378,"rokod":9379,"▁Itj":9380,"▁1519":9381,"▁1566":9382,"4790|":9383,"▁šnw.t":9384,"▁Lö":9385,"acht.\r\n":9386,"▁Füß":9387,"▁(ꞽ)ꜥr":9388,"▁(ꞽ)ḫ.t\r\n":9389,"▁1605":9390,"▁1654":9391,"075|ꞽm.ꞽ-rʾ":9392,"▁𓍿𓈖\r\n":9393,"▁Schu":9394,"▁Schön":9395,"▁Schwei":9396,"5|ꞽm.ꞽ-rʾ":9397,"5|ḫnt.ꞽ-š":9398,"▁1424":9399,"▁ḥtp-n(=ꞽ)\r\n":9400,"▁auf!\r\n":9401,"▁800075|ꞽm.ꞽ-rʾ":9402,"du.\r\n":9403,"n.ww":9404,"▁𓏏𓄿":9405,"▁nfr.t\r\n":9406,"▁nfr-nswt\r\n":9407,"▁hatte":9408,"▁dich.\r\n":9409,"▁400304|":9410,"šm.t":9411,"abei":9412,"▁ꜣs.t":9413,"▁ḥmi̯":9414,"▁𓇋𓂋𓊪":9415,"𓈖𓏏𓇓𓏏𓈖":9416,"$-T":9417,"ebti\r\n":9418,"▁Sokar":9419,"▁Nefer-nisut.\r\n":9420,"392|":9421,"▁vortr":9422,"▁1624":9423,"▁𓉔𓂋𓅱":9424,"▁𓍹𓇳𓃃𓅱𓍺":9425,"▁spricht":9426,"▁𓅓𓂋𓂝":9427,"▁𓃀𓇋":9428,"ꜣḏꜣ":9429,"mtw.t":9430,"▁(ꞽ)m(.ꞽ)-rʾ-ḥm(.w)-kꜣ":9431,"▁𓍹𓊪𓊪𓇋𓇋𓍺\r\n":9432,"-ḏf":9433,"▁ppy\r\n":9434,"▁400313|Ppy\r\n":9435,"▁𓈙𓊪":9436,"▁𓈙𓏏":9437,"▁21930|ꞽwi̯\r\n":9438,"▁gehol":9439,"▁gehören":9440,"04|ḫsf":9441,"-špss":9442,"▁herum":9443,"▁𓉐𓂋𓅱":9444,"▁𓊵𓏏𓊪\r\n":9445,"1|ꞽmꜣḫ.wt":9446,"▁58760|pꜣ":9447,"▁nn-sḏr":9448,"▁107070|ḥ":9449,"▁450525|":9450,"eicher":9451,"halt":9452,"▁Größ":9453,"▁kommt.\r\n":9454,"ꜥꜣ.t\r\n":9455,"▁gebie":9456,"Ḥtp-n=ꞽ\r\n":9457,"<g>O175":9458,"▁𓎼𓌴":9459,"▁Hetep-eni\r\n":9460,"weise":9461,"▁Schreiber,":9462,"▁V\\ptcp.act.f.sg\r\n":9463,"▁𓄔𓄔":9464,"-Sedjer-kai.\r\n":9465,"gesicht":9466,"-pꞽ":9467,"▁7055":9468,"▁ꞽr(.t)-ḥr.w\r\n":9469,"gefilde":9470,"rone,":9471,"▁<g>D33C</g>":9472,"▁ꞽmꜣḫ.w-ḫr-nb=f":9473,"enkel":9474,"et-B":9475,"$-Schw":9476,"▁mri̯.y":9477,"▁𓌳𓁹𓄿𓈖":9478,"01|ḥḏ":9479,"▁Inpu":9480,"▁Djau.\r\n":9481,"▁𓁹𓅃\r\n":9482,"▁jedes":9483,"▁Gerechtfertigten.\r\n":9484,"40|wḥm":9485,"mṯ.t":9486,"▁gereinig":9487,"-sn\r\n":9488,"fest),":9489,"40|rmn":9490,"▁𓎸𓅓":9491,"▁weiße":9492,"▁𓋴𓃀𓇼":9493,"▁𓎁𓏏":9494,"▁𓇋𓃀𓇋\r\n":9495,"▁31020|ꞽz":9496,"▁882500|Smr":9497,"▁𓐎𓏤":9498,"lange)":9499,"▁𓅝\r\n":9500,"▁Ni-anch":9501,"▁dem.c\r\n":9502,".t-ḥtp\r\n":9503,"▁150140|":9504,"▁𓅜𓐍𓏏𓇿\r\n":9505,"▁650004|ḫsf":9506,"▁öffne":9507,"-Tꜣ.wꞽ":9508,"▁𓎟𓏏𓉐𓏤":9509,"▁grg.t-":9510,"-tꜣ.wꞽ":9511,"▁wiederhol":9512,"▁qrs.t(ꞽ)":9513,"▁Einzige":9514,"▁450226|":9515,"▁Steu":9516,"▁Hügeln":9517,"▁Alabastergefäßen,":9518,"▁Ihre":9519,"▁ḥnk":9520,"▁Zimmermann":9521,"▁wr-mḏ-šmꜥ.w":9522,"▁mtw.t":9523,"▁Upuaut,":9524,"▁Djedi":9525,"▁127110|s":9526,"▁ḏd.t.n":9527,"ḥd.tꞽ":9528,"▁𓌞𓋴𓂻":9529,"▁(so)":9530,"-mḏḥ.ww":9531,"▁Gestalt":9532,"𓇋𓂋𓌗":9533,"▁Empf":9534,"▁112301|ḥḏ":9535,"▁qrs(.w)":9536,"00|mz":9537,"▁läßt":9538,"hotep,":9539,"▁Nicht-Untergehenden":9540,"-Ḫwi̯=f-wꞽ\r\n":9541,"▁𓈎𓂋𓋴𓌠𓊭":9542,"▁𓍒𓄿<g>P1C</g>":9543,"▁103750|ḥbs":9544,"▁Kapelle":9545,"▁131760|zbn\r\n":9546,"▁vorfindest":9547,"▁irgend":9548,"▁167750|gr":9549,"▁Plätz":9550,"-Ḥw.t-Ḥr.w\r\n":9551,"u-nefer\r\n":9552,"▁70530|Mnw":9553,"▁95820|rḫ.yt\r\n":9554,"▁709669|Ḏꜥw\r\n":9555,"▁Nen-Sedjer-kai.\r\n":9556,"▁94240|rmn":9557,"▁Sahur":9558,"-rḫ.yt":9559,"▁702196|Mr":9560,"▁Jahresanfang":9561,"▁zꜣb-(ꞽ)m(.ꞽ)-rʾ-zẖꜣ.ww":9562,"▁𓈖𓍇𓏌𓏲":9563,"-bau-Ptah.\r\n":9564,"▁𓈖𓂜𓋴𓇦𓂋𓂓\r\n":9565,"▁Netcherichet\r\n":9566,"Sꜣḥ.w":9567,"▁703438|Nfr":9568,"▁550341|pr-ḏ.t\r\n":9569,"𓇋𓊃𓊃":9570,"▁400236|Ḫnt.ꞽ":9571,"▁Binsen":9572,"▁99015|ḫnt.ꞽ-š":9573,"▁𓋴𓌉𓂋𓐍𓏏𓉒":9574,"sprechend":9575,"▁𓉘𓊹𓈖𓊂\r\n":9576,"▁149660|s":9577,"▁172700|tr":9578,"▁68570|mꞽtr.t":9579,"▁81|Ꜣb":9580,"▁400122|Sbk":9581,"▁74700|mz":9582,"▁97580|hꜣb":9583,"|nḫꞽḫi̯":9584,"▁800075|ꞽm.ꞽ-rʾ-ḥm.w-kꜣ":9585,"▁400304|Ḥtp-n=ꞽ\r\n":9586,"▁107070|ḥnq":9587,"▁450525|Ḥw.t-kꜣ":9588,"▁882500|Smr-ẖ.t\r\n":9589,"▁127110|sꜣḫ":9590,"▁703438|Nfr-nswt\r\n":9591,"!)":9592,"-ib":9593,"-(w)":9594,"-tr":9595,"1020|":9596,"7A</g>":9597,"7090|":9598,"8|n":9599,"Zkr":9600,"aff":9601,"ai\r\n":9602,"fḫ":9603,"fꜥ":9604,"gän":9605,"häl":9606,"haf":9607,"ient":9608,"ige,":9609,"ll":9610,"m-ant":9611,"pol":9612,"pi.\r\n":9613,"setz":9614,"ty\r\n":9615,"zmn":9616,"ädig":9617,"šnꜥ":9618,"ṯw":9619,"▁𓂢":9620,"▁𓅆":9621,"▁𓅈":9622,"▁𓇆":9623,"▁𓍌":9624,"▁𓍏":9625,"▁𓎚":9626,"ꜣ.tꞽ\r\n":9627,"ꜥq":9628,"𓂋𓂧":9629,"𓂝𓂝":9630,"𓂧𓀁":9631,"𓂻𓏏":9632,"𓃀𓏏\r\n":9633,"𓅓𓆱𓐍𓏏":9634,"𓅱𓀁":9635,"𓆑𓄹𓏥":9636,"𓉔𓅓":9637,"𓊪𓏏\r\n":9638,"𓊪𓅯𓄿":9639,"𓌸\r\n":9640,"𓍯𓇼":9641,"▁106":9642,"▁dn":9643,"▁dmꞽ":9644,"▁dabei":9645,"st\r\n":9646,"ste,":9647,"▁Pa":9648,"▁Pf":9649,"prochen":9650,"▁nun":9651,"▁sḫ.t":9652,"▁sꜣḥ":9653,"014|B":9654,"▁(sie":9655,"▁(mit":9656,"▁(etwas":9657,"▁Domäne":9658,"-nʾ":9659,"-nḫn":9660,"anch":9661,"▁V\\tam-ant":9662,"▁735":9663,"00|wt.ꞽ":9664,"unst":9665,"unken":9666,"▁derer,":9667,"▁𓈖𓅘𓎛":9668,"gebr":9669,"▁𓆑𓂧":9670,"▁A:)":9671,"10|nꞽs":9672,"▁661":9673,"▁𓋴𓄜":9674,"▁𓋴𓏲":9675,"▁𓋴𓂋𓅱":9676,"ichten,":9677,"▁850":9678,"40|sꞽ":9679,"▁zbn\r\n":9680,"▁zwn.w":9681,"▁𓎡𓅱\r\n":9682,"te)":9683,"▁521":9684,"▁58670|":9685,"▁Kon":9686,"50|w":9687,"▁ḫr.t":9688,"▁𓂋𓏠𓈖":9689,".t-ꜥ":9690,".t-ꜥꜣ.t":9691,"▁hören":9692,"▁p\r\n":9693,"▁128000|":9694,"eller":9695,"▁gr.t":9696,"▁gab":9697,"70|W":9698,"(.ꞽ)\r\n":9699,"▁vier":9700,"80|wꜣḏ":9701,"et-P":9702,"ehend":9703,"ehmen":9704,"▁ꜥꜣi̯":9705,"▁ꜥwn":9706,"▁ꜥ.t.PL":9707,"▁Beh":9708,"▁1104":9709,"030|ꞽw":9710,"▁1704":9711,"-ꞽw":9712,"-wer":9713,"mꜣꜣ":9714,"▁erfr":9715,"-kꜣ=f":9716,"▁außer":9717,"▁twt":9718,"ark":9719,"▁139":9720,"▁133990|":9721,"-nṯr-N":9722,"-nṯr-ꜥꜣ\r\n":9723,"▁zu.\r\n":9724,"▁fꜣi̯":9725,"rock":9726,"edu":9727,"𓇋𓇋𓀁":9728,"0510|":9729,"▁1601":9730,"sꞽꜥr":9731,"▁k.t":9732,"▁kw\r\n":9733,"▁kam":9734,"▁Rens":9735,"▁𓇓𓏏𓐭":9736,"▁Schwar":9737,"▁1412":9738,"▁𓎟𓄪":9739,"▁ꞽwt":9740,"▁𓏏𓍯":9741,"▁<g>I":9742,"(w)d":9743,"▁$ḫ":9744,"▁$ꜣ":9745,"▁pr-ḏ.t\r\n":9746,"▁mri̯.t":9747,"▁mrr.w-nb=f":9748,"šm-nfr":9749,"▁50003":9750,"▁500010|":9751,"annte":9752,"▁vern":9753,"▁ḥm-ꜥꜣ":9754,"040|šms.w":9755,"110|ꞽp.t":9756,"▁ḫꜣs.t":9757,"645|":9758,"reiten":9759,"reitet":9760,"▁Osiris!\r\n":9761,"urm":9762,"änk":9763,"28|nḫꞽḫi̯":9764,"▁95410|":9765,"ebäck":9766,"▁Nefer.\r\n":9767,"▁lob":9768,"▁ist,\r\n":9769,"▁162890|":9770,"24</g>":9771,"▁𓂧𓃀":9772,"▁𓂧𓄑":9773,"▁𓂧𓎼":9774,"▁𓂧𓃀𓈖":9775,"nwn":9776,"▁𓄤\r\n":9777,"ꜥnḫ\r\n":9778,"▁aus)":9779,"▁aus,":9780,"),\r\r\n":9781,"▁wr.PL":9782,"▁ꞽ:ḏd":9783,"▁ꞽ:ḫm":9784,"▁ꞽ:(n)ḏ":9785,"zeug":9786,"wḏꜥ":9787,"wḏ.w":9788,"▁ẖnm.w":9789,"▁𓈙𓆑":9790,"▁𓈙𓂋𓏏":9791,"▁167920|":9792,"▁7107":9793,"▁24110|ꞽp.t":9794,"▁𓇋𓅱𓂻𓈖":9795,"▁Unterauf":9796,"▁𓂋𓂝𓇳":9797,"▁8538":9798,"▁rḏi̯.ḫr":9799,"▁𓌃𓂧":9800,"▁ꞽtꞽ\r\n":9801,"▁550378|":9802,"▁550364|":9803,"▁nḏr":9804,"▁nḏ.t-ḥr":9805,"▁𓃹𓈖𓐍𓍼":9806,"▁𓇋𓋴\r\n":9807,"▁mꞽn\r\n":9808,"▁85274":9809,"▁85225":9810,"▁92570|rʾ":9811,"▁(Domäne)\r\n":9812,"▁𓇋𓏲𓆑𓄹𓏥":9813,"▁war,":9814,"▁1078":9815,"▁Himmels,":9816,"060|ḥꜥi̯":9817,"38</g>":9818,"-Nḫn":9819,"▁𓇓𓏏𓈖𓂓":9820,"ꞽm.ꞽ-rʾ-sšr.w":9821,"▁gebor":9822,"▁Hüte":9823,"▁155040|šms.w":9824,"▁Nekropole.\r\n":9825,"▁kann.\r\n":9826,"▁träg":9827,"▁ḫnt(.ꞽ)-ꞽmn.tꞽw":9828,"▁Werer":9829,"▁8607":9830,"gesonder":9831,"80|sbꜣ":9832,"germeister":9833,".t-kꜣ=s\r\n":9834,"▁22030|ꞽw":9835,"▁m-ꜥb":9836,"▁Insel":9837,"▁kꜣ(=ꞽ)-n(.ꞽ)":9838,"▁befr":9839,"▁102060|ḥꜥi̯":9840,"▁(namens)":9841,"▁jenes":9842,"▁pfleg":9843,"▁154760|Šmꜥ.w":9844,"▁wnn.t":9845,"▁707086|Sšm-nfr":9846,"sprach":9847,"47|zꜣ.t-nswt":9848,"<g>D77</g><g>D77</g>":9849,"▁Krug":9850,"▁Majestät:\r\n":9851,"<g>Q18":9852,"80|mnḫ":9853,"80|m-ꜥb":9854,"gewies":9855,"zꜣb-ꜥḏ-mr":9856,"▁132310|zp":9857,"▁sšm-nfr":9858,"▁geliebt":9859,"▁Neunheit,":9860,"▁163890|kw\r\n":9861,"▁täglich,":9862,"▁erhoben":9863,"Zꜣ.t-":9864,"▁1433":9865,"𓏐𓏊𓏒":9866,"▁150120|sḏ":9867,"▁712014|B":9868,"Verwalter":9869,"▁N:du\r\n":9870,"▁400447|zꜣ.t-nswt":9871,"▁Ehrwürdigen":9872,"▁100400|ḥ":9873,"▁Leinenzeu":9874,"▁Iri-":9875,"▁Senior-Verwalter":9876,"läss":9877,"▁𓏌𓏏𓇯\r\n":9878,"▁V:ptcp.post-m.pl":9879,"etränk":9880,"▁43580|wꜣḏ":9881,"▁zꜣb-ꜥḏ-mr":9882,"▁𓉺𓏌𓊖":9883,"▁Ibi.\r\n":9884,"▁Hatia,":9885,"▁\"Der":9886,"▁𓅓𓄚𓏌":9887,"▁𓂋𓍿𓀀𓁐𓏥":9888,"▁eure":9889,"▁(best":9890,"▁nb-ꜣbḏw\r\n":9891,"▁𓎛𓈖𓈎":9892,"▁400976|nb-Ꜣbḏ.w":9893,"▁Prov":9894,"▁𓂊𓂊":9895,"▁852228|nḫꞽḫi̯":9896,"▁verhindere,":9897,"▁855700|wt.ꞽ":9898,"bock":9899,"▁'Der":9900,"▁𓄙𓅓":9901,"<g>S43":9902,"▁𓌳𓐙𓂝𓏏𓏯𓏛\r\n":9903,"-2\r\n":9904,"Chontamen":9905,"▁64580|m-ꜥb":9906,"▁32830|ꞽt\r\n":9907,"▁180690|d":9908,"n.w-ꜣḫ\r\n":9909,"▁400982|nb-Ḏd.w\r\n":9910,"▁V~ptcp.distr.pass.m.sg":9911,"▁131180|sbꜣ":9912,"▁Meret-Neith\r\n":9913,"▁Ninetjer\r\n":9914,"▁Stelle":9915,"▁𓏇𓈖𓇳\r\n":9916,"▁vereinigt.\r\n":9917,"▁71080|mnḫ":9918,"▁𓋴𓍋𓌡𓏤𓏏":9919,"▁Ni-su":9920,"▁Sem-Priester,":9921,"▁Miteret":9922,"▁Beamten":9923,"▁68330|mꞽn\r\n":9924,"plitterbruch":9925,"<g>D287</g>":9926,"▁Totenstiftung.\r\n":9927,"▁msꜣḏ.t.DU":9928,"<g>O234</g>":9929,"tꜣ-ḏsr\r\n":9930,"▁103|Ꜣbḏ.w\r\n":9931,"-ḥw.t-ꜥꜣ(.t)":9932,"▁Ii-mery.\r\n":9933,"<g>D124</g>":9934,"▁Menschen,":9935,"▁𓆓𓂝<g>M3B</g>𓅱\r\n":9936,"▁𓊃𓐍𓂋𓏛":9937,"-ꞽb-n-nb=f":9938,"115</g>":9939,"▁ebenso":9940,"hinitischen":9941,"▁𓌳𓌉\r\n":9942,"▁20360|ꞽꜣ.w":9943,"▁Abrechnung":9944,"▁58820|pꜣw.t":9945,"▁fällt":9946,"▁851172|=fꞽ":9947,"▁NUM.ord:sg.m":9948,"▁110660|ḥkꜣ.w":9949,"▁400565|Ꞽnp.w-ḥtp.w\r\n":9950,"▁östlichen":9951,"▁80210|nꞽs":9952,"▁89590|n":9953,"ities.\r\n":9954,"rokodil":9955,"▁gebiete":9956,"▁𓎼𓌴𓄹":9957,"$-Schwell":9958,"▁450226|Ꞽy-mr.y\r\n":9959,"▁702196|Mr.t-ꞽtꞽ=s\r\n":9960,"▁149660|sdꜣ":9961,"▁(sie)":9962,"▁V\\tam-ant-pass":9963,"▁58670|P":9964,"▁128000|sꞽꜥr":9965,"▁133990|sf":9966,"▁500010|wsr":9967,"▁95410|R":9968,"▁162890|kꜣ":9969,"▁Unteraufseher":9970,"▁550378|ꞽm.ꞽ-rʾ-sšr.w":9971,"▁550364|Tꜣ":9972,"▁22030|ꞽw.tꞽ":9973,"-L":9974,"190|":9975,"560|":9976,"69|":9977,"7|ꞽm.ꞽ-rʾ":9978,"701|":9979,"94|":9980,"Joch":9981,"Mꜣ":9982,"Nmt.ꞽ":9983,"Pri̯":9984,"Snb":9985,"a)":9986,"b.w\r\n":9987,"dw\r\n":9988,"dbn":9989,"e!\r\n":9990,"fi̯":9991,"f.t\r\n":9992,"gar":9993,"gr.t":9994,"h.w":9995,"heil":9996,"ifer":9997,"letz":9998,"länder":9999,"mut":10000,"mṯ\r\n":10001,"palast":10002,"polis":10003,"qsn":10004,"qdi̯":10005,"rꞽ":10006,"rmṯ.t":10007,"tu":10008,"ums":10009,"um.\r\n":10010,"voll":10011,"wes":10012,"wḥm":10013,"wegen":10014,"zeit":10015,"zün":10016,"zni̯":10017,"ḏbꜥ":10018,"ḥs":10019,"ṯs":10020,"▁𓃒":10021,"▁𓃣":10022,"▁𓆎":10023,"▁𓉼":10024,"▁𓊚":10025,"▁𓊢":10026,"▁𓎿":10027,"▁𓏤":10028,"▁𓐧":10029,"▁𓅆\r\n":10030,"▁𓂭𓂭𓂭":10031,"ꜣq":10032,"Ꞽꜣm":10033,"𓀜𓈖":10034,"𓁶𓏤":10035,"𓂠𓏌𓏌𓏌":10036,"𓂻𓀀":10037,"𓃀𓂻":10038,"𓃀𓇋":10039,"𓄂𓏏𓏤":10040,"𓄤𓊵\r\n":10041,"𓅱𓏥":10042,"𓇋𓌳":10043,"𓇳𓎟":10044,"𓈖𓎟𓆑":10045,"𓉻𓂝":10046,"𓋨𓏏":10047,"𓌂\r\n":10048,"𓌴𓄿":10049,"𓏏𓂋":10050,"erin":10051,"erek":10052,"▁dšr":10053,".t$-K":10054,"▁Pen":10055,"▁484":10056,"▁-\r\n":10057,"▁nr":10058,"▁ns.t":10059,"▁nꜥr":10060,"▁nḫb":10061,"▁n.(ꞽ)":10062,"▁sḫpr":10063,"▁836":10064,"▁mm":10065,"▁mḥr":10066,"▁m-ḫnt":10067,"▁ꞽš":10068,"▁40019":10069,"▁40043":10070,"▁40057":10071,"▁(sch":10072,"▁(einen)":10073,"▁wel":10074,"▁wḫꜣ":10075,"▁wp.t":10076,"▁wꜣs":10077,"▁Durch":10078,"-nacht":10079,"▁ḥ(w)":10080,"ande":10081,"▁71780|":10082,"▁223":10083,"▁22930|ꞽ":10084,"eigt":10085,"▁𓈖𓎼":10086,"▁𓈖𓇋𓋴":10087,"▁𓈖𓃀𓋴":10088,"▁𓆑𓄿":10089,"▁𓆑𓈖":10090,"▁998":10091,"▁949":10092,"▁94550|":10093,"▁90880|":10094,"▁Hung":10095,"▁Hän":10096,"▁Hier":10097,"▁Str":10098,"r.wꞽ":10099,"▁624":10100,"▁𓋴𓈎":10101,"▁𓋴𓇦𓂋":10102,"▁𓋴𓂝𓎛":10103,"90|r":10104,"▁857":10105,"▁8528":10106,"▁rot":10107,"▁zittern":10108,"20|zꜣ":10109,"▁Gen":10110,"▁Gaz":10111,"30|snḏ":10112,"<g>X3A</g>":10113,"▁𓂋𓐍𓏏":10114,"▁𓂋𓈋𓅱":10115,"igkeit,":10116,"▁b(w)":10117,".tꞽ-kꜣ\r\n":10118,"▁1263":10119,"70|tp":10120,"-mꜣꜥ.t":10121,"80|pr":10122,"80|zmꜣ":10123,"etze":10124,"▁334":10125,"-ḥꜣb\r\n":10126,"▁ḏw.t":10127,"▁ḏi̯.t":10128,"itt":10129,"▁gezeugt":10130,"▁ꜥ.w":10131,"▁Boten":10132,"▁1164":10133,"on)":10134,"-ḫwi̯=f-wꞽ\r\n":10135,"▁PTCL\r\n":10136,"▁1788":10137,"▁1777":10138,"▁ein(":10139,"▁PREP-adjz:m.du":10140,"▁er.\r\n":10141,"▁ersten":10142,"▁erteil":10143,"ḥr.ꞽ-tp":10144,"67|ꞽ":10145,"▁tn\r\n":10146,"▁ins":10147,"▁1351":10148,"▁1391":10149,"▁ḥri̯":10150,"▁zu,":10151,"leu":10152,"▁fl":10153,"▁Iu":10154,"▁Iy":10155,"▁153":10156,"▁1523":10157,"▁1589":10158,"▁𓎛𓊪":10159,"▁𓐍𓆑":10160,"▁𓐍𓊪𓊪":10161,"-sṯꜣ":10162,"2|ḫrp":10163,"▁1669":10164,"▁1696":10165,"▁168040|":10166,"▁nb.w":10167,"▁Rerek":10168,"schlo":10169,"-zꜣ\r\n":10170,"▁𓇓𓏏\r\n":10171,"▁Schrecken":10172,"-nb(.t)":10173,"▁Nechen":10174,"duft":10175,"n.wt\r\n":10176,"▁ꞽwr":10177,"▁𓏏𓈖\r\n":10178,"▁<g>N":10179,"▁nfr-bꜣ.w-ptḥ\r\n":10180,"(w)\r\n":10181,"▁𓊃𓆑":10182,"▁n(.ꞽ).w":10183,"▁Erb":10184,"▁$h":10185,"▁$wr":10186,"▁$sḏ":10187,"▁400350|S":10188,"▁mr.t-ꞽtꞽ=s\r\n":10189,"▁5004":10190,"▁𓉐\r\n":10191,"8590|":10192,"pw-tr":10193,"$-Ver":10194,"reite":10195,"änz":10196,"▁schwei":10197,"▁𓅱𓊃":10198,"▁𓅱𓍿𓊃":10199,"Nfr-bꜣ.w-Ptḥ\r\n":10200,"▁Nefer\r\n":10201,"▁Nefer-bau-Ptah.\r\n":10202,"▁lä":10203,"▁𓂧𓋬":10204,"▁(wobei)":10205,"▁\"H":10206,"▁wrr.t":10207,"-rꜥw-nb":10208,"▁ꞽ:r":10209,"▁leben.\r\n":10210,"-ḏ.t":10211,"▁gehen,":10212,"▁167790|":10213,"▁sprechen?\r\n":10214,"▁ꞽb.PL":10215,"▁7109":10216,"▁herbei":10217,"▁ꞽy.t":10218,"7|pw-tr":10219,"oppel":10220,"181|":10221,"▁𓄿𓏏𓏯":10222,"▁𓇋𓌳𓄪𓐍𓏏":10223,"20|sḥtp":10224,"▁𓄣𓏤\r\n":10225,"▁𓏅𓈖":10226,"▁Himmels)":10227,"▁Teti.\r\n":10228,"▁175160|":10229,"ekr":10230,"ekt":10231,"ekenu":10232,"wi̯=f-w(ꞽ)":10233,"ütze":10234,"▁wꜥb.t":10235,"▁𓏠𓈖𓇋":10236,"ꜥi̯=f":10237,".wꞽ.DU":10238,"▁703392|":10239,"▁Freu":10240,"▁N.f:du\r\n":10241,"▁1555":10242,"▁155970|":10243,"ḫrp-š":10244,"▁Ur":10245,"▁ḫrp-š":10246,"▁fried":10247,"▁o.äg.":10248,"▁Wasser,":10249,"▁Als":10250,"▁rḫ.n":10251,"▁rḫ.yt\r\n":10252,"▁doch,":10253,"▁450309|":10254,"60|sqdi̯":10255,"7640|":10256,"▁116230|ḫpr\r\n":10257,"▁Nemti-nacht":10258,"▁bestr":10259,"ellt":10260,"herr":10261,"60|m-ꜥ":10262,"▁kꜣ(=ꞽ)-m":10263,"▁jene":10264,"idenanl":10265,"▁Sachen":10266,"▁Sache,":10267,"<g>G49E</g>":10268,"▁87870|n":10269,"▁400524|":10270,"▁𓐍𓈖𓌰𓅓":10271,"▁smr-ẖ.t\r\n":10272,"40|wšb":10273,"-wḏꜣ":10274,"Wꜣḏ.t":10275,"▁(ꞽ)m(.ꞽ)-rʾ-pr-ḥw.t-ꜥꜣ(.t)":10276,"▁ḫnz":10277,"▁verbunden.\r\n":10278,"▁𓈝𓅓𓏏":10279,"-Öls":10280,"-Öl\r\n":10281,"▁gelieb":10282,"ꜥm\r\n":10283,"▁𓃞𓄤𓊵\r\n":10284,"▁ꞽmꜣḫ(.w)":10285,"▁gefall":10286,"▁852270|ꞽs\r\n":10287,"▁Patienten":10288,"▁Chenti.\r\n":10289,"▁dem.f.sg\r\n":10290,"▁𓋴𓂋𓆑":10291,"15|zꜣb-ꜥḏ-mr":10292,"▁𓁷𓂋𓋴𓈙𓏏𓍔𓈖":10293,"▁(denn)":10294,"<g>F51":10295,"00|šꜥ.t":10296,"00|šꜣs":10297,"▁špss":10298,"▁𓈖𓄓𓏏":10299,"-ḥw.t-ḥr.w\r\n":10300,"𓇼𓇼𓇼\r\n":10301,"▁8657":10302,"▁anderen":10303,"▁61950|p":10304,"▁138730|snḏ":10305,"▁Alabastergefäß,":10306,"fenbereich":10307,"▁=1sg\r\n":10308,"20|pšn":10309,"▁45530|w":10310,"▁darüber":10311,"▁herausge":10312,"▁noch)":10313,"▁sbk-ḥtp":10314,"lüsselb":10315,"▁𓉗𓂔":10316,"▁angeht:\r\n":10317,"▁ꞽṯi̯.n":10318,"▁Wegen,":10319,"▁Zimmerleute":10320,"altbruch":10321,"▁Schatzhausverwalter":10322,"▁500027|pw-tr":10323,"andelt.\r\n":10324,"▁𓄚𓈖𓏌𓏲":10325,"▁62620|pšn":10326,"70|qmꜣ":10327,"70|qbb":10328,"▁Finger":10329,"bohr":10330,"▁𓋴𓌳𓌪":10331,"-mḏḥ.w(w)":10332,"▁mḏḥ.w-mḏḥ.w(w)":10333,"▁𓅓𓆱𓐍𓏏𓂻":10334,"▁Gerste":10335,"▁64560|m-ꜥ":10336,"-mnn.ww":10337,"▁32830|ꞽt":10338,"51|zḫ":10339,"▁dmḏ":10340,"30|sẖ":10341,"▁nb-ḏd.w\r\n":10342,"▁V~rel.ipfv.f.sg:stpr":10343,"▁r(m)ṯ.PL":10344,"▁Pyramide":10345,"▁26140|ꞽmn.t":10346,"30A</g>":10347,"▁Hinter":10348,"▁50340|wšb":10349,"▁Ende":10350,"▁179040|":10351,"▁401115|zꜣb-ꜥḏ-mr":10352,"▁𓏠𓈖𓐍𓍊":10353,"<g>I14C</g>":10354,"𓐪𓂧𓏌":10355,"▁𓇋𓆛𓈖":10356,"▁Unrecht":10357,"zẖꜣ.w\r\n":10358,"▁𓇋𓇩𓊃":10359,"$-Pflan":10360,"▁𓇍𓌸𓇋𓇋\r\n":10361,"gans,":10362,"050|sḫpr":10363,"▁47920|wrr.t":10364,"▁Steinbock":10365,"▁879851|zḫ":10366,"▁𓊽𓊽𓇋𓏛":10367,"▁171880|Tfn.t":10368,"▁850381|ꞽmꜣḫ.wt":10369,"▁Wasserspenden,":10370,"(ꜣ=ꞽ)":10371,"▁141120|sḥtp":10372,"s.t-ḫnt.ꞽt":10373,"▁Sehetep":10374,"▁(nämlich)":10375,"▁171460|tp.ꞽ\r\n":10376,"▁179420|dmḏ":10377,"jüngt":10378,"▁𓇑𓃀":10379,"▁20570|ꞽ":10380,"▁151010|š":10381,"▁142050|sḫpr":10382,"▁146360|sqdi̯":10383,"▁𓌂𓁷𓄣\r\n":10384,"kenntnis":10385,"▁Semerchet\r\n":10386,"▁Bürgermeister":10387,"▁151900|šꜣs":10388,"▁160570|qmꜣ":10389,"▁400236|Ḫnt.ꞽ\r\n":10390,"▁Konifer":10391,"et-Phyle":10392,"▁160170|qbb":10393,"▁852746|smꜣ":10394,"▁Wereret-K":10395,"▁kꜣ(=ꞽ)-n(.ꞽ)-nswt\r\n":10396,"▁143330|sẖ":10397,"▁712014|Bw-nfr\r\n":10398,"▁Leinenzeugs":10399,"▁Provinz":10400,"Jochbein":10401,"▁48440|wḥm":10402,"▁71780|mr":10403,"▁22930|ꞽwr":10404,"▁94920|rn":10405,"▁94550|rmṯ.t":10406,"▁90880|nḏ":10407,"▁139140|s":10408,"▁152300|šꜥ.t":10409,"▁168040|grg":10410,"▁400350|S.tꞽ-kꜣ\r\n":10411,"▁167790|gr.t":10412,"▁175160|ṯ":10413,"▁703392|Nfr-bꜣ.w-Ptḥ\r\n":10414,"▁450309|Ꞽ":10415,"▁87870|ns.t":10416,"▁400524|ḥtp":10417,"-pw":10418,".inf":10419,"/er":10420,"/St":10421,"062|":10422,"100|s":10423,"120|s":10424,"28|":10425,"620|":10426,"650|":10427,"71|":10428,"770|":10429,"bedarf":10430,"e(?)":10431,"fet":10432,"gm":10433,"g.t":10434,"hꞽ":10435,"his":10436,"j$-":10437,"k.w\r\n":10438,"lö":10439,"mä":10440,"pis":10441,"pat":10442,"p(.w)":10443,"sr.w":10444,"tꜣ.w":10445,"t;\r\n":10446,"ust":10447,"upfer":10448,"wie":10449,"w.PL":10450,"wend":10451,"weichen":10452,"zš":10453,"zw.t":10454,"ähl":10455,"ötet":10456,"ḥz":10457,"ẖ.t=f":10458,"▁𓀆":10459,"▁𓄥":10460,"▁𓆞":10461,"▁𓆱":10462,"▁𓇻":10463,"▁𓌥":10464,"Ꜣḫ.t-":10465,"ꜥpr":10466,"𓂋𓆑\r\n":10467,"𓂝𓐍𓂋":10468,"𓂧𓋴":10469,"𓂧𓏴":10470,"𓃀𓃀":10471,"𓃭\r\n":10472,"𓄣𓃀\r\n":10473,"𓄿𓊪":10474,"𓅓𓊮":10475,"𓈇\r\n":10476,"𓈐\r\n":10477,"𓈘\r\n":10478,"𓈙\r\n":10479,"𓈞𓅓":10480,"𓋴𓐟𓄿":10481,"𓌸𓂋":10482,"𓌸𓂋𓏏":10483,"𓍘𓇋𓇋":10484,"𓍢\r\n":10485,"𓎂\r\n":10486,"𓎆𓎆":10487,"𓎡𓎛":10488,"𓎸𓅓":10489,"𓏁𓈗":10490,"𓏅𓏏𓈙":10491,"𓏏𓄹":10492,"𓏲𓏛":10493,"0|nri̯":10494,"erb":10495,"0010|":10496,"▁d.h.":10497,"▁dwn":10498,"enden":10499,"▁Vogel":10500,"▁491":10501,"▁V\\adv":10502,"▁nn\r\n":10503,"▁nʾ.t":10504,"▁nicht,":10505,"▁such":10506,"▁sp.t":10507,"▁s.t.PL":10508,"▁sorgen":10509,"▁snꜥꜥ":10510,"▁84":10511,"▁867":10512,"▁ꞽmꜣ":10513,"▁ꞽd.t\r\n":10514,"▁400645|":10515,"▁(M":10516,"▁(f":10517,"▁(n)":10518,"▁(als":10519,"▁(Jochbein":10520,"▁wei":10521,"▁Dur":10522,"einge":10523,"-n-":10524,".f\r\n":10525,"▁746":10526,"▁𓈖𓈖":10527,"▁𓈖𓏌𓏌𓏌":10528,"ordn":10529,"▁𓇋𓈙𓏏":10530,"▁97060|":10531,"▁=f(ꞽ)":10532,"▁Hab":10533,"▁Haut":10534,"▁Sü":10535,"▁Sonnen":10536,"▁633":10537,"▁681":10538,"▁𓅓𓄡":10539,"ichten":10540,"|m-ḫnt":10541,"40|swt":10542,"40|ḫnt.ꞽ-š":10543,"▁rḫ.t":10544,"▁ruder":10545,"▁r(w)d":10546,"▁z.t":10547,"▁zḫn":10548,"20|ḫ":10549,"20|tr":10550,"▁Gieß":10551,"tef":10552,"▁544":10553,"▁51020|":10554,"▁Krokodil":10555,"▁ḫt\r\n":10556,"▁ḫpp":10557,"▁bꜥḥ":10558,"1990|s":10559,"▁hr":10560,"▁hol":10561,"▁pḥ.wꞽ":10562,"▁126":10563,"ald":10564,"80|wn":10565,"022|":10566,"▁339":10567,"▁39850|":10568,"▁37090|":10569,"-ḥs":10570,"-ḥꜣ.t\r\n":10571,"4|N.ꞽ":10572,"-rtḥ":10573,"itual":10574,"▁die)":10575,"▁gest":10576,"▁ꜥḥ":10577,"▁ꜥm.n":10578,"▁Bew":10579,"▁Bu-nefer\r\n":10580,"▁1126":10581,"onpolis":10582,"623|":10583,"▁45050|":10584,"▁1763":10585,"▁1736":10586,"▁𓊪𓈙":10587,"▁𓊪𓆑\r\n":10588,"-ꞽḫ.t":10589,"-ꞽꜥꜣ.w":10590,"atten":10591,"6750|ḥ":10592,"▁tꞽ":10593,"▁twꜣ":10594,"▁tut,":10595,"▁anges":10596,"▁angenehm":10597,"▁1367":10598,"▁1314":10599,"▁1365":10600,"▁ḥr.ꞽ-tp-ꜥꜣ":10601,"lech":10602,"▁fahr":10603,"▁findest":10604,"136|":10605,"▁šꜣs":10606,"▁Lot":10607,"▁Loch":10608,"▁Fähr":10609,"-rʾ\r\n":10610,"▁(ꞽ)m":10611,"▁Unw":10612,"▁1633":10613,"60|n.tꞽt":10614,"60|nẖnm":10615,"▁𓆓𓊃":10616,"9470|":10617,"▁ꞽmn.t\r\n":10618,"▁Rech":10619,"-zš":10620,"▁Schlüsselb":10621,"▁𓉘𓋴":10622,"7490|":10623,"▁78870|n":10624,"▁1464":10625,"▁1461":10626,"▁141990|s":10627,"▁𓎟𓅆":10628,"▁ḥtp(.w)":10629,"▁aufgeh":10630,"▁aufgew":10631,"𓂋𓏏𓂩":10632,"▁𓊃𓎡𓂋":10633,"nmt.t":10634,"▁hatte,":10635,"▁Erbe":10636,"hnw":10637,"▁400375|":10638,"▁mr.yt":10639,"ab,":10640,".ꞽ-ḏbꜥ":10641,"▁(damit":10642,"▁𓂝𓆑":10643,"ꜥbꜣ":10644,"1140|":10645,"11A</g>":10646,"▁qb":10647,"urs":10648,"▁881":10649,"▁8812":10650,"▁stark":10651,"28C</g>":10652,"▁106750|ḥ":10653,"▁Anb":10654,"▁schau":10655,"▁702352|":10656,"▁𓊹𓏤\r\n":10657,"<g>D25":10658,"▁liby":10659,"3970|":10660,"▁𓆓𓂧𓏏𓈖":10661,"▁𓂧𓅓":10662,"▁𓂧𓏇𓇋":10663,"▁Vorstehers":10664,"▁𓋹𓋹":10665,"),\r\n":10666,"▁jub":10667,"▁wrḏ":10668,"-ẖn.w":10669,"▁𓃀𓇜":10670,"▁ꞽ:ḫr":10671,"▁Sohn.\r\n":10672,"graben":10673,"▁450177|ꞽm.ꞽ-rʾ":10674,"▁450140|ḫnt.ꞽ-š":10675,"▁Wort":10676,"▁damit.\r\n":10677,"▁Jubel":10678,"▁ḫnti̯":10679,"04|Sbk":10680,"▁71840|":10681,"-wr.t\r\n":10682,"▁𓂋𓂝𓐍𓂋":10683,"eug":10684,"▁85375":10685,"-ḥtp(.w)\r\n":10686,"▁Arzt":10687,"▁tꜣš":10688,"▁nswt-bꞽ.tꞽ":10689,"▁(ꞽ)r(.ꞽ-ꞽ)ḫ.t-nswt":10690,"hꜣw":10691,"▁Möget":10692,"▁𓅨𓂋𓆓":10693,"▁𓅨𓂋\r\n":10694,"▁Brand":10695,"-wꜥ.tꞽt":10696,"8130|":10697,"▁'A":10698,"20|sḫꜣ":10699,"▁mꞽtr.t":10700,"-mrw.t":10701,"▁Priester,":10702,"|nb-ꞽmꜣḫ":10703,"zwn.w":10704,"▁Graf":10705,"-Holz":10706,"-Hathor.\r\n":10707,"mꜣꜥ-ḫrw":10708,"▁400993|":10709,"▁Palastlei":10710,"▁450089|":10711,"▁85070|nri̯":10712,"-ḥw.t-wr":10713,"▁Herrn,":10714,"ungen.\r\n":10715,"<g>O36":10716,"▁Teti's":10717,".t-ꞽb\r\n":10718,"▁dagegen":10719,".ꞽ-sštꜣ\r\n":10720,"ḫrp-zḥ":10721,"ḫrp-ꜥḥ":10722,"▁ḫrp-zḥ":10723,"▁ḫrp-ꜥḥ":10724,"▁ḫrp-nb.y\r\n":10725,"▁Gutes,":10726,"▁fremd":10727,"𓈖𓈖𓀉":10728,"▁leben,":10729,"▁Festduft":10730,"ḥm.t-nṯr-N":10731,"49|Ṯ":10732,"▁𓏶𓅓":10733,"▁Mannes":10734,"▁<g>G19":10735,"▁lebt.\r\n":10736,"-ꞽr.t-":10737,"▁sḫp":10738,"-ḫnt-n-ꞽr":10739,"-So":10740,"<g>M1":10741,"▁Wassergebie":10742,"▁7047":10743,"<g>A100":10744,"▁<g>D210</g>":10745,"▁meiner":10746,"▁70005|":10747,"-rnp.w":10748,"▁𓃛𓅱":10749,"▁450468|":10750,"▁Schlächter":10751,"40|spr":10752,"𓀀𓁐𓏥\r\n":10753,"▁begraben":10754,"▁jenem":10755,"▁Geflügel.\r\n":10756,"▁Stark":10757,"▁pf\r\n":10758,"▁(Pyram":10759,"030|šwi̯":10760,"▁𓇋𓂝𓈗":10761,"▁Patient":10762,"▁𓋴𓌂𓅓":10763,"-ꜣḫ.tꞽ":10764,"▁𓂞𓂞":10765,"akonpolis":10766,"ießen":10767,"▁Alabaster,":10768,"▁verborgen":10769,"60|ḥḏi̯":10770,"▁𓍒𓄿𓏏":10771,"▁sšm.w-tꜣ":10772,"▁gelöst":10773,"▁𓐍𓊪𓆣𓂋":10774,"ḥw.t-nṯr":10775,"𓂭𓂭𓏛":10776,"▁sꞽꜥ":10777,"▁𓇋𓂧𓀔":10778,"▁168210|g":10779,"▁𓆄𓅱":10780,"▁𓇋𓌳𓄪𓐍𓅱𓏏":10781,"▁schützt.\r\n":10782,"▁schützen.\r\n":10783,"▁𓇶𓏌𓏲𓄹":10784,"▁öffnen":10785,"▁𓎛𓆰𓈖𓏌𓏲":10786,"▁𓁹𓊨𓀭\r\n":10787,"▁149100|s":10788,"▁62220|p":10789,"▁850967|ꞽ":10790,"▁Min-H":10791,"▁<g>W17D</g>":10792,"-sꜣḥ.w":10793,"▁𓇋𓐍𓅓𓂜":10794,"▁𓎼𓂋𓀁":10795,"▁ḥm(.t)-nṯr-n":10796,"▁66260|mꜣ-ḥḏ":10797,"▁82260|Nb.t-ḥw":10798,"Mnw-Ḥr.w":10799,"𓋹𓈖𓐍\r\n":10800,"▁172360|tn\r\n":10801,"▁snṯr\r\n":10802,"▁ḥsi̯.t":10803,"▁44000|wꞽ\r\n":10804,"▁Begräbnisstätte":10805,"▁61400|p":10806,"▁𓅓𓄚𓈖𓏌𓏲":10807,"<g>(unidentified)</g>\r\n":10808,"▁109800|ḥ":10809,"▁mnw-ḥr":10810,"▁𓈞𓏏𓁐":10811,"▁nb-ꜣbḏw":10812,"ḫtm.w-nṯr-wꞽꜣ-B":10813,"▁wꜣš":10814,"▁𓈞𓋴<g>D77</g>":10815,"znf)":10816,"-wꜥb(.w)":10817,"▁882332|ḫrp":10818,"<g>D82</g>𓏘𓏘":10819,"▁𓂓𓂸𓃒":10820,"▁tun,":10821,"-n.t-ẖ.t=f":10822,"▁130840|swt":10823,"-ḫtm.t-n-nswt":10824,"▁Fingern":10825,"▁verhindern,":10826,"▁500066|ẖr.t-nṯr\r\n":10827,"-ꜣtf.t":10828,"▁𓇋𓂻𓅱":10829,"▁141620|sḫꜣ":10830,".(t)\r\n":10831,"▁172720|tr":10832,"▁Höfling,":10833,"▁𓄫𓏏":10834,"𓌳𓐙𓂝":10835,"▁<g>F81":10836,"▁𓎝𓎛":10837,"▁132840|spr":10838,"▁400982|nb-Ḏd.w":10839,"▁<g>G131</g>":10840,"▁𓂋𓂋𓎢":10841,"▁26140|ꞽmn.t\r\n":10842,"▁109680|ḥsi̯\r\n":10843,"𓄑𓄑𓄑":10844,"Ꞽm.ꞽ-ḫnt-n-ꞽr":10845,"▁nm.tꞽ":10846,"▁𓈝𓅓𓂻":10847,"▁Älteste":10848,"▁𓅓𓂋𓂓𓏏𓀋𓎟𓈖𓏏𓇓𓏏𓈖":10849,"▁zwar)":10850,"▁𓊪𓊃𓎛":10851,"▁𓊹𓀭𓉻":10852,"▁138920|sr":10853,"▁Ewigkeit.\r\n":10854,"▁𓋎𓊵\r\n":10855,"▁Heilmittel":10856,"▁Rote":10857,"▁Fremdländer":10858,"▁dauert,":10859,"50|dbḥ.t-ḥtp":10860,"▁gekoch":10861,"▁frischem":10862,"▁Öffnung":10863,"▁nb.t-ḥw(.t)":10864,"▁Schläfenbereich":10865,"▁52090|wḏꜣ":10866,"▁134180|zmꜣ":10867,"▁𓇓𓏏𓏙𓊵":10868,"rḏi̯+(znf)":10869,"▁Speisezelt":10870,"▁87760|nẖnm":10871,"▁141480|s":10872,"▁(ꞽ)m(.ꞽ)-rʾ-sšr":10873,"▁49870|w":10874,"▁89760|n.tꞽt":10875,"▁Angelegenheit":10876,"▁29740|ꞽrp":10877,"▁91770|nḏ":10878,"▁Schultern":10879,"▁Meret-ities.\r\n":10880,"▁ḥr(.ꞽ)-sštꜣ":10881,"▁plazier":10882,"▁32930|ꞽty":10883,"onatsfest":10884,"▁nn-sḏr-kꜣ(=ꞽ)\r\n":10885,"gänglich":10886,"▁𓂢\r\n":10887,"▁(etwas)":10888,"▁852258|n":10889,"sprachigen":10890,"▁(bestehend":10891,"▁Hierakonpolis":10892,"▁b(w)-nfr\r\n":10893,"▁178850|dbḥ.t-ḥtp":10894,"▁153030|šwi̯":10895,"▁𓅱𓍿𓊃𓍞":10896,"▁155970|šnw.t":10897,"idenanlage)":10898,"<g>F51D</g>":10899,"▁179040|dp.t":10900,"▁850381|ꞽmꜣḫ.wt-ḫr-nṯr-ꜥꜣ":10901,"▁Koniferen":10902,"et-Phyle\r\n":10903,"▁175160|ṯbw.t":10904,"Ꜣḫ.t-Ḫwi̯=f-wꞽ":10905,"▁V\\adv.inf":10906,"▁(Jochbein-":10907,"▁97060|rḏi̯+(znf)":10908,"▁Gießer\r\n":10909,"▁37090|ꜥpr":10910,"▁112660|ḥḏi̯":10911,"▁45050|wbn":10912,"▁141990|sḫpi̯":10913,"▁400375|ḫrp-ꜥḥ":10914,"▁450177|ꞽm.ꞽ-rʾ-ḫnt.ꞽw-š-pr-ꜥꜣ":10915,"▁71840|mr":10916,"▁450089|M":10917,"▁70005|Ꞽm.ꞽ-ḫnt-n-ꞽr":10918,"▁450468|ṯḥ":10919,"▁149100|sṯꞽ":10920,"▁62220|pzḥ":10921,"▁850967|ꞽḫ.t":10922,"▁82260|Nb.t-ḥw.t\r\n":10923,"▁882332|ḫrp-nb.y\r\n":10924,"▁70005|Ꞽm.ꞽ-ḫnt-n-ꞽr.tꞽ":10925,"-i":10926,"-er":10927,".po":10928,"/an":10929,"/ab":10930,"280|":10931,"2000|":10932,"3740|":10933,"490|":10934,"50|ꞽm.ꞽ-rʾ":10935,"60</g>":10936,"C</g>\r\n":10937,"Ms":10938,"Sḫm":10939,"Tꜣ.wꞽ":10940,"Wn":10941,"aage":10942,"dꞽ":10943,"d.\r\n":10944,"fall":10945,"gt,":10946,"gib":10947,"hle":10948,"kom":10949,"kiefer":10950,"mw\r\n":10951,"nach":10952,"pḏ":10953,"paltbruch":10954,"renk":10955,"se,":10956,"spd":10957,"wir":10958,"woll":10959,"y=":10960,"ykom":10961,"zn\r\n":10962,"Šp":10963,"šw":10964,"šr.w":10965,"Ḥr":10966,"ḥꜣb":10967,"ḫtm.w":10968,"Ṯntꞽ\r\n":10969,"ṯ.w\r\n":10970,"ẖn.tꞽ":10971,"ẖkr.t-nswt":10972,"▁𓇷":10973,"▁𓊸":10974,"▁𓏘𓏘":10975,"Ꜣḫ":10976,"ꜣꜣ":10977,"ꜣ-nṯr.w":10978,"ꜥ)":10979,"ꜥ.wt":10980,"𓁷𓁶":10981,"𓂉\r\n":10982,"𓃀𓈖𓏌𓏲":10983,"𓄿𓃀":10984,"𓆓𓈖":10985,"𓆓𓏴":10986,"𓈖𓋴":10987,"𓈖𓄡𓏏𓆑":10988,"𓉔𓏏":10989,"𓊃𓅱":10990,"𓊃𓊪":10991,"𓊪𓎛":10992,"𓊹𓈖\r\n":10993,"𓋴𓏭":10994,"𓎂𓂔𓉜\r\n":10995,"𓏊𓏥":10996,"𓏏𓆘":10997,"𓏛𓄣𓏤":10998,"𓏠𓈖𓏏":10999,"▁dbḥ.t-ḥtp":11000,"stier":11001,"stellen":11002,".w-š":11003,"▁nsw":11004,"▁nẖnm":11005,"▁nfr.w":11006,"▁mögen":11007,"▁mk.t":11008,"▁ꞽr.w":11009,"▁ꞽꜣ.t":11010,"▁ꞽpw":11011,"▁400181|":11012,".ꞽ)":11013,"▁(vor":11014,"▁wꜥ.t":11015,"▁wdn":11016,"einer":11017,"-n-w":11018,"▁ḥḏ.t":11019,"iem":11020,"iech":11021,"0|ꞽmꜣḫ":11022,"00|ẖ":11023,"00|zꜣ":11024,"00|ḫt":11025,"▁255":11026,"▁243":11027,"▁274":11028,"▁235":11029,"eiten":11030,"▁𓈖𓂧":11031,"▁𓈖𓅱":11032,"▁𓈖𓇦":11033,"orm":11034,"orchen":11035,"▁𓇋𓐍𓏏":11036,"▁𓇋𓐍𓂋":11037,"▁900":11038,"▁94|":11039,"▁941":11040,"▁Hut":11041,"▁Harf":11042,"▁Sat":11043,"▁Sti":11044,"▁Sot":11045,"▁Sykom":11046,"▁Aben":11047,"10|kꜣ":11048,"10|nmt.t":11049,"▁𓅓𓋴":11050,"▁𓋴𓏏𓊪":11051,"▁𓋴𓆓𓏏":11052,"▁𓋴𓆼𓄿":11053,"▁400080|m":11054,"▁400043|ꞽm.ꞽ-rʾ":11055,"90|srf":11056,"ich)":11057,"40|tp":11058,"▁richte":11059,"▁reicht":11060,"▁zš":11061,"▁zwr":11062,"▁zerr":11063,"▁des)":11064,"▁deswegen":11065,"▁Gift":11066,"swꜥb":11067,"irkar":11068,"test":11069,"tet.\r\n":11070,"▁535":11071,"50|mꜣ":11072,"▁ḫꜥ.w":11073,"aden,":11074,"19A</g>":11075,".t-ꜣḫ":11076,"▁ist;":11077,"▁pḥ.t":11078,"▁pzḥ":11079,"▁1289":11080,"▁gn":11081,"▁glei":11082,"-mꜣ":11083,"alte":11084,"-ꜥn.w":11085,"80|mr":11086,"80|sf":11087,"80|zp":11088,"eten.\r\n":11089,"▁312":11090,"▁348":11091,"▁34760|":11092,"▁314|":11093,"▁Me":11094,"▁Medj":11095,"▁Magazin":11096,"-rd":11097,"ehle":11098,"gen,":11099,"▁ꜥꜣ.t":11100,"▁ꜥšꜣ":11101,"▁Bein":11102,"▁Bas":11103,"▁1163":11104,"▁110560|":11105,"▁1703":11106,"▁1732":11107,"▁𓊪𓊖":11108,"▁einges":11109,"nḫt":11110,"▁1831":11111,"der,":11112,"w.t.PL":11113,"ard":11114,"▁130010|":11115,"290|ꞽ":11116,"294|":11117,"13</g>":11118,"7|mḏḥ.w":11119,"09</g>":11120,"▁1544":11121,"▁1565":11122,"▁šr.t":11123,"▁Le":11124,"▁Laß":11125,"▁Lüge":11126,"2|N":11127,"𓇋𓇋𓂻":11128,"▁Und":11129,"▁Unheil":11130,"▁1643":11131,"▁ADJ\r\n":11132,"efetj":11133,"olk":11134,"▁kn":11135,"▁km.t":11136,"▁käm":11137,"▁kühl":11138,"▁Ren":11139,"▁𓍿𓂋":11140,"▁ꞽnn":11141,"schaf":11142,"▁Herbei":11143,"▁Schu,":11144,"▁Scheitel":11145,"5|Rn":11146,"▁1462":11147,"▁1481":11148,"▁𓎟𓌳":11149,"▁aufle":11150,"▁Versch":11151,"▁Königspalast":11152,"▁nicht!\r\n":11153,"|ꞽmꜣḫ.w-ḫr":11154,"▁ṯs":11155,"▁ṯntꞽ\r\n":11156,"▁𓏏𓏏":11157,"▁𓊃𓅨𓂋":11158,"▁n(.ꞽ).t":11159,"110|qꜣi̯":11160,"▁$s":11161,"▁$bn":11162,"▁pr.t-":11163,"▁mrr.w":11164,"▁mit)":11165,"mn.t(ꞽ)":11166,"080|ꞽ":11167,"▁5003":11168,"▁500020|":11169,"tꞽ.t":11170,"▁𓂝𓃀":11171,"▁verbr":11172,"▁𓇋𓅓𓅱":11173,"▁Vornehm":11174,"𓈖𓏏𓇋\r\n":11175,"▁253|":11176,"nḏ.t\r\n":11177,"▁werdet":11178,"tm\r\n":11179,"wꜣi̯":11180,"epses":11181,"𓐍𓏏𓆑":11182,"▁ḏd.w":11183,"▁ẖrd":11184,"▁𓅱𓐍":11185,"▁𓅱𓍑𓄿":11186,"𓏏𓏏\r\n":11187,"Nfr-ꞽr-kꜣ":11188,"▁Neferirkar":11189,"▁Za\r\n":11190,"▁Zusammen":11191,"-nfr-ꞽr-kꜣ":11192,"▁401130|":11193,"▁162950|":11194,"▁\"F":11195,"▁\"G":11196,"▁(ꞽ)m(.ꞽ)-ḫt":11197,"▁sprech":11198,"ꜣḫi̯":11199,"33B</g>":11200,"4540|":11201,"▁𓃀𓂝𓎛":11202,"▁(w)sꞽr\r\n":11203,"+(rʾ":11204,"ägyptisch":11205,"bꜣk":11206,"960|nꞽ":11207,"▁450112|":11208,"▁tp.ꞽ\r\n":11209,"▁tp.ꞽ-ḥꜣ.t":11210,"-ḏw":11211,"▁𓈙𓂝":11212,"▁𓈙𓏤":11213,"▁𓈙𓂝𓏏":11214,"▁ihm!\r\n":11215,"▁𓌳𓐚":11216,"▁𓇋𓈖𓊪":11217,"▁167900|":11218,"▁𓈎𓋴":11219,"ilch":11220,"ilop":11221,"-ꜥnḫ.w\r\n":11222,"▁718":11223,"-šnw.t":11224,"▁Untertan":11225,"▁Unterwelt":11226,"▁Unterkiefer":11227,"▁𓌨𓂋𓏏":11228,"▁N.m:du\r\n":11229,"225|Rn":11230,"▁tꜣ-wr":11231,"▁𓉔𓄿𓃀𓂻":11232,"▁85555":11233,"▁sollt":11234,"▁sollen":11235,"▁400011|ꞽm.ꞽ-rʾ":11236,"▁𓊵𓏏𓊪𓅱":11237,"11|zp":11238,"ꞽ.tꞽt":11239,"▁𓃹𓈖𓈖𓏏":11240,"tw.t\r\n":11241,"00|sk":11242,"00|sḥmi̯":11243,"▁ꜣḫ.n":11244,"▁𓍿𓈖𓍘𓇋\r\n":11245,"▁Q\r\n":11246,"▁kommen.\r\n":11247,"56|Ṯntꞽ\r\n":11248,"▁450056|Ṯntꞽ\r\n":11249,"▁hinunter":11250,"|ḥr.ꞽ-tp":11251,"sḥḏ-zẖꜣ.ww":11252,"sḥḏ-wꜥb":11253,"▁sḥḏ-zẖꜣ.ww":11254,"▁𓌂𓉥":11255,"▁bꜣk":11256,"d.w.PL":11257,"▁Gesicht,":11258,"▁entsprechend":11259,"▁froh":11260,"▁geschehen":11261,"▁zẖꜣ.w-ꜥ-n-nswt":11262,"beiter":11263,"▁abgew":11264,"▁abwehr":11265,"70|smꜣ":11266,"-ꞽr.ꞽ":11267,"12|ḥm-nṯr-":11268,"▁8600":11269,"481|Ḥ":11270,"▁Ach,":11271,"80|sḫm":11272,"▁7082":11273,"▁125600|zꜣ":11274,"gefü":11275,"10|ꞽtḥ":11276,"𓏏𓏭𓀜𓀀":11277,"▁𓄋𓈐𓈐𓈐":11278,"Ꜣbd.w":11279,"▁70011|zp":11280,"šnṯ":11281,"▁hervorkam":11282,"▁450442|":11283,"01|wꜥ":11284,"▁Weise":11285,"▁704225|Rn":11286,"20|ꞽm.ꞽ-rʾ":11287,"idenz":11288,"▁142180|sḫm":11289,"▁veranlassen,":11290,"▁N:pl:stpr":11291,"▁𓊪𓏏𓎛𓅢":11292,"14|zꜣ-nswt":11293,"▁smr-wꜥ":11294,"▁ꞽm.ꞽ-rʾ-pr":11295,"▁PRON.rel:f.sg":11296,"ührt":11297,"▁machen.\r\n":11298,"▁rdi̯.t":11299,"▁ꜣbd":11300,"▁sdꜣ":11301,"▁ꞽḥ.PL":11302,"▁𓄤𓂋𓏏\r\n":11303,"▁𓃥𓏞":11304,"▁𓃥𓆝𓈘":11305,"▁𓏲𓃀𓈖𓏌𓏲":11306,"▁𓏏𓈖𓏥":11307,"-šmꜥ":11308,"▁𓅒𓊹𓈖\r\n":11309,"albm":11310,"▁Ba-netjer":11311,"▁Diese":11312,"▁geben,":11313,"▁\"Er":11314,"▁400101|wꜥ":11315,"▁𓌉\r\n":11316,"▁erhebe":11317,"▁ADJ:f.pl\r\n":11318,"▁47271|wr\r\n":11319,"▁Isis,":11320,"üllt":11321,"▁dem.dist.m.sg\r\n":11322,"▁𓈍𓂝𓅱":11323,"▁𓄖𓂻":11324,"▁art.po":11325,"▁59880|pf\r\n":11326,"▁851865|":11327,"▁Götterneun":11328,"▁𓐙𓏏𓊤\r\n":11329,"n.wt=sn\r\n":11330,"▁nḥḥ\r\n":11331,"$-Gebäck":11332,"▁𓇬𓈖<g>D82</g>𓏘𓏘":11333,"▁NUM.c":11334,"▁84510|nmt.t":11335,"ḥr.ꞽ-sštꜣ-n":11336,"geschn":11337,"▁Feinde":11338,"▁885044|":11339,"▁600421|tp.ꞽ-ḏw=f\r\n":11340,"10|sbꜣ":11341,"▁𓋴𓆑𓍿":11342,"▁138670|snṯr\r\n":11343,"▁𓁶𓈋𓆑\r\n":11344,"▁123270|":11345,"▁fortdauern":11346,"▁850039|":11347,"▁ẖr.t-nṯr\r\n":11348,"▁ꞽꜥb.n":11349,"▁schwach":11350,"lüssigkeit":11351,"▁Königssohn,":11352,"-Zꜣ\r\n":11353,"▁𓊹𓉼\r\n":11354,"▁Zauberreich":11355,"▁𓊖𓊖":11356,"▁𓊖𓏏𓏤":11357,"▁𓈖𓐩𓈖":11358,"▁𓆓𓋴𓂦":11359,"▁zꜣ-nswt-n-ẖ.t=f":11360,"▁(an)":11361,"▁79960|nꞽ":11362,"▁Upuaut":11363,"▁stẖ\r\n":11364,"▁𓌐𓄂":11365,"▁ꞽ(w)f":11366,"𓊨𓊨𓊨":11367,"▁𓌳𓐙𓂝𓏏𓏯𓏛":11368,"▁Tjenti.\r\n":11369,"-bꜣ-nṯr.w":11370,"▁<g>G131B</g>":11371,"▁nb-ḏd.w":11372,"▁führen.\r\n":11373,"▁𓅱𓈙𓃀𓏴":11374,"▁Schwester":11375,"▁Singen.\r\n":11376,"▁erreicht":11377,"▁Residenz":11378,"▁𓊃𓃀𓈖\r\n":11379,"▁139390|srf":11380,"▁(ꞽ)m(.ꞽ)-r(ʾ)-(ꞽ)":11381,"▁Stätte":11382,"-s.t-ḫnt":11383,"▁𓈙𓋴𓌞":11384,"eiligtum":11385,"▁𓌃𓂧𓅱𓀁":11386,"▁450536|S":11387,"▁ißt":11388,"▁Liebling":11389,"ottes)":11390,"▁(ꞽ)m(.ꞽ)-rʾ-zẖꜣ.w(w)-ꜥ-(n-)nswt":11391,"▁ḥsi̯.t\r\n":11392,"▁44150|wꜥ\r\n":11393,"▁852514|zꜣ-nswt":11394,"▁Mächte":11395,"▁882494|N.ꞽ":11396,"▁𓉘𓅃𓎂𓂔𓉜\r\n":11397,"▁𓏏𓍔𓄿𓈙":11398,"▁N-adjz:f.pl\r\n":11399,"▁86570|nḥḥ\r\n":11400,"▁ꞽmn.tꞽ.t":11401,"▁114300|ḫꜣs.t":11402,"▁49600|w":11403,"▁(zurück":11404,"▁Betrachten":11405,"▁159110|qꜣi̯":11406,"▁liegt":11407,"▁<g>G200":11408,"▁ḥw.t-kꜣ-ḥr.w-zꜣ\r\n":11409,"Ḥw.t-kꜣ-Ḥr.w-Zꜣ\r\n":11410,"(y)":11411,"▁Nubier":11412,"▁Haupt":11413,"▁𓊪𓋴𓆓":11414,"▁140700|sḥmi̯":11415,"▁104390|ḥ":11416,"▁Handwerker":11417,"▁Truppe,":11418,"Ḥꜣb-wr":11419,"▁171640|tp":11420,"▁Löw":11421,"▁162430|q":11422,"▁𓅓𓂋𓂝𓋮":11423,"▁150140|sḏ.t":11424,"▁400122|Sbk-ḥtp.w":11425,"▁𓅈𓏏𓏭𓀜𓀀":11426,"▁52130|":11427,"▁Krugmagazin":11428,"▁100400|ḥꜣ.tꞽ":11429,"▁58670|Pꞽ":11430,"▁550364|Tꜣ-wr":11431,"Nmt.ꞽ-nḫt.w":11432,"20|zꜣi̯":11433,"▁126320|zꜣi̯":11434,"▁33410|ꞽtḥ":11435,"▁45530|wp.t":11436,"▁94920|rnp.t":11437,"▁139140|sr.w":11438,"▁ḫpp!":11439,"▁146400|sk":11440,"▁146190|s":11441,"▁702352|Mr.w":11442,"▁450140|ḫnt.ꞽ-š-pr-ꜥꜣ":11443,"▁fremdsprachigen":11444,"-Sokar":11445,"▁61400|pḥ.tꞽ":11446,"▁109800|ḥzw.t":11447,"▁nm.tꞽ-nḫt":11448,"ẖkr.t-nswt-wꜥ.tꞽt":11449,"▁400181|B":11450,"▁25550|ꞽm.ꞽ-rʾ":11451,"▁94|Ꜣbd.w":11452,"▁Sothis":11453,"▁400043|ꞽm.ꞽ-rʾ-mšꜥ":11454,"▁314|ꜣg":11455,"▁110560|ḥ":11456,"▁130010|swꜥb":11457,"▁500020|nḏm":11458,"▁253|ꜣḫ.w":11459,"▁401130|Mnw-Ḥr.w":11460,"▁162950|kꜣ":11461,"▁450112|H̱nm.w":11462,"▁167900|grḥ\r\n":11463,"▁Untertanen\r\n":11464,"▁450442|Ḥꜣb-wr":11465,"▁art.poss":11466,"▁851865|Nmt.ꞽ-nḫt.w":11467,"▁885044|Ḥw.t-kꜣ-Ḥr.w-Zꜣ\r\n":11468,"▁850039|ẖkr.t-nswt-wꜥ.tꞽt":11469,"▁852514|zꜣ-nswt-n-ẖ.t=f":11470,"▁882494|N.ꞽ-nṯr-nb.tꞽ\r\n":11471,"▁171640|tp.ꞽ-ḥꜣ.t":11472,"(s":11473,"/R":11474,"/V":11475,"/so":11476,"00|ꞽz":11477,"119</g>":11478,"405":11479,"44|Ꞽ":11480,"54|":11481,"680|":11482,"830|ꞽ":11483,"9</g>":11484,"=(ꞽ)":11485,"=(ꞽ)\r\n":11486,"Bꜣs":11487,"Er":11488,"Mꜣꜥ.t":11489,"Psḏ":11490,"die":11491,"fꜣ.t":11492,"gꜣ.w":11493,"hör":11494,"kt,":11495,"kaf":11496,"lung":11497,"langen":11498,"pack":11499,"qꜣ\r\n":11500,"sm":11501,"s.wt":11502,"sḫ.t\r\n":11503,"tes":11504,"t!\r\n":11505,"t-kꜣ.w":11506,"wi":11507,"w-n":11508,"weg":11509,"zr":11510,"zi.\r\n":11511,"zḫn":11512,"äu":11513,"šꜣ\r\n":11514,"ḥ.yt":11515,"Ḫn":11516,"ḫ.w":11517,"Ṯtw\r\n":11518,"ẖm":11519,"ẖn.t":11520,"▁𓂭":11521,"▁𓃹":11522,"▁𓄊":11523,"▁𓆇":11524,"▁𓍍":11525,"▁𓍑":11526,"▁𓍞":11527,"▁𓎯":11528,"▁𓐛":11529,"▁𓇠\r\n":11530,"ꜥḏ":11531,"ꜥḥ\r\n":11532,"Ꞽm":11533,"Ꞽṯ":11534,"ꞽt":11535,"𓀾𓏛":11536,"𓁹𓂓𓍺":11537,"𓂓𓆑𓍺":11538,"𓂝𓏤":11539,"𓂞𓂞":11540,"𓃀𓂣":11541,"𓄋𓊪𓏏":11542,"𓄑𓂧𓏏":11543,"𓅂\r\n":11544,"𓅚𓅚":11545,"𓅜𓐍𓏏":11546,"𓅟\r\n":11547,"𓅪𓏥\r\n":11548,"𓅱𓋴𓎡":11549,"𓇋𓅓":11550,"𓇋𓅱\r\n":11551,"𓇍𓈖\r\n":11552,"𓈇𓏥":11553,"𓈐𓏥":11554,"𓈜\r\n":11555,"𓊹\r\n":11556,"𓋴𓅱":11557,"𓋹𓊖\r\n":11558,"𓌕𓏌":11559,"𓍃𓅓":11560,"𓍢𓂝":11561,"𓎸𓇍𓈖\r\n":11562,"𓏊𓏖":11563,"𓏌𓏥":11564,"𓏏𓊖":11565,"𓏐𓏖":11566,"𓏝𓈖":11567,"𓐍𓎺":11568,"𓐍𓂋𓏏":11569,"𓐍𓐍𓅱":11570,"▁darauf":11571,"sten.\r\n":11572,"sten)":11573,"chuf":11574,"▁43300|":11575,"▁nd":11576,"▁nm.t":11577,"▁sü":11578,"▁sn.w":11579,"▁sḫti̯":11580,"esp":11581,"▁876":11582,"▁mn.t":11583,"▁mnꞽ.w":11584,"011|":11585,".ꞽ-ꜥꜣ":11586,"▁(ꞽ":11587,"▁(es":11588,"▁(mꜣ":11589,"▁(eine":11590,"▁(er)":11591,"▁wꞽ\r\n":11592,"▁weiter":11593,"▁Dr":11594,"▁Dar":11595,"-n(ꞽ)":11596,"-nḫb":11597,"-n-ꞽm.ꞽ-rʾ":11598,"tau":11599,"▁ḥms":11600,"▁ḥn.w.PL":11601,"▁ḥkn.w\r\n":11602,"▁Tat":11603,"▁Thinitischen":11604,"anich":11605,"ie)":11606,"▁773":11607,"▁768":11608,"▁795":11609,"▁288":11610,"eier":11611,"eige":11612,"eitet":11613,"▁𓇋𓃀𓏏":11614,"▁944":11615,"▁978":11616,"▁90120|ꞽ":11617,"▁Sechem":11618,"60|h":11619,"▁Aber":11620,"▁Amm":11621,"10|b":11622,"▁671":11623,"▁64550|":11624,"▁631":11625,"▁𓅓𓂻":11626,"▁𓅓𓏅":11627,"▁𓋴𓄡":11628,"▁𓋴𓎝":11629,"▁𓋴𓐍𓂋":11630,"▁𓋴<g>T":11631,"▁8549":11632,"▁8573":11633,"▁8533":11634,"40|mr":11635,"40|sḏb":11636,"▁rw":11637,"▁rkḥ":11638,"20|n":11639,"20|mn":11640,"20|ḫꜣ":11641,"▁584":11642,"▁52360|":11643,"1|pw":11644,"50|ḫr.t":11645,"▁ḫpš":11646,"▁𓂋𓌗":11647,"▁𓂋𓏏":11648,"▁𓂋𓇥𓂋":11649,"▁𓂋𓎡𓎛":11650,"igen,":11651,"▁bn":11652,"(.ꞽt)":11653,".t-hrw":11654,".t-p.t\r\n":11655,"▁hꞽ":11656,"▁pꜣ.t":11657,"▁ptr":11658,"▁g(ꜣ)b":11659,"▁ganz":11660,"-m-ꜥ":11661,"-mw.t":11662,"als)":11663,"-ꜥš":11664,"-ꜥꜣ.t":11665,"02|ḥr.ꞽ-tp":11666,"▁300":11667,"▁Wild":11668,"▁Wege":11669,"-ḥw.t\r\n":11670,"▁ḏfꜣ":11671,".PL-šmꜥ.w":11672,"▁getr":11673,"▁gelei":11674,"▁gelegt":11675,"genomm":11676,"▁ꜥ.t":11677,"436|":11678,"430|ꞽb":11679,"▁Bek":11680,"-ḫꜣ":11681,"▁45750|":11682,"nꞽ.t\r\n":11683,"▁178":11684,"▁1712":11685,"▁174|ꜣ":11686,"▁170270|":11687,"▁𓊪𓎛":11688,"▁𓊪𓎛𓏏":11689,"▁eintr":11690,"-ꞽs":11691,"-ꞽz.t":11692,"mꜣ-kꜣ=ꞽ\r\n":11693,"6|ꜣ":11694,"6|ḫtm.w-nṯr-wꞽꜣ-B":11695,"▁ern":11696,"▁186110|":11697,"ntk":11698,"nt.tꞽ\r\n":11699,"-kꜣ.w\r\n":11700,"▁thm":11701,"▁1337":11702,"nꞽs\r\n":11703,"▁zugehör":11704,"▁fd":11705,"▁Iri":11706,"▁1502":11707,"169|":11708,"▁𓎛𓌳":11709,"▁šmi̯.n":11710,"▁La":11711,"ꜣb.ꞽ":11712,"-s(":11713,"2|ḏ":11714,"2|Ḥtp":11715,"▁Der,":11716,"▁168970|":11717,"▁nb.t-ḥw.t":11718,"▁nb-tꜣ-ḏsr":11719,"▁von)":11720,"17</g>":11721,"(.t)-nswt":11722,"(.t)-ḥr.w":11723,"▁Rat":11724,"▁Roten":11725,"▁Redj":11726,"▁𓍿𓎛":11727,"schn":11728,"schei":11729,"▁Schütz":11730,"▁Schrift":11731,"5|Ḥ":11732,"▁𓉘𓍋":11733,"▁𓁹𓅱":11734,"▁𓎟𓏤":11735,"de)":11736,"▁Verwalt":11737,"▁Königsopfer":11738,"▁80007":11739,"▁ṯtw\r\n":11740,"▁𓊃𓂋":11741,"▁n(.ꞽ)-nṯr-nb.tꞽ\r\n":11742,"pyr":11743,"050|nm.t":11744,"indet":11745,"▁prr":11746,"▁prü":11747,"▁pr-wr":11748,"▁mr.(y)t":11749,"-pr-mḏꜣ.t":11750,"▁𓂝𓃂":11751,"▁𓂝𓅓":11752,"▁𓂝𓈎𓄿":11753,"andt":11754,"▁ꜣwi̯":11755,"▁vertreiben":11756,"85</g>":11757,"148|":11758,"▁2576":11759,"nḏ.wt":11760,"𓅱𓏏𓊖\r\n":11761,"▁8818":11762,"▁V\\rel.m.pl":11763,"▁statte":11764,"▁Anfang":11765,"nꜥr.t":11766,"wt.ꞽ\r\n":11767,"▁𓅱𓃀𓈖":11768,"▁𓅨𓏏":11769,"▁Ausg":11770,"▁Aufr":11771,"▁Zurück":11772,"▁ḫrw":11773,"▁lassen.\r\n":11774,"▁185810|ḏd\r\n":11775,"▁𓉔𓇋":11776,"▁𓉔𓊪":11777,"▁𓂧𓊪":11778,"▁\"B":11779,"4510|":11780,"▁𓃀𓈖":11781,"▁ꞽ:zꞽ":11782,"nqw\r\n":11783,"21|m":11784,"grund":11785,"▁tausend,":11786,"ḥ.wꞽ\r\n":11787,"▁168850|tꜣ":11788,"▁tp.ꞽ-ḏw=f\r\n":11789,"𓐍𓂋𓎟𓆑":11790,"▁ẖni̯":11791,"▁186050|ḏd-mdw":11792,"▁V~post":11793,"▁Jemand":11794,"6940|":11795,"▁ꞽb.t":11796,"▁ꞽbḥ.PL":11797,"▁23830|ꞽ":11798,"▁23430|ꞽb":11799,"leichen":11800,"90|wbꜣ":11801,"90|wdn":11802,"dwn":11803,"▁𓌃𓅱":11804,"-ḥr-nb.tꞽ\r\n":11805,"▁𓇍𓇋𓏏":11806,"▁sollte,":11807,"▁Bruch)":11808,"6|Nb":11809,"▁85203":11810,"▁sḏ.t":11811,"▁ꜣḫ(.ꞽ)":11812,"𓏏𓉐\r\n":11813,"ewaut":11814,"𓄿𓏏𓇽":11815,"▁Gehen":11816,"lerin":11817,"ꜣꜥ.t-":11818,"▁Totenpriester,":11819,"▁Steif":11820,"-Nḫb":11821,"-Nebti\r\n":11822,"▁𓐙𓂝":11823,"▁𓇓𓏏𓈖𓅭":11824,"▁𓇓𓏏𓈖𓄤\r\n":11825,"▁450018|":11826,"▁wn(m)":11827,"▁70310|m":11828,"▁𓎼𓃀𓂣":11829,"▁sḥḏ-wꜥb(.w)":11830,"▁gesund":11831,"▁𓌂𓉲":11832,"ḥ.t.n":11833,"▁bꜣ.PL":11834,"▁PREP-adjz:m.pl:stpr":11835,"ḫrp-ns.tꞽ":11836,"▁Gelob":11837,"ḫnms":11838,"▁entsteh":11839,"▁Bier.\r\n":11840,"▁Geb.\r\n":11841,"▁Festen":11842,"▁All":11843,"▁𓋹𓈖𓐍\r\n":11844,"▁Mann,":11845,"▁lebe":11846,"▁Lebenden,":11847,"▁Werk":11848,"-nefer.\r\n":11849,"▁(dessen)":11850,"-qd.w":11851,"▁7088":11852,"70|nn\r\n":11853,"gerichtet":11854,"▁713481|Ḥ":11855,"60|sḫ.t-":11856,"▁Vaters":11857,"▁𓌻𓂋𓏏":11858,"▁ꞽp(.t)":11859,"▁𓋴𓂧𓄿":11860,"▁Wasch":11861,"▁ꞽmn.t(ꞽ)":11862,"drück":11863,"šr.t\r\n":11864,"▁150560|sḏm\r\n":11865,"▁einzigen":11866,"▁450702|ḥr.ꞽ-tp":11867,"sieh":11868,"▁Erde,":11869,"▁N-adjz:m.sg\r\n":11870,"▁𓌻𓂋𓎛𓏏":11871,"▁dauert":11872,"▁119650|ḫr.t":11873,"▁haben,":11874,"▁𓏃𓏏𓈙":11875,"bꞽꜣi̯":11876,"bꞽn.t\r\n":11877,"knü":11878,"▁Kraft":11879,"▁wꜥ.t\r\n":11880,"essel":11881,"▁𓋴𓃀𓎢":11882,"▁850695":11883,"▁N-adjz:f.sg\r\n":11884,"▁182900|":11885,"▁70699":11886,"▁rdi̯.n":11887,"▁ꜣbw\r\n":11888,"▁132380|zp":11889,"▁88252":11890,"▁𓉻𓂝𓏛":11891,"ṯz.w":11892,"▁𓃞𓎸𓇍𓈖\r\n":11893,"▁Dieses":11894,"▁450158|ꜥꜣ\r\n":11895,"▁Ni-m":11896,"▁400178|mꜣꜥ.t-ḫrw":11897,"▁täglich.\r\n":11898,"Zꜣ-ꞽb\r\n":11899,"▁𓆄𓆄":11900,"▁V\\imp.du":11901,"▁271|Ꜣs.t\r\n":11902,"▁–,\r\r\n":11903,"▁art:f.sg":11904,"▁𓇑𓇑\r\n":11905,"t/einge":11906,"▁nḥm.n":11907,"40|ḫꜥ.w":11908,"▁Bogen":11909,"▁Balsamierer,":11910,"▁(durch":11911,"▁𓈖𓄓𓊃":11912,"70|mꞽ.y":11913,"𓄊𓋴𓂋𓏏":11914,"▁84570|nn\r\n":11915,"▁geworden.\r\n":11916,"geschwoll":11917,"▁141560|sḫ.t-":11918,"▁Frieden!\r\n":11919,"ählen":11920,"-ḏd.t\r\n":11921,"špss":11922,"▁(indem)":11923,"▁500061|pw":11924,"▁94530|rmṯ\r\n":11925,"▁Nephthys,":11926,"▁123280|ẖ":11927,"▁(jetzt":11928,"▁-3du\r\n":11929,"▁136620|=snꞽ\r\n":11930,"▁(lit.:":11931,"▁𓋴𓇋𓂝":11932,"▁850137|":11933,"▁72840|mrḥ.t\r\n":11934,"-Zkr":11935,"▁Imiut":11936,"▁𓅾𓀁":11937,"▁etwas,":11938,"▁22850|Ꞽwn.w":11939,"▁ḫtm.w-nṯr-wꞽꜣ-bꜣ-nṯr.w":11940,"▁wr-mḏ.PL-šmꜥ.w":11941,"▁𓅷𓄿":11942,"▁<g>V96</g>𓅱":11943,"▁Salböl,":11944,"▁(Wenn)":11945,"▁Rindern,":11946,"▁𓂚𓄿":11947,"▁(ander":11948,"▁Hemak":11949,"▁855795|":11950,"▁𓉻𓂝𓄿𓏛":11951,"getrennt":11952,"▁zẖꜣ.w\r\n":11953,"▁𓂋𓂧𓌗𓏛":11954,"▁Öl/F":11955,"▁grüne":11956,"▁𓈖𓆓𓐩𓈖":11957,"▁𓄤𓆑𓂋𓅱":11958,"▁𓌃𓅓𓂧":11959,"▁𓅮𓄿":11960,"▁Wüste,":11961,"▁ḫnt.ꞽ-š-pr-ꜥꜣ":11962,"▁V~ptcp.distr.pass.f.sg":11963,"(-n)-nswt":11964,"▁Resp":11965,"▁51690|wdn":11966,"-Fl":11967,"▁71721|m":11968,"▁verschluck":11969,"-ḥw.wt":11970,"▁verklärt":11971,"▁El-K":11972,"▁150440|sḏb":11973,"▁Chenti-ir":11974,"▁400419|pr-nswt\r\n":11975,"▁𓐎𓏏𓀜𓐍𓂋":11976,"▁Königstochter,":11977,"▁(Schlange)":11978,"▁134370|smꜣ":11979,"▁853216|ḫtm.w-nṯr-wꞽꜣ-B":11980,"▁Geistes":11981,"52|n":11982,"dest.\r\n":11983,"▁44890|wbꜣ":11984,"▁nʾ.t.PL":11985,"▁mꞽ.tt":11986,"▁𓇋𓈎𓂋𓏛":11987,"<g>Z24</g>":11988,"<g>O338</g><g>O338</g>":11989,"▁darfst":11990,"▁p(w)-nn":11991,"▁existier":11992,"▁Pezen-Fl":11993,"▁Kosen":11994,"▁𓍿𓏏𓅱\r\n":11995,"▁unvergänglich":11996,"▁(Rangtitel),":11997,"00|gbꜣ":11998,"▁durchzieh":11999,"▁127840|sꞽ":12000,"▁ḏf(ꜣ)":12001,"▁114840|ḫꜥ.w":12002,"<g>O175B</g>\r\n":12003,"▁vorfindest,":12004,"▁Sahure":12005,"▁81|Ꜣbw\r\n":12006,"▁Rensi,":12007,"▁500032|ꞽ":12008,"▁Gazelle":12009,"▁166900|gbꜣ":12010,"▁friedlich":12011,"$-Pflanze":12012,"▁143330|sẖ.t":12013,"▁84050|nm.t":12014,"▁400645|ky":12015,"▁68170|mꞽ.y":12016,"▁51020|wt.ꞽ\r\n":12017,"▁136700|sn":12018,"▁131460|z":12019,"ḥm.t-nṯr-Nꞽ.t":12020,"▁<g>G192</g>":12021,"▁sḫpi̯.t":12022,"▁𓋴𓌂𓅓𓐍":12023,"▁Min-Horus,":12024,"-sꜣḥ.w-rꜥw":12025,"▁ḥm(.t)-nṯr-nꞽ.t":12026,"▁𓇷𓏏":12027,"▁34760|ꜥꜣ":12028,"▁aufleben":12029,"▁Vornehme":12030,"Nfr-ꞽr-kꜣ-Rꜥw":12031,"-nfr-ꞽr-kꜣ-rꜥw":12032,"+(rʾ)":12033,"▁400011|ꞽm.ꞽ-rʾ-ꞽꜥꜣ.w":12034,"▁smr-wꜥ.t(ꞽ)":12035,"▁𓏲𓃀𓈖𓏌𓏲𓂐":12036,"▁123270|ẖnw":12037,"▁450536|Smd.t":12038,"▁<g>G200</g>\r\n":12039,"▁104390|ḥfꜣ.w":12040,"▁162430|qd":12041,"▁110560|ḥqr":12042,"▁43300|wꜣ":12043,"▁90120|ꞽntk":12044,"▁64550|m-ꜥ":12045,"▁52360|wḏꜥ":12046,"▁45750|w":12047,"▁171270|tp":12048,"▁170270|tw":12049,"▁186110|ḏd":12050,"▁133780|sf":12051,"▁25760|ꞽm.ꞽ-ḫt":12052,"▁V~post.pass":12053,"▁23830|ꞽbḥ":12054,"▁450018|Ṯtw\r\n":12055,"▁713481|Ḥmꜣ-kꜣ=ꞽ\r\n":12056,"▁850695|nb-ꞽmꜣḫ":12057,"▁132380|zp.t\r\n":12058,"▁500061|pw-nn":12059,"▁850137|ḥm.t-nṯr-Nꞽ.t":12060,"▁855795|ẖr.ꞽ-ḥ":12061,"▁853216|ḫtm.w-nṯr-wꞽꜣ-Bꜣ-nṯr.w":12062,"▁unvergänglicher":12063,"▁127840|sꞽꜣ":12064,");\r\n":12065,"/sie":12066,"103":12067,"1|m-ḫt":12068,"190|ḥ":12069,"250|":12070,"46|":12071,"54|Ḥtp":12072,"71|ꞽ":12073,"86|":12074,"=w":12075,"Bꜣ":12076,"Bꜣ.w":12077,"Che":12078,"Htꞽ\r\n":12079,"Re.\r\n":12080,"Rkḥ":12081,"Sꜣḥ":12082,"Ttꞽ\r\n":12083,"a5A</g>":12084,"b.t\r\n":12085,"bank":12086,"eund":12087,"h,":12088,"h.t\r\n":12089,"kr\r\n":12090,"lauf":12091,"mr\r\n":12092,"nehmen":12093,"rr":12094,"rat":12095,"rug":12096,"sver":12097,"s).\r\n":12098,"twt":12099,"wꜣ.w":12100,"wpi̯":12101,"y,":12102,"zi":12103,"zü":12104,"zess":12105,"zꜣb-sḥḏ-zẖꜣ.ww":12106,"äsch":12107,"š.w":12108,"ḏw.t":12109,"ḏ+(ꞽb)":12110,"Ḥꜣb-":12111,"ḥ.tꞽ\r\n":12112,"ḫw":12113,"ḫn\r\n":12114,"ṯms":12115,"ṯni̯":12116,"▁𓈉":12117,"▁𓋩":12118,"▁𓎆":12119,"▁𓏋":12120,"▁𓏑":12121,"▁RE":12122,"▁𓏤𓏤𓏤𓏤":12123,"▁𓆱\r\n":12124,"▁𓄪𓐍":12125,"▁𓐫𓂧":12126,"𓁷𓂋𓏏":12127,"𓂊𓏤":12128,"𓂻𓂻":12129,"𓂻𓐍𓂋":12130,"𓃀𓐎":12131,"𓃞𓊵\r\n":12132,"𓄞𓂧":12133,"𓄣𓏤\r\n":12134,"𓄫𓅱":12135,"𓅓𓉐𓉐":12136,"𓅨𓅨":12137,"𓅱𓂝":12138,"𓆓𓂧":12139,"𓇋𓏲":12140,"𓇏𓇏":12141,"𓇼𓇿𓇿":12142,"𓉻\r\n":12143,"𓊃𓆑":12144,"𓊃𓎡𓂋":12145,"𓊨𓊨𓏏":12146,"𓋴𓈖\r\n":12147,"𓌃𓏝":12148,"𓌳𓐚":12149,"𓍘𓍘":12150,"𓎛\r\n":12151,"𓏌𓏤":12152,"𓏏𓀁":12153,"𓏏𓁷":12154,"𓏏𓊵":12155,"𓏏𓏖":12156,"𓐍𓂻":12157,"𓐚\r\n":12158,"▁dꜣ":12159,".t(w)":12160,"st!\r\n":12161,"steig":12162,"standen":12163,"▁Nit":12164,"eni.\r\n":12165,"en;\r\n":12166,".w)":12167,"innen":12168,"▁407":12169,"▁413":12170,"▁432":12171,"▁nr.t":12172,"▁nör":12173,"▁n.ꞽ-m":12174,"▁nꞽs":12175,"▁ntk":12176,"▁sꜣb":12177,"▁s(w)":12178,"▁smn":12179,"▁sꜣḫ":12180,"▁sḫt":12181,"▁swꜣḏ":12182,"▁sn.w.PL":12183,"▁s.t-kꜣ(=ꞽ)\r\n":12184,"m.ꞽ)":12185,"▁872":12186,"▁841":12187,"▁871":12188,"▁mꜥ":12189,"▁mnꞽ\r\n":12190,"▁ꞽst":12191,"▁ꞽd.t":12192,"▁ꞽdb":12193,"▁ꞽš.t":12194,"▁(L":12195,"▁(h":12196,"▁(k":12197,"▁(r":12198,"▁(im":12199,"▁(oder":12200,"▁wš":12201,"▁wach":12202,"▁Dich":12203,"-nh.t":12204,"▁Tewaut":12205,"ieft":12206,"iedig":12207,"▁755":12208,"▁783":12209,"00|ḏ":12210,"00|wr":12211,"00|wdp.w":12212,"▁213":12213,"unge":12214,"▁𓈖𓂝𓅱":12215,"▁𓈖𓎸𓅓":12216,"gelegt":12217,"▁𓇋𓈝":12218,"▁𓇋\r\n":12219,"▁𓇋𓇋𓇋":12220,"▁𓇋𓂋𓏏":12221,"▁982":12222,"▁96460|":12223,"▁Hund":12224,"emh":12225,"▁Sech":12226,"▁Sab":12227,"▁Sefetj":12228,"60|b":12229,"60|mꞽ":12230,"60|ḫft":12231,"▁Am":12232,"▁As":12233,"▁Asch":12234,"▁Amt":12235,"▁Amen":12236,"10|d":12237,"▁66460|":12238,"▁400054|Ḥtp":12239,"90|qꜣ":12240,"▁8547":12241,"▁8539":12242,"▁8589":12243,"▁85118":12244,"40|nw":12245,"▁zb":12246,"▁zḥ":12247,"20|Ḏ":12248,"20|mwt":12249,"▁Gan":12250,"▁Gunst":12251,"swꜣḏ":12252,"▁501":12253,"▁507":12254,"▁543":12255,"▁536":12256,"1|rḏi̯":12257,"kꜣ\r\n":12258,"|nn":12259,"ter)":12260,"30|spr":12261,"30|bꞽꜣi̯":12262,"▁ḫsb":12263,"▁ḫtm.w":12264,"<g>H":12265,"▁bb":12266,"▁bnw.t":12267,"▁htꞽ\r\n":12268,"▁pass":12269,"▁1266":12270,"▁123590|":12271,"▁gb":12272,"70|b":12273,"70|ḫft":12274,"70|ḫt\r\n":12275,"-m-ꜥnḫ":12276,"ptr":12277,"ale":12278,"80|ꜥḥꜥ":12279,"▁307|":12280,"▁Wa":12281,"▁Westlichen":12282,"4|Htꞽ\r\n":12283,"▁Munde":12284,"▁Macht,":12285,"▁Messer":12286,"▁Masse":12287,"▁Milch":12288,"▁ḏꜥ":12289,"ehen.\r\n":12290,"▁Ori":12291,"▁𓍹S":12292,"▁ged":12293,"▁geges":12294,"▁ꜥqꜣ":12295,"▁1116":12296,"▁118590|":12297,"621|":12298,"▁450":12299,"▁177640|":12300,"▁𓊪𓆓":12301,"▁𓊪𓇑𓇑":12302,"▁𓊪𓅯𓄿":12303,"-nswt-m-pr.wꞽ":12304,"-ꞽm.ꞽ":12305,"-wsꞽr":12306,"-wꜣ.wt\r\n":12307,"nḫb":12308,"▁ꞽr.ꞽ-pꜥ.t":12309,"▁1816":12310,"▁Horus'":12311,"▁tw\r\n":12312,"▁tḫb":12313,"▁135":12314,"▁1307":12315,"▁1350":12316,"▁1353":12317,"asser":12318,"29C</g>":12319,"▁Iam":12320,"▁Idu.\r\n":12321,"130|ꞽ":12322,"7|mꜣꜥ":12323,"▁15.":12324,"▁1528":12325,"ꜣ.t.PL\r\n":12326,"16A</g>":12327,"▁𓎛𓎛":12328,"▁šꜥ":12329,"▁šmꜥ.w":12330,"▁Licht":12331,"▁𓐍𓃀":12332,"▁𓐍𓏏\r\n":12333,"▁𓐍𓂜𓅓":12334,"-sꞽ":12335,"-set":12336,"-sqr":12337,"491|rḏi̯":12338,"𓇋𓇋𓏲":12339,"(.w)-n":12340,"050|ꞽn.w":12341,"▁Unkenntnis":12342,"▁882050|ḫnt.ꞽ":12343,"▁nbw":12344,"ef\r\n":12345,"▁kü":12346,"▁k(ꜣ=ꞽ)":12347,"▁Rechtfertig":12348,"▁Richte":12349,"▁Ritual":12350,"▁Schlange":12351,"▁Schurz":12352,"▁1427":12353,"▁Neum":12354,"▁ḥtp-nꞽ.t\r\n":12355,"▁Verrenk":12356,"▁nichts":12357,"tige":12358,"▁ꞽwꜥ":12359,"▁𓏏𓍯𓄿":12360,"▁<g>(unidentified)":12361,":f.du":12362,"▁nfr(.t)":12363,"▁$wnḫ":12364,"▁prꞽ":12365,"▁mrḥ.t\r\n":12366,"▁mr(.y)":12367,"šm.w":12368,"089":12369,"▁𓉐𓇓𓏏":12370,"ut\r\n":12371,"▁vers":12372,"▁verein":12373,"▁versamm":12374,"▁𓇋𓂋𓏭":12375,"▁𓈖𓏏𓎢":12376,"14</g>":12377,"pw.tꞽ":12378,"$-Z":12379,"immt":12380,"▁𓊨𓊨𓊨𓏏":12381,"wr.t-ḥ":12382,"▁mꜣ-ḥḏ":12383,"▁mꜣꞽr":12384,"umpf":12385,"ural":12386,"▁Kai":12387,"▁stand":12388,"▁stehen":12389,"▁Anle":12390,"▁Angesicht":12391,"▁zꜣ-ꞽb\r\n":12392,"w.t-ꞽ":12393,"▁ḏdꞽ\r\n":12394,"aßt":12395,"▁scharf":12396,"3|zẖꜣ.w":12397,"▁𓅨𓇙":12398,"▁𓊹𓅆":12399,"▁𓊹𓉗𓏏𓉐":12400,"▁Auge,":12401,"▁Nefer-qed":12402,"<g>D118</g>":12403,"▁851549|":12404,"▁𓅭𓃀":12405,"▁400151|m-ḫt":12406,"▁𓆓𓂧𓏏":12407,"nw.t\r\n":12408,"▁Dua-":12409,"▁ausst":12410,"▁𓂋𓈖𓋴𓏭":12411,"▁ꜥnḫ.w":12412,"▁ꜥnḫ-(w)":12413,"33|ꞽm.ꞽ-rʾ":12414,"454|Htꞽ\r\n":12415,"▁𓋹𓍑":12416,"▁wr.t-ḥ":12417,"▁ḥtp-ḏi̯-nzw":12418,"▁ꞽ:bꜣ":12419,"▁ꞽ:ḫm-sk\r\n":12420,"ägyptische":12421,"▁leer":12422,"▁(ꞽ)m(.ꞽ)-rʾ-mḏ":12423,"▁450125|":12424,"wḏꜣ\r\n":12425,"i-P":12426,"▁Großes":12427,"▁(?)!\r\n":12428,"Ꞽn.t-kꜣ=s\r\n":12429,"35A</g>":12430,"0|ꞽm.ꞽ-wr.t\r\n":12431,"trän":12432,"▁𓏙𓏏":12433,"▁sn.nw":12434,"04|zẖꜣ.w-ꜥ-n-nswt":12435,"▁7102":12436,"▁7106":12437,"▁𓁶𓊪𓏏":12438,"740|ṯ":12439,"▁Meru":12440,"▁60033":12441,"▁𓍹𓇳𓄤𓁹𓂓𓍺":12442,"2220|":12443,"▁27050|ꞽn.w":12444,"▁tꜣ.DU":12445,"-wꜥ.t":12446,"opol":12447,"▁ꜥḥꜥ\r\n":12448,"▁85567":12449,"▁85566":12450,"em.\r\n":12451,"▁𓇍𓇋𓇋𓏏":12452,"-kau":12453,"qꜣ-ḥw.t-ꜥꜣ.t":12454,"ms.w-pr":12455,"0|ꞽbꜣ\r\n":12456,"ahrer":12457,"geht":12458,"▁450604|zẖꜣ.w-ꜥ-n-nswt":12459,"sbḫ":12460,"▁38530|ꜥnḫ\r\n":12461,"▁'$":12462,"▁mꞽn":12463,"▁852294|":12464,"8950|":12465,"▁𓏅𓍘":12466,"▁850291|ꞽ":12467,"▁450533|":12468,"▁450573|":12469,"▁175750|":12470,"▁175740|ṯ":12471,"▁Totenpriester.\r\n":12472,"▁Grau":12473,"▁99940|":12474,"▁Stimm":12475,"▁Stär":12476,"▁V\\ptcp.pass.m.sg\r\n":12477,"t)\r\n":12478,"▁𓐙𓊤":12479,"▁wꜥb.n":12480,"▁𓇾𓇾":12481,"▁450020|Ḏ":12482,"▁𓏠𓈖𓇋\r\n":12483,"▁𓏠𓈖𓂧𓏏":12484,"▁𓏠𓈖𓏌𓏌𓏌":12485,"▁𓇋𓏏𓂋𓏏":12486,"Kꜣ=ꞽ-m":12487,"▁850712|ḥm-nṯr-":12488,"▁Frucht":12489,"▁851491|rḏi̯":12490,"▁𓍯𓆓":12491,"▁𓍯𓄿𓏏":12492,"▁7033":12493,"▁𓋴𓏏𓄝":12494,"<g>O32":12495,"▁Teti,":12496,"▁gesp":12497,"▁gesetz":12498,"-kaes.\r\n":12499,"▁𓌂<g>A100":12500,"▁𓄡𓊃":12501,"<g>P5":12502,"ḫnz":12503,"▁User":12504,"▁frische":12505,"▁ḫpr\r\n":12506,"kraft":12507,"▁70529":12508,"▁20001":12509,"▁𓏶𓀁":12510,"▁𓏶𓅱":12511,"▁sḫ.t-":12512,"▁sḫm.n":12513,"▁sḫm.PL":12514,"▁Lebenden":12515,"▁𓇋𓊪𓅱":12516,"6|Sḥtp":12517,"▁66740|":12518,"▁8609":12519,"4800|":12520,"▁𓂋𓏙𓏏":12521,"▁7098":12522,"60|smnḫ":12523,"<g>A13A</g>":12524,"▁40110|ꜥḥꜥ\r\n":12525,"▁ḥm-nṯr-sꜣḥ.w-rꜥw":12526,"ḫb$-Schwell":12527,"▁𓌻𓂋𓅱":12528,"afen":12529,"▁zusammenf":12530,"930|swꜣḏ":12531,"▁ꞽmꜣḫ.w-ḫr-wsꞽr":12532,"▁107|ꜣpd\r\n":12533,"▁𓃛𓏲":12534,"▁𓅿𓏥":12535,"▁Schlagen":12536,"+(ꞽꜣ.w)":12537,"zm.w":12538,"-ḥm.w-nṯr":12539,"▁mri̯.w":12540,"▁Weis":12541,"▁𓉐𓉻𓇓𓏏":12542,"▁𓉐𓉻𓌕𓏌":12543,"▁ẖr(.ꞽ)-tp-nswt":12544,"▁mnd.t":12545,"▁𓅠𓈖":12546,"▁70420|m":12547,"▁704454|Htꞽ\r\n":12548,"▁Stab":12549,"▁450741|":12550,"10|šr.t":12551,"▁𓏏𓏲\r\n":12552,"▁𓌻𓂋𓀁":12553,"▁𓌻𓂋𓅱𓏏":12554,"▁129930|swꜣḏ":12555,"▁Würdig":12556,"▁𓊿𓏏":12557,"4080|":12558,"spruch":12559,"kno":12560,"▁𓎗𓏲𓏛":12561,"▁44460|":12562,"-wḏꜣ\r\n":12563,"▁ḥr(.ꞽ)-tp":12564,"▁Rindes.\r\n":12565,"80|wrḏ+(ꞽb)":12566,"▁Wadjet,":12567,"▁(Gottes)":12568,"▁ḫnms":12569,"▁𓐍𓋴𓍚":12570,"zꜣb-zẖꜣ.w":12571,"▁Zustand":12572,"70|ꞽpw":12573,"▁ꜣbḏ.w\r\n":12574,"▁𓍒𓅱":12575,"▁smnḫ":12576,"-Ḥr.w\r\n":12577,"▁𓏲𓂧𓏴":12578,"▁𓏏𓍃\r\n":12579,"▁wnm.t":12580,"▁𓇋𓌳𓄪𓐍𓐍𓂋𓊹𓉻":12581,"▁Westens":12582,"ḏꜣ-s(":12583,"▁𓌡𓏤":12584,"▁N:du:stpr":12585,"▁erschienen":12586,"2|Spd":12587,"▁Göttern.\r\n":12588,"-Ttꞽ\r\n":12589,"▁genommen":12590,"zḥ.t\r\n":12591,"▁𓂝𓏤𓅱𓏭":12592,"▁=3pl\r\n":12593,"▁euch,":12594,"▁Balsamierer.\r\n":12595,"-ttꞽ\r\n":12596,"▁𓍃𓏏\r\n":12597,"80|ḥqꜣ-ḥw.t-ꜥꜣ.t":12598,"▁psḏ.t.DU":12599,"$-Krone":12600,"▁400939|nb-tꜣ-ḏsr":12601,"-Wsꞽr":12602,"▁Ptah-Sokar":12603,"beck":12604,".(w)t\r\n":12605,"▁51980|":12606,"▁Wirk":12607,"▁171980|":12608,"erruder":12609,"▁(Krone":12610,"▁zꜣb-zẖꜣ.w":12611,"▁160350|q":12612,"▁(lit:":12613,"▁ꞽdw\r\n":12614,"▁Befind":12615,"▁Fürst,":12616,"▁euren":12617,"▁𓃂𓈗":12618,"▁sieh?)":12619,"▁𓊹𓋨𓇼𓇿𓇿":12620,"▁spd.t":12621,"▁wpi̯.n":12622,"▁Throne":12623,"𓐄𓐄𓐄𓐄":12624,"▁𓁶𓊪𓏭\r\n":12625,"▁Grab.\r\n":12626,"-ḫnt.ꞽw-š":12627,"▁62610|p":12628,"▁rdi̯.y":12629,"ezogen":12630,"▁𓂊𓏤":12631,"𓆓𓆑𓆓𓆑":12632,"▁ẖkr.t-nswt-wꜥ.t":12633,"▁𓇋𓂻𓅱𓈖":12634,"▁𓁷𓁶𓉼":12635,"öchern":12636,"▁(O)":12637,"iebtheit":12638,"▁54650|":12639,"▁116760|ḫft":12640,"▁116770|ḫft":12641,"▁Haar":12642,"▁𓄤𓆑𓂋𓏏":12643,"▁Lebensmittel":12644,"▁Nasenl":12645,"▁132830|spr":12646,"▁𓆓𓆑𓆓𓆑𓆓𓆑":12647,"▁ꞽꞽ-mr":12648,"▁(von)":12649,"20|tḫb":12650,"-dwꜣ.t":12651,"maler":12652,"▁ꞽmꜣḫ.wt-ḫr-nṯr-ꜥꜣ":12653,"▁103750|ḥbs\r\n":12654,"Ꞽm.ꞽ-s":12655,"▁𓋴𓌢𓈖":12656,"▁51600|wdp.w":12657,"▁Feld":12658,"▁hinabsteigen":12659,"▁(Hirn-)Schädels":12660,"▁Komm,":12661,"83|Ꞽn.t-kꜣ=s\r\n":12662,"▁𓍈𓏌𓅱":12663,"▁121270|ḫt\r\n":12664,"▁138920|sr\r\n":12665,"▁ausgestattet":12666,"▁𓈀𓈇𓏤":12667,"▁𓎛𓈎𓏏𓏊":12668,"▁69320|mwt":12669,"▁Christusdornfr":12670,"öpfe":12671,"▁𓌮𓇿":12672,"▁ḥmꜣ-kꜣ(=ꞽ)\r\n":12673,"50|tꜣš":12674,"▁Bitte":12675,"▁𓌳𓄿𓇋𓂋𓌗":12676,"▁400419|pr-nswt":12677,"▁Königstochter":12678,"band(?)":12679,".t-ḫwi̯=f-wꞽ":12680,"▁Oberarm":12681,"▁600472|ḏ":12682,"▁Stirn":12683,"▁110870|ḥkn.w":12684,"▁110870|ḥkn.w\r\n":12685,"▁gelegt,":12686,"/Nasen":12687,"▁48280|wrḏ+(ꞽb)":12688,"▁rmṯ.PL":12689,"▁851672|Spd":12690,"▁geschlagen,":12691,"N.ꞽ-mꜣꜥ.t-":12692,"▁Elef":12693,"▁131210|sbꜣ":12694,"▁𓇓𓏏𓐬𓌡":12695,"tworte":12696,"▁𓎟𓍋𓃀𓈋𓊖":12697,"▁120010|ḫrw":12698,"▁500006|Nw.w\r\n":12699,"▁Seschat":12700,"▁Kuh.\r\n":12701,"▁handeln:\r\n":12702,"▁$tḫb$-Schwell":12703,"▁𓂧𓊪𓏏𓊛":12704,"▁𓅨𓂋𓂋𓏏𓋒":12705,"▁𓇋𓌳𓄪𓐍𓅱𓐍𓂋𓊹𓀭":12706,"▁850583|ꞽr.ꞽ":12707,"▁𓏃𓏏𓊹<g>O":12708,"▁klaffenden":12709,"▁450047|Ḏdꞽ\r\n":12710,"▁46280|wn":12711,"▁sḥmi̯.n":12712,"▁mr.t-nꞽ.t\r\n":12713,"▁Getreides":12714,"▁156610|šr.t":12715,"▁vortrefflich":12716,"▁Steuerruder":12717,"-mḏḥ.ww-nswt":12718,"▁Empfang":12719,"Sꜣḥ.w-Rꜥw":12720,"▁Papyr":12721,"▁Pfeil":12722,"▁110480|ḥqꜣ-ḥw.t-ꜥꜣ.t":12723,"▁außerdem":12724,"▁<g>I6A</g>":12725,"▁lobt,":12726,"zeugs.\r\n":12727,"▁𓈙𓂋𓏏𓂉":12728,"▁𓇓𓏏𓈖𓂓𓈖\r\n":12729,"▁befriedig":12730,"<g>Q18</g>":12731,"▁NUM.ord:sg.m\r\n":12732,"letzung":12733,"▁400576|tꜣ":12734,"▁(schon)":12735,"▁Hände":12736,"▁𓂋𓈋𓅱<g>W54</g>":12737,"▁116430|ḫ":12738,"▁ein(es)":12739,"leute,":12740,"▁158990|qꜣ":12741,"▁169650|tꜣš":12742,"schlossen":12743,"▁Nechenem":12744,"▁$sḏ$-Bruch":12745,"▁𓐍𓈖𓌰𓅓𓋴":12746,"▁𓊽𓊽𓇋𓏛𓀀\r\n":12747,"▁20570|ꞽꜣb.tꞽ":12748,"▁Wereret-Krone":12749,"▁450309|Ꞽdw\r\n":12750,"▁39850|ꜥḥ":12751,"▁176350|":12752,"▁ḥr.ꞽ-tp-ꜥꜣ-(n-)":12753,"▁163310|kꜣ":12754,"▁Patient)":12755,"▁𓎝𓎛𓏛":12756,"▁450089|Mnꞽ\r\n":12757,"▁450468|ṯḥn.w\r\n":12758,"▁24370|ꞽpw":12759,"▁𓋴𓆓𓏏𓊮":12760,"▁128910|s":12761,"▁173220|tḫb":12762,"7|mḏḥ.w-mḏḥ.ww-nswt":12763,"▁708283|Ꞽn.t-kꜣ=s\r\n":12764,"gefügt":12765,"albmonatsfest":12766,"▁NUM.card":12767,"▁Zauberreiche":12768,"▁49600|wsr.w":12769,"▁52130|wḏꜣ":12770,"▁ḫpp!.(w)t":12771,"▁(ꞽm.ꞽ)":12772,"-n(ꞽ)swt":12773,"▁97860|h":12774,"▁𓂋𓎡𓎛𓊮":12775,"▁𓉘𓍋𓋴":12776,"▁23430|ꞽb.t":12777,"▁Steifheit":12778,"-qd.w-nswt-m-pr.wꞽ":12779,"▁450702|ḥr.ꞽ-tp-Nḫb":12780,"▁182900|ḏw.t":12781,"▁882527|mḏḥ.w-mḏḥ.ww-nswt":12782,"▁141560|sḫ.t-ꞽꜣr.w\r\n":12783,"▁Hemaka\r\n":12784,"▁71721|mnḏ.t":12785,"▁Chenti-irti":12786,"▁<g>G192</g>𓏏𓏏":12787,"▁186110|ḏdi̯":12788,"Cheop":12789,"wpi̯+(rʾ)":12790,"▁REL":12791,"▁21340|ꞽ":12792,"▁96460|Rkḥ":12793,"▁66460|mꜣꜥ":12794,"▁54330|bꞽꜣi̯":12795,"▁307|Ꜣ":12796,"▁Orion":12797,"▁111600|ḥ":12798,"▁118590|ḫnz":12799,"▁135360|smnḫ":12800,"▁Neumon":12801,"▁<g>(unidentified)</g>":12802,"▁851549|wpi̯+(rʾ)":12803,"▁ꜥnḫ-(w)ḏꜣ-s(":12804,"▁450125|zꜣb-sḥḏ-zẖꜣ.ww":12805,"▁450604|zẖꜣ.w-ꜥ-n-nswt-ḫft-ḥr":12806,"▁852294|ḫtm.w-nṯr-wꞽꜣ":12807,"▁450533|ḫrp-zḥ":12808,"▁450573|Zꜣ-ꞽb\r\n":12809,"▁175750|ṯni̯":12810,"▁850712|ḥm-nṯr-Sꜣḥ.w-Rꜥw":12811,"▁851491|rḏi̯+(ꞽꜣ.w)":12812,"▁70420|mn.w":12813,"▁450741|ḫrp-ns.tꞽ":12814,"▁62610|pšn":12815,"/Nasenhöhlen":12816,"▁163310|kꜣp":12817,"▁97860|hꞽ.w":12818,"▁ꜥnḫ-(w)ḏꜣ-s(nb":12819,"(ꞽ":12820,"-ẖr":12821,"-tꜣ\r\n":12822,"/H":12823,"/P":12824,"/Ver":12825,"/nach":12826,"06|S":12827,"10|ꞽri̯":12828,"109</g>":12829,"26|":12830,"22|S":12831,"3110|":12832,"480|":12833,"40|ꞽw":12834,"50</g>":12835,"85|":12836,"8E</g>":12837,"97|m":12838,"92|":12839,"?;":12840,"Km-wr":12841,"apel":12842,"bl":12843,"bt,":12844,"bs\r\n":12845,"del":12846,"d.w\r\n":12847,"dlich":12848,"dgi̯":12849,"ft,":12850,"fd.w":12851,"fell":12852,"gl":12853,"gr\r\n":12854,"hh":12855,"iv":12856,"ka":12857,"kau":12858,"krei":12859,"kehr":12860,"la":12861,"my":12862,"mḥ":12863,"mr.w":12864,"mn\r\n":12865,"mächtig":12866,"ne":12867,"nḥ":12868,"net":12869,"n-nb.tꞽ\r\n":12870,"pḥ.t":12871,"pat,":12872,"rw.t":12873,"sqꜣi̯":12874,"t-pr":12875,"ttꞽ\r\n":12876,"t'.\r\n":12877,"tieft":12878,"wꞽꜣ":12879,"wischen":12880,"z\r\n":12881,"zḥ\r\n":12882,"ßens":12883,"äum":12884,"äss":12885,"äuf":12886,"ümm":12887,"ḥr.w":12888,"Ḫpr":12889,"ḫꜣ.t":12890,"ḫꜣ.w":12891,"▁𓀔":12892,"▁𓂣":12893,"▁𓃭":12894,"▁𓃰":12895,"▁𓆤":12896,"▁𓉭":12897,"▁𓋌":12898,"▁𓌾":12899,"▁𓍎":12900,"▁𓎠":12901,"▁𓇿\r\n":12902,"▁𓄊𓋴𓂋":12903,"▁ähn":12904,"▁sgnn":12905,"ꜥqꜣ":12906,"Ꞽḥ":12907,"ꞽm.ꞽ":12908,"𓀀𓏪":12909,"𓂧𓊖":12910,"𓂾𓂻":12911,"𓄢\r\n":12912,"𓄰\r\n":12913,"𓄲𓂋":12914,"𓅓𓇋𓇋":12915,"𓅨𓂋\r\n":12916,"𓅨𓏏𓉜\r\n":12917,"𓅪𓈖":12918,"𓇉𓎟":12919,"𓇱\r\n":12920,"𓈖𓈖𓏏":12921,"𓈙𓂝":12922,"𓉐𓉻":12923,"𓉥\r\n":12924,"𓉮𓉯":12925,"𓊃\r\n":12926,"𓊌\r\n":12927,"𓊌𓏥\r\n":12928,"𓊨\r\n":12929,"𓊽𓅱𓊖":12930,"𓋴𓂋":12931,"𓋴𓄤":12932,"𓍿𓂋":12933,"𓎛𓂓𓂓𓂓":12934,"𓎼𓃀":12935,"𓎼𓈖𓈖𓀉":12936,"𓏃𓈖𓏏":12937,"𓏌𓊖":12938,"𓏌\r\n":12939,"𓏏𓌐":12940,"𓏏𓏝":12941,"𓏝\r\n":12942,"𓏞𓏛":12943,"𓏯𓅆":12944,"𓏲𓀀":12945,"𓐍𓍊":12946,"𓐣𓌃𓏝":12947,"ere":12948,"▁dp":12949,"▁di̯.t":12950,"▁dien":12951,"stp.t":12952,"▁Na":12953,"enet":12954,".wꞽ\r\n":12955,"pri̯":12956,"pr.w\r\n":12957,"pries":12958,"inde":12959,"inge,":12960,"inke,":12961,"ineral":12962,"▁41":12963,"▁419":12964,"▁487":12965,"▁469":12966,"▁438":12967,"▁42360|":12968,"▁43420|":12969,"▁nsr":12970,"▁nḥb":12971,"▁ntf":12972,"▁nzw\r\n":12973,"▁smꞽ":12974,"▁sšmi̯":12975,"▁srw":12976,"▁sr.w.PL":12977,"▁sr.w.PL\r\n":12978,"▁812":12979,"▁868":12980,"▁mn\r\n":12981,"▁mḏd":12982,"▁ꞽḫ.t":12983,"▁40098":12984,"01|ḥr.ꞽ-sštꜣ-n":12985,"▁(Z":12986,"▁(gen":12987,"▁(am":12988,"▁(auf":12989,"▁(bei":12990,"▁wis":12991,"▁wḥꜥ":12992,"▁wꞽꜣ":12993,"▁wsr.t":12994,"▁Dem":12995,"▁Ded":12996,"▁Dör":12997,"▁Dien":12998,"-nsw":12999,"-n.t\r\n":13000,"-nfr.w\r\n":13001,"-n.w-":13002,"▁ḥk":13003,"▁ḥfꜣ.w":13004,"▁ḥnmm.t":13005,"▁100160|":13006,"▁Tau":13007,"an)":13008,"ieben.\r\n":13009,"iehl":13010,"0|ꞽmn.tꞽ\r\n":13011,"▁725":13012,"00|ḫpr":13013,"00|ḫsf":13014,"00|zꜣb":13015,"▁208":13016,"eisen":13017,"▁𓈖𓅓":13018,"▁𓈖𓌱":13019,"▁𓈖𓎡":13020,"▁𓈖𓇥𓂋":13021,"orch":13022,"orben":13023,"▁𓇋𓐍":13024,"▁𓇋𓏏𓈖":13025,"▁907":13026,"▁935":13027,"▁Hilf":13028,"▁Hekenu":13029,"▁Sänger":13030,"60|hy":13031,"60|bꞽꜣ":13032,"10|k":13033,"10|sn":13034,"▁607":13035,"▁605":13036,"▁63970|":13037,"▁𓋴𓄿":13038,"▁𓋴𓅡":13039,"▁𓋴𓍯":13040,"▁𓋴𓇥𓂋":13041,"90|wt":13042,"platz":13043,"20|nḫ":13044,"20|wꜣḏ":13045,"▁Geg":13046,"▁𓎡𓋴":13047,"▁𓎡𓆑𓏏𓌪":13048,"teti.\r\n":13049,"▁53300|":13050,"1|pꜣ":13051,"1|ḫtm.w-nṯr-wꞽꜣ":13052,"|nꞽ":13053,"▁Krone":13054,"50|W":13055,"50|r":13056,"30|nḏ":13057,"30|zp":13058,"▁ḫb":13059,"▁ḫp":13060,"▁ben":13061,"▁blick":13062,".t-6":13063,".t-š":13064,".tꞽ.DU":13065,"us.\r\n":13066,"▁hört":13067,"▁ist;\r\n":13068,"▁pt":13069,"▁psi̯":13070,"▁pack":13071,"▁1244":13072,"▁1269":13073,"▁1261":13074,"▁gl":13075,"▁guten":13076,"70|Ꞽ":13077,"70|ḫr":13078,"-m-ḥꜣ.t":13079,"80|w":13080,"80|ḫ":13081,"80|wr\r\n":13082,"▁374":13083,"▁3|ꜣ":13084,"▁36170|":13085,"▁Wo":13086,"▁Wange":13087,"▁Mau":13088,"▁ḏꜥr":13089,"eht":13090,"it,":13091,"▁gepack":13092,"▁ꜥbꜣ":13093,"▁Beine":13094,"▁Bast":13095,"▁B:)":13096,"▁Bild":13097,"▁110":13098,"-ḫꜣs":13099,"037|":13100,"9830|q":13101,"-wr.w":13102,"-wꜣḏ":13103,"88</g>":13104,"6|Ḥtp":13105,"▁erk":13106,"▁ꞽrꞽ\r\n":13107,"▁181140|":13108,"ntf":13109,"nt.w":13110,"-kꜣ.PL":13111,"der.\r\n":13112,"▁tut":13113,"w.t$-G":13114,"▁1329":13115,"▁1348":13116,"▁ḥr.t":13117,"▁zugewies":13118,"le,":13119,"▁fein":13120,"▁fand":13121,"▁den)":13122,"297|":13123,"▁400004|ꜥnḫ":13124,"=f-ḥz":13125,"094|":13126,"▁1564":13127,"▁1533":13128,"▁159470|":13129,"▁159830|q":13130,"ꜣ.t.n":13131,"ürft":13132,"▁𓎢𓆑𓏏𓌪":13133,"▁𓎛𓄿":13134,"▁𓎛𓄿𓏏":13135,"▁šz":13136,"▁šw\r\n":13137,"▁šnꜥ":13138,"▁šm.t":13139,"▁Luft":13140,"▁Lande":13141,"ꜣbꜣ":13142,"-sch":13143,"▁Fal":13144,"▁Falle":13145,"2|šp":13146,"▁164510|":13147,"▁𓆓𓃀𓂝":13148,"▁nbs":13149,"▁nb.w\r\n":13150,"▁nb-kꜣ\r\n":13151,"▁km":13152,"▁km-wr":13153,"17A</g>":13154,"(.t).DU":13155,"(.t)-ꞽb\r\n":13156,"▁Ruder":13157,"▁𓇓𓏏𓀆":13158,"ḏdw":13159,"▁Schep":13160,"▁Schenkel":13161,"-nb=ꞽ\r\n":13162,"▁V\\res-2":13163,"▁𓉘𓈍":13164,"▁𓉘𓅨𓏏𓉜\r\n":13165,"▁Einer,":13166,"▁1402":13167,"▁1454":13168,"34|sḥḏ-ḥm.w":13169,"▁𓎟𓇋𓌳":13170,"▁ḥtpꞽ\r\n":13171,"▁ḥtp-ḥr=s\r\n":13172,"ḫ.t(ꞽ)":13173,"▁Vereinig":13174,"▁Verhalten":13175,"▁Königsbek":13176,"liches":13177,"lichkeit":13178,"du,":13179,"durch":13180,"▁fürch":13181,"▁𓏏𓉔𓅓":13182,"ms.w\r\n":13183,"277|":13184,"▁nfr-qd":13185,"▁𓊃𓌳":13186,"▁𓊃𓃀𓈖":13187,"▁Erz":13188,"▁Erster":13189,"örn":13190,"▁$m":13191,"▁$š":13192,"▁$srf":13193,"▁pr\r\n":13194,"▁mrr.t":13195,"▁Herr,":13196,"-pr-nswt":13197,"081|":13198,"08|n":13199,"▁500089":13200,"▁(da":13201,"▁𓂝𓍯𓄿":13202,"▁Opfergaben":13203,"▁kꜣp":13204,"▁185980|":13205,"▁ꜣw.t":13206,"▁verl":13207,"8525|":13208,"▁113020|":13209,"▁𓈖𓏏𓆑":13210,"▁alles":13211,"▁2575":13212,"▁2536":13213,"pw.t\r\n":13214,"$-R":13215,"▁550033|":13216,"▁550004|Sbk":13217,"wrw":13218,"▁essen":13219,"▁qꜣi̯":13220,"▁qꜥḥ":13221,"reichen":13222,"▁ihn.\r\n":13223,"▁ihnen.\r\n":13224,"▁stir":13225,"▁119540|":13226,"w.t-wr.t\r\n":13227,"wꜣwꜣ":13228,"wꜣ-Tꜣ.wꞽ":13229,"𓐍𓏏\r\n":13230,"▁ḏd\r\n":13231,"3|ḫtm":13232,"ebe,":13233,"▁70269":13234,"𓏏𓏏𓏛":13235,"▁𓊹𓂋":13236,"▁𓊹𓂧":13237,"▁Außens":13238,"<g>D140</g>":13239,"<g>D84</g>":13240,"▁400157|ꞽm.ꞽ-rʾ":13241,"efinden":13242,"▁𓆓𓂧\r\n":13243,"▁𓉔𓂋":13244,"▁𓂧𓈙𓂋":13245,"▁Chep":13246,"▁(weiter":13247,"nbn":13248,"▁𓄤𓃞𓊵\r\n":13249,"▁𓍹𓇳𓈖":13250,"▁aus.\r\n":13251,"kommen,":13252,"tigkeit":13253,"▁ꞽ:dr":13254,"▁ꞽ:ḫm.w":13255,"nq.t\r\n":13256,"▁21990|ꞽw":13257,"▁21940|ꞽw":13258,"▁(ꞽ)m(.ꞽ)-rʾ-mšꜥ":13259,"960|sqꜣi̯":13260,"grḥ":13261,"20|pr-wr":13262,"▁125060|":13263,"▁450173|":13264,"▁450131|":13265,"wḏ\r\n":13266,"▁tp.PL":13267,"▁ẖnw\r\n":13268,"ḥꜣ.t\r\n":13269,"mꜥ\r\n":13270,"träg":13271,"▁𓐍𓂋𓊤":13272,"▁uns":13273,"▁sn-nb.tꞽ\r\n":13274,"𓊹𓊹𓊹𓅡":13275,"▁Neith.\r\n":13276,"ilfe":13277,"ünst":13278,"-wr.(t)\r\n":13279,"▁𓇳𓀭":13280,"▁mꜣꜥ.t-ḫrw":13281,"▁herab":13282,"▁Spal":13283,"▁8536":13284,"▁85355":13285,"▁85386":13286,"▁Meri-":13287,"6390|":13288,"7|N.ꞽ-sw":13289,"▁450234|sḥḏ-ḥm.w":13290,"▁85568":13291,"▁𓄿𓂧":13292,"▁𓄿𓈎":13293,"610|ꞽ":13294,"-sšr.w\r\n":13295,"▁ꞽtḥ.t.n":13296,"brig":13297,"▁𓅨𓂋𓈙":13298,"▁nḏs\r\n":13299,"gehen.\r\n":13300,"|nfr-qd":13301,"▁12778":13302,"▁450645|ꞽm.ꞽ-rʾ":13303,"▁𓇋𓋴𓏏":13304,"▁𓅓𓂝𓎢":13305,"▁hꜣw":13306,"▁𓐍𓏏𓏛𓏥\r\n":13307,"sbed":13308,"▁𓏎\r\n":13309,"a-N":13310,"ḥwꞽ":13311,"-mrw\r\n":13312,"10|mwt":13313,"▁𓄟𓏏":13314,"▁Himmel,":13315,"▁450578|":13316,"▁450562|":13317,"eicht/einge":13318,"bb.wꞽ":13319,"▁𓄂𓏏𓏤":13320,"▁ḥꜣt.t":13321,"▁550022|ꞽ":13322,"▁550021|pꜣ":13323,"▁175650|":13324,"zw.":13325,"ꜣꜥ.t\r\n":13326,"𓈖𓏌𓏏":13327,"▁grḥ":13328,"etzel":13329,"▁997":13330,"▁V\\ptcp.pass.m.sg:stpr":13331,"▁Esel":13332,"▁sowie":13333,"▁n.t.t":13334,"𓂋𓅱𓀁":13335,"▁𓏠𓈖𓏛":13336,"▁ꞽꜣ(.t).PL":13337,".ꞽ-ḥp\r\n":13338,"▁850717|":13339,"▁85127":13340,"▁ꞽsk":13341,"▁gebär":13342,"▁85428":13343,"heit.\r\n":13344,"▁seist.\r\n":13345,"sḥḏ-ḫnt.ꞽw-š-pr-ꜥꜣ":13346,"▁70310":13347,"ungen,":13348,"<g>O51":13349,"▁wirst,":13350,"▁sḥḏ-ḫnt":13351,"30|wnḫ":13352,"▁Regel":13353,"▁𓌂𓏤":13354,"▁𓄡𓂋𓂧":13355,"weis":13356,"ḫnd.w":13357,"▁entstehen":13358,"▁frei":13359,"äll":13360,"älter":13361,"▁Gebie":13362,"▁Totenopfer.\r\n":13363,"▁Mund.\r\n":13364,"▁wurde,":13365,"▁47280|wr\r\n":13366,"▁705022|":13367,"▁geschaffen":13368,"-hotep":13369,"▁𓌳𓁹𓈖":13370,"▁hast,":13371,"49|ḫnt.ꞽ-":13372,"▁abgesonder":13373,"▁abgeschn":13374,"▁104940|":13375,"▁𓏶𓅓𓂜":13376,"▁ḫnt(.ꞽ)-ꞽ":13377,"▁ḫnt(.ꞽ)-ꞽr":13378,"▁ḫnt(.ꞽ)-ꞽmn.t":13379,"▁𓄔𓏤":13380,"▁𓇋𓊪𓇋\r\n":13381,"<g>M33B</g>":13382,"-neferet.\r\n":13383,"gesunken":13384,"▁Seth.\r\n":13385,"▁Achs":13386,"020|wꞽꜣ":13387,"▁7043":13388,"▁ꞽr(.t).DU":13389,"<g>A7A</g>":13390,"▁ḥm-nṯr-nfr-ꞽr-kꜣ-rꜥw":13391,"𓁷𓂋𓋴\r\n":13392,"nrw.t":13393,"▁70060|mꞽ":13394,"▁ḥw.t-wr.t\r\n":13395,"enkt":13396,"▁ꞽpꞽ\r\n":13397,"et-ib\r\n":13398,"59|nfr-qd":13399,".t-kꜣ=ꞽ\r\n":13400,"▁450441|":13401,"▁Schlag":13402,"▁Schließ":13403,"▁zꜣ.t-nzw":13404,"▁850571|ꞽ":13405,"▁wt.ꞽ\r\n":13406,"19|wdp.w":13407,"61|tp":13408,"▁ꞽmn.tt":13409,"▁ꞽmn.t(ꞽ)\r\n":13410,"▁33290|ꞽ":13411,"▁𓀗𓀀":13412,"▁bevor":13413,"▁(ꞽ)ḫ.t.PL":13414,"▁(noch)":13415,"▁7045":13416,"▁7048":13417,"▁Tag.\r\n":13418,"▁450749|ḫnt.ꞽ-":13419,"▁hat,\r\n":13420,"▁878525|":13421,"▁400577|":13422,"▁400520|ꞽm.ꞽ-rʾ":13423,"▁(Pl":13424,"▁Meni.\r\n":13425,"▁170861|tp":13426,"▁𓇋𓂝𓎺":13427,"ḥm-nṯr-Nfr-ꞽr-kꜣ-Rꜥw":13428,"▁𓈎𓄿𓀠":13429,"▁𓈎𓄿𓋴":13430,"▁129120|s":13431,"▁smr-pr":13432,"▁𓋴𓌂𓐍":13433,"bꞽꜣ\r\n":13434,"▁𓇋𓁹𓅱":13435,"07|Psḏ":13436,"▁ḥr(.ꞽ)-ꞽb":13437,"▁Augenblick":13438,"▁73940|Mḥ.w":13439,"▁Kampf":13440,"▁gerufen":13441,"90|ḥw.t":13442,"hauses":13443,"ulst":13444,"▁𓋴𓃀𓐍":13445,"▁850601|ḥr.ꞽ-sštꜣ-n":13446,"▁𓍋𓈋":13447,"▁𓍱𓎱":13448,"▁n.ꞽ-ꜥnḫ":13449,"▁𓂋𓐍𓏛𓈖":13450,"-Gefäß":13451,"▁𓅡𓎢":13452,"▁70644":13453,"▁Zuwend":13454,"▁Langhornrind.\r\n":13455,"pꞽ.w":13456,"▁𓎁𓈖":13457,"illkommen":13458,"▁sms.w-pr":13459,"-n.tt":13460,"▁𓃥𓋴𓌉":13461,"▁882506|S":13462,"▁𓍲𓈖𓏏":13463,"šꜣ.t-ḥtp":13464,"▁400127|":13465,"▁V~ptcp.distr.act.m.pl":13466,"-Brot,":13467,"97</g>":13468,"▁Flut":13469,"-Maat":13470,"-Mꜣꜥ.t\r\n":13471,"▁schützend":13472,"▁851810|ꞽri̯":13473,"4|Ꞽrꞽ\r\n":13474,"▁400458|nfr\r\n":13475,"▁(Halbmonatsfest":13476,"gebrochen":13477,"▁𓋴𓂋𓏲":13478,"-mꜣꜥ\r\n":13479,"n.wtt":13480,"▁𓁷𓂋𓋴𓈙𓏏𓍔𓄿𓈖":13481,"▁𓊃𓊪𓊗\r\n":13482,"▁7015":13483,"<g>N50</g>":13484,"▁Leinenzeugs.\r\n":13485,"▁𓉐𓏤𓆓𓏏":13486,"▁älte":13487,"ichtet,":13488,"80|nfr":13489,"▁𓉘𓋞𓏏𓉜\r\n":13490,"▁44020|wꞽꜣ":13491,"▁weggegangen":13492,"▁𓂋𓂞𓈖":13493,"▁Min,":13494,"▁Unterägypten\r\n":13495,"▁𓆳𓄋":13496,"▁𓆳𓏏𓌐":13497,"▁𓇋𓏎𓈖𓈖":13498,"𓏤𓏤𓏤𓏤𓏤𓏏":13499,"▁Verklärten.\r\n":13500,"▁<g>E14":13501,"▁𓎔𓏏":13502,"ḫ.t-wt":13503,"▁𓇅𓏏":13504,"70|ḥw.t-wr.t\r\n":13505,"-ḥꜣ=f\r\n":13506,"▁<g>M12":13507,"▁86300":13508,"▁ẖnm(.w)":13509,"4</g>𓈖":13510,"▁Neb-ka\r\n":13511,"▁ḫt-Öl\r\n":13512,"▁darin":13513,"▁29610|ꞽ":13514,"▁mnḫ\r\n":13515,"▁herausgezogen":13516,"▁𓌃𓂧𓏏𓀁\r\n":13517,"▁keinen,":13518,"▁psḏ.t\r\n":13519,"▁Imi-wer":13520,"▁Ältester":13521,"42|Ꞽꜣm":13522,"ieben,":13523,"▁ḫtm.w-nṯr-wꞽꜣ-dwꜣ":13524,"▁𓊹𓋨𓊹𓊹𓊹𓅡":13525,"▁geschützt.\r\n":13526,"60|ḏꜥr":13527,"▁<g>V28C</g>":13528,"▁Rindern":13529,"▁Landmann:\r\n":13530,"▁𓇋𓐩𓆓𓏛":13531,"▁Ehefrau":13532,"<g>V97</g>":13533,"|ꞽm.ꞽ-ḫt":13534,"▁Djedef":13535,"▁md(w)":13536,"▁127020|":13537,"gꜣ.w\r\n":13538,"𓏃𓏏𓈙𓏤":13539,"▁Halle\r\n":13540,"-ḥzz.t":13541,"▁145960|sqꜣi̯":13542,"▁$ḏꜥm":13543,"▁884759|nfr-qd":13544,"-Schlange":13545,"▁856299|":13546,"▁zẖꜣ(.w)":13547,"▁𓎛𓁷𓂋𓈐":13548,"▁𓎛𓁷𓂋𓐍𓅱":13549,"▁nb-ꞽmꜣḫ-ḫr-nṯr-ꜥꜣ":13550,"▁141600|sḫ":13551,"▁(das)":13552,"57|Ꞽ":13553,"▁𓃫\r\n":13554,"▁Hap":13555,"▁112300|ḥ":13556,"▁kennen":13557,"▁𓇋𓏏𓆑𓀀":13558,"▁𓄭𓂋𓀁":13559,"▁𓈋𓅱𓏏":13560,"𓄣𓄣𓄣":13561,"▁zerstör":13562,"▁Wüsten":13563,"▁180620|d":13564,"▁𓎟𓍋𓈋":13565,"ḥm-nṯr-N":13566,"-bꜣ=f\r\n":13567,"▁läßt.\r\n":13568,"▁𓀻𓋴𓋴":13569,"▁zerb":13570,"▁𓅱𓈙𓃀":13571,"▁710470|Ꞽ":13572,"▁kꜣ(=ꞽ)-ḥ(w)i̯=f\r\n":13573,"▁𓇼𓄿𓀢":13574,"▁Kai-huief.\r\n":13575,"▁707693|Kꜣ=ꞽ-ḥwi̯=f\r\n":13576,"▁sẖ.t":13577,"eifigkeit":13578,"▁rmn.DU":13579,"$-Leiden":13580,"$-Lock":13581,"▁855519|wdp.w":13582,"▁200007|N.ꞽ-sw":13583,"▁200004|Ꞽrꞽ\r\n":13584,"▁Tjetu.\r\n":13585,"▁𓉲𓎟":13586,"▁Ninetjer":13587,"▁=2pl":13588,"▁Harchuf":13589,"▁𓎟𓇿𓂦\r\n":13590,"$-Hitze":13591,"▁𓅱𓄋𓊪":13592,"▁Monats":13593,"▁𓆭𓄣\r\n":13594,"▁(zu)":13595,"/Geschw":13596,"/dar":13597,"80|twt":13598,"▁schwarz":13599,"▁𓃀𓈞<g>Z24</g>":13600,"▁Gutsverwalter,":13601,"-Dwꜣ-Tꜣ.wꞽ":13602,"▁Nähe":13603,"▁69310|mwt":13604,"▁𓌳𓐙𓂝𓊤":13605,"▁ng(":13606,"6|ꞽm.ꞽ-rʾ-sšr.w\r\n":13607,"▁150450|":13608,"ohner":13609,"▁𓇦𓂋𓏏𓂩":13610,"▁62900|":13611,"▁62980|":13612,"▁853211|ḫtm.w-nṯr-wꞽꜣ":13613,"▁182760|ḏꜥr":13614,"▁(Totenfest),":13615,"▁sehen,":13616,"▁sehen.\r\n":13617,"▁gelegt.\r\n":13618,"▁Furchtbar":13619,"▁Erschein":13620,"▁$pꜣ.t":13621,"▁𓂝𓃹𓈖𓀜":13622,"eschwür":13623,"▁<g>R118</g>𓅃":13624,"/eingesunken":13625,"▁97760|hy":13626,"▁Heti.\r\n":13627,"▁Häusern":13628,"▁beseit":13629,"▁Wahrlich,":13630,"▁<g>H38</g>":13631,"▁V\\res-3du.m":13632,"▁47420|":13633,"▁Heq":13634,"▁\"Möge":13635,"▁𓄋𓈐𓏏𓏥":13636,"▁Schlachtbank":13637,"60|ꞽwꜥ.w":13638,"▁𓎀𓊃":13639,"▁Beliebtheit":13640,"▁ergriffen":13641,"-bꞽꜣ\r\n":13642,"▁ꞽꜣm(.t)-ꞽb\r\n":13643,"▁Aufträge":13644,"smr-pr":13645,"▁𓐞𓏤":13646,"▁(Fr":13647,"antine\r\n":13648,"▁22460|ꞽwꜥ.w":13649,"▁ḥr.ꞽ-tp-nḫb":13650,"▁Schweigen":13651,"▁𓉔𓂋𓅱𓇳":13652,"▁𓍹𓇳𓃃𓅱𓍺𓊹𓍛":13653,"-ḏfꜣ\r\n":13654,"▁gereinigt":13655,"▁Djedi:\r\n":13656,"▁𓈎𓂋𓋴𓌠𓊭𓏏":13657,"▁Plätzen,":13658,"𓇋𓊃𓊃𓇋𓍺":13659,"polen":13660,"ꜥq.w":13661,"gebracht":13662,"▁170480|twt":13663,"▁167920|grḥ":13664,"▁geboren.\r\n":13665,"zündet":13666,"𓉻𓂝𓄿":13667,"▁400193|ḫtm":13668,"▁400432|šp":13669,"▁99870|ḥw.t-wr.t\r\n":13670,"▁500407|Psḏ":13671,"▁710942|Ꞽꜣm":13672,"▁𓄿𓏏𓏯𓇳":13673,"▁𓏅𓈖𓍘":13674,"▁𓈖𓄓𓏏𓎽":13675,"▁mḏḥ.w-mḏḥ.w(w)-nzw":13676,"𓐪𓂧𓏌𓏛":13677,"▁𓇑𓃀𓁷𓁶":13678,"/Steifigkeit":13679,"▁sp.t.DU":13680,"▁sorgen,":13681,"▁(n)bs\r\n":13682,"▁weise":13683,"▁Habg":13684,"▁54460|bꞽꜣ":13685,"▁33960|ꞽ":13686,"▁aufgeweicht/einge":13687,".ꞽ-ḏbꜥ\r\n":13688,"▁(damit)":13689,"▁106750|ḥnmm.t":13690,"▁libyschen":13691,"▁𓋹𓋹𓋹":13692,"▁400993|bnꞽ":13693,"-ḥw.t-wr.t-6":13694,"▁Festduftöl":13695,"▁168210|gḥs\r\n":13696,"▁Speisezeltes":13697,"▁141480|sḫ.t":13698,"▁91770|nḏs\r\n":13699,"▁V\\adv.inf.f":13700,"𓊃𓊪𓊗":13701,"▁gnädig":13702,"▁116300|ḫpr":13703,"▁kämpfen":13704,"▁Herbeibringen":13705,"▁$bnw.t$-G":13706,"▁79960|nꞽꜣ.w\r\n":13707,"▁(ꞽ)m(.ꞽ)-r(ʾ)-(ꞽ)ꜥw":13708,"▁𓏏𓍔𓄿𓈙𓏴":13709,"▁146190|sqr":13710,"▁art.poss:m.sg":13711,"t-kꜣ.w=s\r\n":13712,"▁Amme":13713,"▁𓋴<g>T140</g>":13714,"2|Ḥtp-ḥr=s\r\n":13715,"▁168970|Tꜣ.wꞽ":13716,"▁𓂝𓃂𓅱":13717,"6|Nb-kꜣ\r\n":13718,"▁706996|Sḥtp":13719,"▁136700|snꜥꜥ":13720,"▁131460|zbi̯":13721,"▁45750|wpw.t":13722,"▁850695|nb-ꞽmꜣḫ-ḫr-nṯr-ꜥꜣ":13723,"103</g>":13724,"züglich":13725,"Ḥꜣb-Zkr":13726,"▁400054|Ḥtpꞽ\r\n":13727,"▁858952|n":13728,"▁126600|zꜣb":13729,"nḫbḫb":13730,"▁$wnḫ$-Lock":13731,"▁Nefer-qed-Maat":13732,"▁𓅭𓃀𓄣\r\n":13733,"▁Dua-ta":13734,"▁𓍹𓇳𓄤𓁹𓂓𓍺𓊹𓍛":13735,"▁855676|ꞽm.ꞽ-rʾ-sšr.w\r\n":13736,"▁450020|Ḏꜣ.tꞽ\r\n":13737,"<g>O32A</g>":13738,"▁705292|Ḥtp-ḥr=s\r\n":13739,"▁44460|wꜥb":13740,"▁51980|wḏ.w":13741,"▁𓊹𓋨𓇼𓇿𓇿<g>P30</g>":13742,"▁ẖkr.t-nswt-wꜥ.tt":13743,"▁54650|bꞽn.t\r\n":13744,"▁Nasenlöchern":13745,"▁Elefantine\r\n":13746,"▁Pfeiler":13747,"▁176350|ṯrp":13748,"▁128910|sꜥnḫ":13749,"▁(ꞽm.ꞽ)-wr.(t)\r\n":13750,"▁Steifheit/Steifigkeit":13751,"Cheops":13752,"▁111600|ḥtm":13753,"tieft/eingesunken":13754,"▁𓃰\r\n":13755,"▁𓎠𓉗":13756,"▁46930|wnḫ":13757,"▁43820|wꜣḏ":13758,"▁42360|w":13759,"▁43420|wꜣ":13760,"▁100160|ḥꜣ":13761,"▁Hilfsbed":13762,"▁60520|pr-wr":13763,"▁53300|bꜣ.w":13764,"▁36170|ꜥwn":13765,"▁181140|dgi̯":13766,"▁400004|ꜥnḫ-wḏꜣ":13767,"▁159470|qꜣ":13768,"▁159830|qꜥḥ":13769,"▁164510|Km-wr":13770,"▁𓏏𓉔𓅓𓂾":13771,"▁500089|m-ḫnt":13772,"▁25750|ꞽm.ꞽ-ḫt":13773,"▁25360|ꞽm.ꞽ-wr.t\r\n":13774,"▁550033|qsn":13775,"▁119540|ḫnd.w":13776,"▁400157|ꞽm.ꞽ-rʾ-Šmꜥ.w":13777,"▁450131|zꜣb-zẖꜣ.w":13778,"▁450234|sḥḏ-ḥm.w-nṯr":13779,"▁450645|ꞽm.ꞽ-rʾ-wpw.wt":13780,"▁450578|smr-pr":13781,"▁450562|sḥḏ-ḫnt.ꞽw-š-pr-ꜥꜣ":13782,"▁550022|ꞽmi̯":13783,"▁550021|pꜣy=":13784,"▁175650|ṯn":13785,"▁850717|ḥm-nṯr-Nfr-ꞽr-kꜣ-Rꜥw":13786,"▁703106|Nb-kꜣ\r\n":13787,"<g>O51B</g>":13788,"▁705022|Ḥr.w":13789,"▁70060|mꞽni̯":13790,"▁450441|Ḥꜣb-Zkr":13791,"▁850571|ꞽfd.w":13792,"▁878525|zꜣ.t-nswt":13793,"▁400520|ꞽm.ꞽ-rʾ-s.t":13794,"▁850601|ḥr.ꞽ-sštꜣ-n-ḫtm.t-n-nswt":13795,"▁882506|Sn-nb.tꞽ\r\n":13796,"▁400127|ḫft":13797,"▁Imi-weret-Phyle\r\n":13798,"▁ḫtm.w-nṯr-wꞽꜣ-dwꜣ-tꜣ.wꞽ":13799,"▁856299|sdb":13800,"▁853211|ḫtm.w-nṯr-wꞽꜣ-Dwꜣ-Tꜣ.wꞽ":13801,"▁400193|ḫtm.tꞽ-bꞽ.tꞽ":13802,"▁400432|šps.w-nswt":13803,"▁710942|Ꞽꜣm-ꞽb\r\n":13804,"▁aufgeweicht/eingetieft/eingesunken":13805,"▁116300|ḫpr.w":13806,"▁$bnw.t$-Geschwür":13807,"▁$wnḫ$-Lockerung":13808,"!\",":13809,"\")":13810,"\").\r\n":13811,"(n":13812,"(mer":13813,",t":13814,"-J":13815,"-der":13816,"-Ḫwi̯=f-wꞽ":13817,".\r\r\n":13818,"/B":13819,"/als":13820,"1030|":13821,"23|":13822,"2A</g>":13823,"330|":13824,"3020|":13825,"370|ḥ":13826,"420|":13827,"58":13828,"52|m":13829,"6|m":13830,"670|":13831,"76|ꞽ":13832,"8050|":13833,"890|ḥm":13834,"86|Ḥ":13835,"94|Ꞽ":13836,"Auf":13837,"HG":13838,"Mn\r\n":13839,"Opfer":13840,"Ptḥ\r\n":13841,"Rḏi̯":13842,"Sꜣb":13843,"Spd":13844,"a-nebti\r\n":13845,"bꜣ\r\n":13846,"dp":13847,"dm.t":13848,"eb\r\n":13849,"fw":13850,"gut":13851,"hü":13852,"holz":13853,"if":13854,"jn":13855,"kw.t":13856,"kunde":13857,"mz":13858,"mü":13859,"met":13860,"nṯr":13861,"nam":13862,"n-wn.t":13863,"o)":13864,"off":13865,"qd":13866,"ren":13867,"r.y":13868,"re,":13869,"richtet":13870,"sh":13871,"ses,":13872,"s.ꞽ\r\n":13873,"seite":13874,"twr":13875,"utet":13876,"ze,":13877,"äter":13878,"öger":13879,"üb":13880,"üben":13881,"šꞽ":13882,"ši̯":13883,"ḏꜣ\r\n":13884,"Ḫꜣs":13885,"ṯzi̯":13886,"▁𓂦":13887,"▁𓄪":13888,"▁𓇔":13889,"▁𓇠":13890,"▁𓈌":13891,"▁𓈔":13892,"▁𓉥":13893,"▁𓋷":13894,"▁𓍕":13895,"▁𓏻":13896,"▁eher":13897,"▁ṯrp":13898,"▁𓄑𓄑𓄑":13899,"ꜣk":13900,"ꜣ-wr":13901,"ꜥn":13902,"ꜥḥ.t":13903,"︂\r\n":13904,"𓀭𓏥":13905,"𓁐𓏥":13906,"𓁷\r\n":13907,"𓁹\r\n":13908,"𓂋𓌙":13909,"𓂋𓐍":13910,"𓂘𓏌":13911,"𓄤𓂋𓏏\r\n":13912,"𓄿𓅓":13913,"𓄿𓅱𓏏":13914,"𓅡𓏱":13915,"𓅡𓊂\r\n":13916,"𓅨𓂋𓅱":13917,"𓅭\r\n":13918,"𓅱𓀀𓏥":13919,"𓆑𓅆":13920,"𓆓𓆑\r\n":13921,"𓇋𓀁":13922,"𓇋𓏏\r\n":13923,"𓇛𓅓":13924,"𓈉𓏏":13925,"𓈎𓈖":13926,"𓈎\r\n":13927,"𓈖𓆱𓐍𓏏":13928,"𓈙𓏤":13929,"𓈙𓂋𓏏":13930,"𓈞𓄑":13931,"𓉱\r\n":13932,"𓊃𓈖\r\n":13933,"𓊛\r\n":13934,"𓊪𓊖":13935,"𓊪𓋴":13936,"𓊽𓂧𓏏":13937,"𓋩𓋩":13938,"𓋴𓈙":13939,"𓎆𓏥":13940,"𓎛𓂺":13941,"𓎛𓋴":13942,"𓎟𓏏":13943,"𓎟𓆑\r\n":13944,"𓎡𓅱":13945,"𓎼𓎼":13946,"𓏃\r\n":13947,"𓏊𓏤":13948,"𓏏𓋴":13949,"𓏏<g>D":13950,"𓏲𓂻":13951,"𓐍𓆑":13952,"erk":13953,".m.du":13954,"▁dd":13955,"▁dg":13956,"▁dšr\r\n":13957,"sten,":13958,"statt":13959,"▁Nil":13960,"▁Nedj":13961,"enen":13962,"in)":13963,"ch,":13964,"▁402":13965,"▁464":13966,"▁437":13967,"▁nꜥ":13968,"▁nr.w":13969,"▁nḥb.w":13970,"▁n-wn.t":13971,"▁snḏm":13972,"▁sꜣb\r\n":13973,"m.yt":13974,"▁813":13975,"▁835":13976,"▁818":13977,"▁896":13978,"▁81740|":13979,"▁80510|":13980,"▁mḥ.w":13981,"▁ꞽh":13982,"▁ꞽḫm.w":13983,"▁40013":13984,"▁400110|":13985,"▁400960|":13986,"▁400701|":13987,"▁(etw":13988,"▁(immer":13989,"▁(als)":13990,"▁wn.t":13991,"▁wörtl.:":13992,"▁wsḫ":13993,"▁widers":13994,"▁Dinge":13995,"einen,":13996,"-nʾ.t":13997,"-nsw.t":13998,"▁ḥḏi̯":13999,"▁ḥkn.w":14000,"▁Tür":14001,"ielen":14002,"▁738":14003,"▁77480|":14004,"▁77490|":14005,"00|b":14006,"00|d":14007,"▁2.":14008,"eihen":14009,"▁𓈖𓌰𓅓":14010,"gebnis":14011,"▁101930|":14012,"orizon":14013,"▁𓇋𓌻":14014,"▁914":14015,"▁923":14016,"▁Häl":14017,"▁Sen\r\n":14018,"60|wr":14019,"60|ṯz.w":14020,"▁Ass":14021,"10|Ḥ":14022,"10|gs":14023,"10|ḥwꞽ":14024,"▁67":14025,"▁642":14026,"▁𓅓𓂞":14027,"▁𓋴𓂓":14028,"▁𓋴𓄔":14029,"▁𓋴𓈞":14030,"▁𓋴𓆱𓏏":14031,"▁𓋴𓆣𓂋":14032,"austr":14033,"▁400076|ꞽ":14034,"90|ḫft":14035,"ichen":14036,"▁8526":14037,"▁8593":14038,"|mdw":14039,"40|sr":14040,"40|hp":14041,"40|Bꜣs":14042,"40|Spd":14043,"▁rund":14044,"▁ruh":14045,"▁r-gs":14046,"▁richten,":14047,"▁zmꞽ":14048,"20|ḫn":14049,"te(?),":14050,"▁526":14051,"1|ḥ":14052,"1|Mr":14053,"|nṯr":14054,"|nfr.w":14055,"▁Köpfe":14056,"ters":14057,"30|nḫ":14058,"▁ḫnm":14059,"▁ḫmt":14060,"iger,":14061,"▁bö":14062,"▁bbꞽ\r\n":14063,"▁besser":14064,".t-w":14065,".t-ꞽ\r\n":14066,".t-mdw":14067,".t-Mnw":14068,"▁häl":14069,"▁handel":14070,"▁ps":14071,"▁pšš":14072,"▁1201":14073,"▁1209":14074,"▁1273":14075,"▁1276":14076,"▁1283":14077,"fru":14078,"▁gḥs\r\n":14079,"70|z":14080,"70|nb":14081,"▁viel":14082,"-mnw":14083,"80|Ꞽ":14084,"80|Tꜣ":14085,"▁398":14086,"▁341":14087,"▁381":14088,"▁Weiß":14089,"-ḥr\r\n":14090,"▁Men\r\n":14091,"▁Myr":14092,"▁ḏr.w":14093,"▁ḏbꜣ":14094,"-rḏi̯":14095,"-rs.ꞽ":14096,"it.\r\n":14097,"it-kaes.\r\n":14098,"▁𓍹𓅱":14099,"▁𓍹𓋴𓄤":14100,"▁geopfer":14101,"▁ꜥr":14102,"▁ꜥꜣ\r\n":14103,"▁ꜥn.t":14104,"435|":14105,"▁Bed":14106,"▁Beg":14107,"▁Bedarf":14108,"▁1100":14109,"▁1105":14110,"628|":14111,"-ḫnr":14112,"-ḫwi̯=f-w(ꞽ)":14113,"▁457":14114,"▁1781":14115,"▁174240|":14116,"▁𓊪𓅮":14117,"▁eingetr":14118,"Ḥr.w-B":14119,"▁PREP-adjz:f.du":14120,"-ꞽnb":14121,"-wr.t":14122,"nḫ.t\r\n":14123,"▁erst":14124,"▁Horus!\r\n":14125,"ḥr.ꞽ-sštꜣ\r\n":14126,"▁𓇓𓅭":14127,"▁𓇓𓆤":14128,"▁aufr":14129,"dern":14130,"▁twr":14131,"▁tkn":14132,"▁inmit":14133,"arm":14134,"arden":14135,"▁1309":14136,"▁ḥr-b":14137,"▁ḥri̯.t(ꞽ)":14138,"▁zuber":14139,"rot.\r\n":14140,"asse,":14141,"▁Ip":14142,"▁PREP-adjz:m.sg\r\n":14143,"▁1527":14144,"▁154790|":14145,"▁154080|":14146,"▁𓁷𓂋𓏏":14147,"ürm":14148,"▁deinetwegen":14149,"▁𓎛𓊪𓏏":14150,"▁𓎛𓁷𓂋𓏏":14151,"ẖr.t\r\n":14152,"▁šw.t":14153,"▁Lib":14154,"▁LHG":14155,"-s(ꞽ)\r\n":14156,"edit":14157,"49|m-ḫt":14158,"ḫru̯":14159,"▁55220|":14160,"▁55640|":14161,"estes":14162,"est.\r\n":14163,"▁1685":14164,"▁1693":14165,"60|nḥb.w":14166,"▁nbs\r\n":14167,"(.t)-nꞽ.t\r\n":14168,"▁Rein":14169,"▁Richter":14170,"▁𓍿𓏏𓇋\r\n":14171,"▁ꞽn.w\r\n":14172,"▁𓇓𓏏𓌎":14173,"▁64369":14174,"5|zẖꜣ":14175,"5|ḥr.ꞽ-tp-ꜥꜣ-n":14176,"-nb.wt":14177,"▁1466":14178,"▁auf.\r\n":14179,"▁Vern":14180,"▁ṯtꞽ\r\n":14181,"n.w-n-ꞽm.ꞽ-rʾ":14182,"661|ḥ":14183,"▁𓏏𓊿":14184,"▁𓏏𓅱𓏏":14185,"▁𓏏𓎢𓈖":14186,"r.t.DU":14187,"00|rmn":14188,"▁𓊃𓊪𓏏":14189,"▁n(.ꞽ)-nṯr\r\n":14190,"▁hat!\r\n":14191,"▁hatte.\r\n":14192,"▁Erden":14193,"▁Erdm":14194,"▁$ꜥ":14195,"▁$kꜣ":14196,"▁$zm":14197,"0630|":14198,"▁nṯr-nfr":14199,"šm.t\r\n":14200,"▁50014":14201,"aba\r\n":14202,"▁𓉐𓋴":14203,"tꞽw":14204,"▁𓂝𓎛":14205,"▁𓂝𓈖𓏏":14206,"▁𓂝𓅓𓈖":14207,"srḫ":14208,"sr$-":14209,"tꜣ)":14210,"▁verurs":14211,"▁ḥmw":14212,"▁𓇋𓂋𓅱":14213,"▁𓊵\r\n":14214,"0|ꞽn.w\r\n":14215,"920|Ḥr.w-B":14216,"▁gibst":14217,"▁sie:\r\n":14218,"▁𓊨𓏏\r\n":14219,"wršu̯":14220,"110</g>":14221,"reiben":14222,"▁ihn/sie":14223,"ummer":14224,"▁886":14225,"▁8800":14226,"▁sti̯":14227,"▁stütz":14228,"▁still":14229,"zꜣ-Rꜥw":14230,"epi.\r\n":14231,"▁schm":14232,"▁95000|":14233,"ebt,":14234,"▁𓅱𓃀":14235,"▁𓅱𓂧𓈖":14236,"▁𓁷𓏤\r\n":14237,"▁7023":14238,"▁Sop":14239,"▁Nefer-":14240,"▁Zählen":14241,"<g>D46":14242,"▁ist,\r\r\n":14243,"▁𓆓𓂧𓊽":14244,"▁𓉔𓇋𓅱":14245,"▁𓂧𓂧":14246,"▁2618":14247,"▁2638":14248,"▁Chaba\r\n":14249,"▁\"Sch":14250,"-ẖnm.w":14251,"▁𓃀𓇋𓈖":14252,"▁𓃀𓄤𓆑𓂋\r\n":14253,"▁ꞽ:wn":14254,"▁ꞽ:sdb":14255,"9|ꜣ":14256,"9|Ḥw.t-":14257,"+(ꜥ)":14258,"+(nṯr":14259,"+(tꜣ)":14260,"▁sich,":14261,"▁leuch":14262,"nq$-F":14263,"▁(ꞽ)m(.ꞽ)-rʾ-ḫnt":14264,"960|Ḥw.t-Ḥr.w":14265,"010|ꜥ":14266,"ḥ.w-n":14267,"▁450141|":14268,"wḏb":14269,"▁tp.t":14270,"-ḏfꜣ":14271,"▁Großer,":14272,"tr.t\r\n":14273,"▁Jen":14274,"870|s":14275,"-ꜥnḫ-":14276,"-ꜥnḫ.w":14277,"ündel":14278,"▁7113":14279,"▁7114":14280,"▁𓁶<g>D207</g>":14281,"-šnꜥ":14282,"-šms.w":14283,"▁𓊪𓏏𓂋𓆵":14284,"leib":14285,"▁8537":14286,
[...]
